<s>	0
<pad>	0
</s>	0
<unk>	0
<mask>	0
<unused0>	0
<unused1>	0
<unused2>	0
,	-2.84272
。	-3.73064
的	-3.76507
▁	-3.88322
、	-4.43239
在	-5.0394
和	-5.23196
)	-5.53943
“	-5.54019
年	-5.5668
是	-5.56791
了	-5.61886
:	-5.63655
(	-5.73001
中	-5.77523
”	-5.79497
为	-5.80054
有	-5.89186
月	-5.92417
人	-5.93819
日	-5.95688
与	-5.96028
大	-6.0189
上	-6.09262
对	-6.10531
不	-6.13662
一	-6.18616
将	-6.23003
等	-6.28209
后	-6.29538
以	-6.3345
时	-6.37207
;	-6.3784
说	-6.38873
到	-6.43618
▁*	-6.44708
也	-6.47881
会	-6.48689
中国	-6.51824
及	-6.58414
他	-6.59971
3	-6.60227
1	-6.60315
「	-6.64553
而	-6.64815
》	-6.65405
地	-6.68338
于	-6.70614
被	-6.7252
2	-6.72656
就	-6.73862
▁==	-6.74204
新	-6.74674
《	-6.74918
并	-6.76653
从	-6.77664
但	-6.78042
要	-6.79214
多	-6.79713
5	-6.79983
下	-6.8016
小	-6.82311
前	-6.82712
4	-6.84693
高	-6.85822
我	-6.85844
三	-6.87088
表示	-6.88364
?	-6.88964
出	-6.89933
10	-6.90612
都	-6.91643
来	-6.91678
家	-6.94116
名	-6.96087
点	-6.96913
公司	-6.97127
」	-6.97363
6	-6.979
之	-6.98583
向	-7.0096
性	-7.00975
水	-7.01219
用	-7.01337
子	-7.01737
!	-7.01998
分	-7.02649
-	-7.03085
.	-7.03639
市	-7.03684
至	-7.04654
7	-7.04761
进行	-7.05906
可	-7.07331
已	-7.08035
由	-7.08044
区	-7.09322
里	-7.09464
长	-7.10336
8	-7.11611
一个	-7.11998
天	-7.1205
国	-7.13347
所	-7.14426
山	-7.14562
9	-7.14848
工作	-7.15026
个	-7.15382
我们	-7.16106
美国	-7.16263
还	-7.16392
或	-7.17456
金	-7.17612
车	-7.1778
万	-7.18987
内	-7.19262
这	-7.19657
你	-7.2027
元	-7.21349
国家	-7.2151
能	-7.21721
好	-7.21967
发展	-7.22307
二	-7.23242
市场	-7.23944
政府	-7.26002
者	-7.27346
企业	-7.27495
其	-7.27612
德	-7.27658
无	-7.27856
可以	-7.29202
着	-7.30104
五	-7.30639
美	-7.30764
成	-7.31298
外	-7.32345
队	-7.32591
文	-7.3318
四	-7.33235
过	-7.33745
▁(	-7.34025
问题	-7.34655
没有	-7.3466
开	-7.35164
最	-7.35188
比	-7.35297
台湾	-7.35678
法	-7.36537
经济	-7.3676
自	-7.37473
特	-7.3832
让	-7.38555
发	-7.39281
他们	-7.39531
国际	-7.39759
心	-7.4032
斯	-7.40406
海	-7.40893
化	-7.41245
生	-7.4141
把	-7.41627
得	-7.41682
12	-7.42328
行	-7.43037
王	-7.43276
手	-7.44348
起	-7.4496
去	-7.45374
·	-7.4578
投资	-7.45923
更	-7.46007
两	-7.4602
路	-7.46645
又	-7.47233
张	-7.47519
通过	-7.49117
马	-7.49172
已经	-7.50302
该	-7.50503
学	-7.50589
林	-7.50995
部	-7.5126
西	-7.51405
目前	-7.51602
线	-7.51635
本	-7.51679
/	-7.51712
再	-7.52041
11	-7.52166
她	-7.52456
20	-7.52644
头	-7.5311
力	-7.54213
今天	-7.54479
台	-7.55021
达	-7.55452
正	-7.55501
活动	-7.55574
做	-7.56816
拉	-7.56859
尔	-7.57056
道	-7.57216
局	-7.57348
南	-7.57422
认为	-7.58076
克	-7.58849
华	-7.58911
以及	-7.58968
明	-7.59083
看	-7.59187
管理	-7.59493
地区	-7.59923
自己	-7.59942
军	-7.5998
全	-7.59992
应	-7.60363
给	-7.60376
打	-7.60493
30	-7.60654
县	-7.60857
服务	-7.61474
重	-7.61573
机	-7.61609
号	-7.6215
这个	-7.63276
则	-7.63293
建设	-7.6339
安	-7.63693
总	-7.64117
级	-7.64339
因	-7.6435
度	-7.65192
世界	-7.6528
报	-7.65976
加	-7.66052
入	-7.67237
转	-7.67337
面	-7.67755
同	-7.67797
李	-7.68074
利	-7.6849
花	-7.68593
技术	-7.68798
风	-7.68809
量	-7.69226
今年	-7.69252
记者	-7.69858
成为	-7.69935
光	-7.70325
s	-7.7085
陈	-7.71293
就是	-7.7134
处	-7.71726
东	-7.71792
方	-7.72377
社会	-7.7252
”。	-7.72555
开始	-7.7256
老	-7.73269
】	-7.73339
教育	-7.7338
站	-7.73486
要求	-7.73781
门	-7.74539
这些	-7.74583
日本	-7.74643
六	-7.75051
使	-7.75286
各	-7.75351
时间	-7.75678
称	-7.76589
计划	-7.76811
需要	-7.77205
19	-7.77316
科	-7.77495
期	-7.77739
指出	-7.78058
人员	-7.78387
八	-7.79213
项目	-7.79719
城	-7.79975
香港	-7.8
因为	-7.80074
米	-7.80246
使用	-7.80389
事	-7.80442
银行	-7.80709
卡	-7.80721
”,	-7.80811
A	-7.80959
平	-7.81065
建	-7.81286
文化	-7.81343
当	-7.8166
包括	-7.81664
:“	-7.81672
很	-7.82391
位	-7.82464
场	-7.83001
大学	-7.83132
可能	-7.83426
中心	-7.83661
经	-7.84364
▁【	-7.84892
气	-7.84934
网	-7.85889
▁在	-7.85927
如果	-7.86137
C	-7.86607
▁===	-7.86927
如	-7.87114
合作	-7.87253
▁“	-7.87544
约	-7.87633
通	-7.87829
公	-7.87891
组织	-7.88143
其中	-7.88293
S	-7.8866
发现	-7.88726
安全	-7.88859
赛	-7.88982
提供	-7.89229
北	-7.9005
原	-7.90134
强	-7.90358
数	-7.90363
一些	-7.90489
曾	-7.90636
全国	-7.90696
希望	-7.91053
定	-7.9121
次	-7.91777
受	-7.91928
爱	-7.91967
战	-7.92303
15	-7.92505
产品	-7.9259
主要	-7.92612
P	-7.92621
州	-7.9286
七	-7.92994
黄	-7.93098
红	-7.9331
白	-7.93383
B	-7.93402
北京	-7.93404
书	-7.93494
第	-7.93535
商	-7.93569
却	-7.93725
口	-7.93977
单	-7.93992
研究	-7.94017
系统	-7.94692
只	-7.94715
体	-7.95174
女	-7.95232
想	-7.95322
作	-7.95336
型	-7.95443
罗	-7.9553
同时	-7.95744
进	-7.95882
==	-7.96438
代表	-7.96609
方面	-7.9732
近	-7.97849
18	-7.97963
发生	-7.98107
制	-7.98108
龙	-7.98254
T	-7.98337
未	-7.98446
球	-7.98569
村	-7.9868
影响	-7.98738
巴	-7.98827
图	-7.98877
参加	-7.99427
连	-8.0036
亚	-8.00549
才	-8.0056
政策	-8.00759
作为	-8.01367
共	-8.01856
九	-8.01978
因此	-8.02135
省	-8.02466
吃	-8.02741
案	-8.0311
率	-8.0313
股	-8.03514
还是	-8.03717
流	-8.03744
电	-8.03789
主	-8.03815
由于	-8.03895
▁”	-8.03962
获得	-8.04064
权	-8.04311
走	-8.04382
亿元	-8.04452
动	-8.04818
第一	-8.04843
出现	-8.05235
都是	-8.05248
清	-8.05348
回	-8.05669
。”	-8.05952
情	-8.06426
价	-8.06627
组	-8.06877
增加	-8.07121
先	-8.07203
但是	-8.07255
价格	-8.07532
对于	-8.079
首	-8.08198
16	-8.08361
空	-8.08374
工	-8.08458
现在	-8.08556
选	-8.08638
生活	-8.08686
周	-8.08698
低	-8.08831
业	-8.08848
之后	-8.0899
学生	-8.09163
会议	-8.0919
民	-8.09219
也是	-8.09293
相	-8.09613
城市	-8.09647
万元	-8.09759
带	-8.10059
支持	-8.10148
江	-8.10276
*	-8.10622
非	-8.10966
关系	-8.11272
信	-8.1134
进入	-8.11502
们	-8.11829
院	-8.12226
工程	-8.1231
机构	-8.12711
情况	-8.12771
关注	-8.13283
热	-8.13644
交	-8.13702
钱	-8.13837
火	-8.13893
请	-8.13925
团	-8.14368
学校	-8.1441
总统	-8.14693
决定	-8.14704
身	-8.14705
品	-8.14801
费	-8.14978
13	-8.15294
▁-	-8.15469
款	-8.15483
其他	-8.15594
不能	-8.15762
信息	-8.15897
D	-8.15943
M	-8.16039
刘	-8.16738
党	-8.1684
委员会	-8.1695
有关	-8.17182
岁	-8.17408
任	-8.17437
阿	-8.17514
部分	-8.17597
14	-8.17687
纳	-8.18019
石	-8.18079
立	-8.18494
未来	-8.18563
举行	-8.18874
格	-8.19047
它	-8.19414
保	-8.19441
继续	-8.1953
星	-8.19623
L	-8.20055
代	-8.20292
孩子	-8.20741
产业	-8.20806
调查	-8.20944
式	-8.21001
17	-8.21321
声	-8.21334
那	-8.21354
超	-8.21386
能力	-8.21478
基金	-8.21631
语	-8.2197
非常	-8.22119
联	-8.22166
片	-8.22938
油	-8.22986
根据	-8.23034
相关	-8.23057
双	-8.23103
调	-8.2354
25	-8.23541
间	-8.2359
必须	-8.23651
世	-8.23775
河	-8.23927
媒体	-8.2403
员	-8.2404
G	-8.24273
难	-8.24355
反	-8.24497
集团	-8.2457
交易	-8.2472
汽车	-8.24802
生产	-8.24903
这一	-8.24916
变	-8.24981
少	-8.25044
这种	-8.25114
节	-8.25137
镇	-8.25192
实现	-8.25582
设计	-8.25941
新闻	-8.26227
上海	-8.26316
资金	-8.26401
类	-8.26554
亿	-8.2658
50	-8.26582
港	-8.26739
即	-8.26761
收	-8.26811
放	-8.2686
学习	-8.26905
没	-8.26965
每	-8.26991
中央	-8.2701
太	-8.27159
病	-8.27242
教	-8.27404
神	-8.27436
完成	-8.27808
此	-8.28082
还有	-8.28096
增长	-8.28104
实施	-8.28117
单位	-8.28133
基	-8.28323
科技	-8.28348
环境	-8.28629
方式	-8.28674
布	-8.28683
古	-8.28702
y	-8.29082
见	-8.29097
行业	-8.29131
占	-8.29149
提高	-8.29317
政治	-8.29428
条	-8.29966
选择	-8.30144
像	-8.302
种	-8.30206
黑	-8.30446
实	-8.30449
感	-8.30643
奖	-8.30647
加强	-8.3075
传	-8.30813
旅游	-8.3089
处理	-8.30949
21	-8.31085
这是	-8.31337
指	-8.31348
全球	-8.31504
业务	-8.31694
个人	-8.3184
深	-8.31842
造成	-8.31873
期间	-8.31985
自己的	-8.32058
大陆	-8.32417
能够	-8.32617
医院	-8.32641
楼	-8.32759
房	-8.32788
买	-8.32821
只有	-8.32991
产	-8.33178
提出	-8.33709
事件	-8.33794
F	-8.34109
接受	-8.34502
色	-8.34758
国内	-8.34826
真	-8.35009
波	-8.35041
改革	-8.35052
e	-8.35371
虽然	-8.35433
管	-8.35598
24	-8.35651
如何	-8.35686
不同	-8.35804
解决	-8.35848
派	-8.35928
物	-8.36164
眼	-8.36178
的人	-8.3625
半	-8.36349
积极	-8.36506
盘	-8.36627
以上	-8.36739
合	-8.36755
远	-8.36975
金融	-8.37022
=	-8.37029
证	-8.37197
专业	-8.37204
均	-8.37263
所以	-8.37317
意	-8.37325
取	-8.37427
胜	-8.3752
我国	-8.37725
师	-8.38043
共同	-8.38217
参与	-8.38337
——	-8.38436
报告	-8.38495
关	-8.38496
器	-8.38605
H	-8.38841
不断	-8.39083
开发	-8.3922
很多	-8.39246
沙	-8.39436
票	-8.39498
岛	-8.39625
装	-8.40027
美元	-8.40088
乐	-8.40095
"	-8.4012
送	-8.40261
比较	-8.40533
人民	-8.40646
22	-8.40745
制度	-8.40831
超过	-8.41025
阳	-8.4106
维	-8.41062
田	-8.41158
某	-8.41249
进一步	-8.41405
平台	-8.41683
干	-8.41737
英国	-8.4175
保护	-8.41752
店	-8.41902
・	-8.4195
内容	-8.42333
件	-8.42389
十	-8.42418
乡	-8.42634
不是	-8.42795
达到	-8.43019
比赛	-8.4305
仍	-8.43109
甚至	-8.43118
木	-8.43148
尼	-8.43257
除	-8.43466
去年	-8.43511
零	-8.43624
分析	-8.43821
版	-8.43907
一次	-8.4406
23	-8.44108
运	-8.44303
之一	-8.4434
专家	-8.44466
英	-8.44482
福	-8.44944
▁据	-8.44999
i	-8.45044
应该	-8.45048
的时候	-8.45101
不过	-8.45343
无法	-8.4542
具有	-8.45436
改	-8.45464
落	-8.45808
o	-8.45895
历史	-8.45908
标准	-8.45921
资源	-8.46035
K	-8.46052
系	-8.46293
死	-8.46343
班	-8.46762
字	-8.46816
建立	-8.46935
水平	-8.47137
er	-8.47193
所有	-8.47194
t	-8.47336
工业	-8.47402
办	-8.47522
民众	-8.47707
100	-8.47729
一直	-8.47811
26	-8.47838
税	-8.4794
28	-8.48015
成功	-8.48056
正在	-8.48094
推动	-8.48096
校	-8.48198
问	-8.48203
雷	-8.48438
志	-8.48464
边	-8.48537
兵	-8.48656
飞	-8.48741
双方	-8.48752
直接	-8.48901
网络	-8.48912
」,	-8.48991
投	-8.49007
最后	-8.49236
不会	-8.49247
完	-8.49446
E	-8.49456
兰	-8.49534
防	-8.49563
常	-8.4959
云	-8.49698
列	-8.49716
特别	-8.49835
一般	-8.49856
行动	-8.4999
排	-8.50023
交通	-8.50086
结果	-8.50152
宝	-8.50153
这样	-8.50178
建议	-8.5026
哈	-8.50495
轮	-8.50521
伊	-8.50615
较	-8.50675
现场	-8.50678
运动	-8.50716
跟	-8.50726
便	-8.50801
而且	-8.50805
标	-8.50816
社	-8.50881
销售	-8.5101
奥	-8.51243
部门	-8.51262
政	-8.51294
利用	-8.51309
几	-8.51514
界	-8.51616
正式	-8.51617
了解	-8.51618
第二	-8.51811
解	-8.52197
大家	-8.52344
经营	-8.52356
电影	-8.52422
是否	-8.52697
展	-8.52865
杨	-8.53016
若	-8.53088
夫	-8.53178
27	-8.53258
理	-8.53325
40	-8.53383
0	-8.53406
来自	-8.53604
措施	-8.53717
什么	-8.53723
收入	-8.5382
副	-8.53834
N	-8.53908
规定	-8.5395
联合	-8.53984
满	-8.54016
提	-8.54018
血	-8.54047
户	-8.54085
余	-8.54201
居	-8.54366
届	-8.54509
写	-8.54552
控制	-8.54656
获	-8.54699
集	-8.54885
成立	-8.54906
创新	-8.5492
皮	-8.55007
健康	-8.55131
听	-8.55254
儿	-8.55283
中共	-8.55327
考	-8.55339
伤	-8.55346
全面	-8.55411
视	-8.55549
千	-8.55564
包	-8.55657
快	-8.55915
男	-8.55925
越	-8.55944
客	-8.56156
塔	-8.56317
青	-8.56345
升	-8.56427
数据	-8.56542
持续	-8.56548
卖	-8.56636
吉	-8.5674
直	-8.57004
药	-8.57128
地方	-8.57155
座	-8.57212
查	-8.57358
基本	-8.5739
领	-8.57401
厂	-8.5744
官	-8.57468
目标	-8.57498
农	-8.57515
驻	-8.57655
春	-8.57664
位于	-8.57784
修	-8.5781
百	-8.57875
俄罗斯	-8.57966
重要	-8.58098
以来	-8.58162
n	-8.58195
住	-8.58695
增	-8.58711
主席	-8.58717
据	-8.58843
士	-8.58868
且	-8.58926
仅	-8.58975
家庭	-8.58982
人士	-8.58984
画	-8.58997
~	-8.59041
29	-8.59184
规划	-8.59184
表	-8.59253
重点	-8.59371
这次	-8.59426
任何	-8.59484
按	-8.59503
拥有	-8.59799
奇	-8.59895
调整	-8.5998
接	-8.60116
吴	-8.60166
或者	-8.60287
导致	-8.60346
O	-8.60495
为了	-8.60656
手机	-8.60667
促进	-8.6083
看到	-8.60923
当时	-8.61396
段	-8.61432
准备	-8.61522
源	-8.61615
早	-8.61657
贸易	-8.61716
湖	-8.6214
鱼	-8.62163
义	-8.62302
a	-8.62497
值	-8.62609
m	-8.62619
受到	-8.62629
游	-8.62714
言	-8.62764
不要	-8.63239
日电	-8.63332
宣布	-8.63443
话	-8.63508
换	-8.6351
永	-8.63554
中的	-8.63557
强调	-8.63582
u	-8.63685
减少	-8.63688
支	-8.63713
得到	-8.63765
关于	-8.6379
职	-8.63846
普	-8.63873
选举	-8.63958
欧洲	-8.64034
香	-8.64097
严重	-8.64255
f	-8.64343
品牌	-8.64397
苏	-8.64491
雨	-8.64527
核	-8.64575
武	-8.64606
执行	-8.64653
史	-8.64874
介绍	-8.64932
条件	-8.64964
他的	-8.65002
60	-8.65032
底	-8.65097
申请	-8.65107
一起	-8.65133
别	-8.65145
知	-8.65295
专	-8.65487
经过	-8.65577
访问	-8.65646
差	-8.65676
创	-8.657
帮助	-8.6593
一年	-8.66095
法国	-8.66126
微	-8.66175
菜	-8.66217
室	-8.66297
何	-8.66368
保持	-8.66574
综合	-8.6672
呢	-8.66735
提升	-8.67057
报道	-8.67102
31	-8.67155
取得	-8.67194
开展	-8.67235
著	-8.67241
治	-8.67248
k	-8.67689
泰	-8.67737
分别	-8.6782
牛	-8.67836
只是	-8.67878
00	-8.67972
R	-8.67993
当地	-8.68003
板	-8.68089
2016	-8.68116
馆	-8.68325
复	-8.68331
许多	-8.68698
用户	-8.688
形成	-8.68842
的是	-8.68847
协会	-8.68856
稳定	-8.68874
食	-8.68916
交流	-8.69144
......	-8.69157
群	-8.69328
人口	-8.6953
层	-8.69637
往	-8.69657
项	-8.69721
采取	-8.69789
an	-8.69874
汉	-8.6995
富	-8.70054
左右	-8.70131
德国	-8.70306
存在	-8.70337
学院	-8.70345
电话	-8.70457
广	-8.70502
来说	-8.70557
瑞	-8.70644
精神	-8.70671
风险	-8.70825
显示	-8.70836
体育	-8.70977
试	-8.71006
结	-8.71096
土	-8.71185
现	-8.71309
欧	-8.71496
消费	-8.71559
酒	-8.71696
朝	-8.7173
完全	-8.71793
艺术	-8.7183
博	-8.72291
营	-8.72327
al	-8.72387
游戏	-8.7248
退	-8.72528
科学	-8.72559
萨	-8.72559
负责	-8.72643
80	-8.72728
货	-8.7275
+	-8.72773
亲	-8.72797
两个	-8.72885
森	-8.7312
g	-8.73266
离	-8.7329
库	-8.7332
自然	-8.7346
园	-8.73523
警方	-8.73658
兴	-8.73682
银	-8.7378
属	-8.73921
松	-8.73978
许	-8.73993
除了	-8.74002
坚持	-8.74039
一样	-8.74093
丽	-8.7425
街	-8.74433
推	-8.74464
行为	-8.74472
一名	-8.74518
最终	-8.74606
照	-8.74652
偏	-8.74774
叶	-8.74914
指数	-8.74927
额	-8.74958
韩国	-8.74972
谈	-8.75041
人们	-8.75228
不仅	-8.75459
发布	-8.75496
责任	-8.75496
台北	-8.75592
之前	-8.75656
努力	-8.75772
更多	-8.7579
r	-8.76023
先生	-8.76089
停	-8.76162
亚洲	-8.76431
玉	-8.76515
过去	-8.7656
初	-8.76623
保障	-8.76794
起来	-8.76848
环	-8.76858
铁	-8.76978
法律	-8.77017
存	-8.77041
桥	-8.7707
配	-8.77099
委	-8.77195
讲	-8.77309
冠军	-8.77323
价值	-8.77399
套	-8.77446
牌	-8.77478
迪	-8.77548
功能	-8.77597
失	-8.77604
规模	-8.77627
宁	-8.77632
群众	-8.77675
分钟	-8.7781
2015	-8.77833
压	-8.78019
各种	-8.78044
证券	-8.78148
举办	-8.78208
」。	-8.78212
农业	-8.78228
树	-8.7824
才能	-8.78308
减	-8.78331
p	-8.78333
行政	-8.78356
吧	-8.7837
区域	-8.78519
自由	-8.78598
资产	-8.78763
d	-8.78851
程	-8.78887
加入	-8.78985
需求	-8.79088
倒	-8.79119
切	-8.7913
全部	-8.79227
航	-8.79282
最高	-8.79346
▁S	-8.79399
那么	-8.79453
荣	-8.79577
跑	-8.7959
V	-8.7959
第三	-8.79623
养	-8.79699
顺	-8.79828
毛	-8.80134
出口	-8.80373
川	-8.80429
模式	-8.80468
传统	-8.80692
令	-8.80855
发行	-8.80904
居民	-8.80938
精	-8.81113
梅	-8.81258
公里	-8.81346
亿美元	-8.81362
前往	-8.81482
船	-8.81518
刚	-8.8156
和平	-8.81564
月份	-8.81703
公开	-8.81707
夜	-8.81764
两岸	-8.81771
音乐	-8.81828
表现	-8.81918
更加	-8.81937
训练	-8.81954
的问题	-8.82037
说明	-8.82168
音	-8.82457
甲	-8.82553
▁多云	-8.82557
上涨	-8.82764
上的	-8.82797
藏	-8.8291
检查	-8.82915
孙	-8.82938
资	-8.8307
结构	-8.83086
首次	-8.83234
雪	-8.83278
2014	-8.83299
诺	-8.83331
领域	-8.8334
长期	-8.8344
空间	-8.83475
并不	-8.83563
明显	-8.83567
补	-8.83849
领导	-8.84002
景	-8.84252
建筑	-8.84369
记	-8.84432
成本	-8.84484
角	-8.8456
根	-8.84864
曲	-8.84887
有效	-8.84894
务	-8.84897
电子	-8.84943
求	-8.85072
贷款	-8.85137
担任	-8.85163
:「	-8.8517
观	-8.85237
瓦	-8.85391
极	-8.85421
▁中国	-8.85618
个月	-8.85619
族	-8.85921
吗	-8.85961
秀	-8.86046
▁**	-8.86085
ar	-8.86118
之间	-8.86145
讨论	-8.86248
部队	-8.86427
料	-8.86514
▁《	-8.86517
预计	-8.86542
阶段	-8.86554
电视	-8.86554
重大	-8.8664
胡	-8.86802
老师	-8.86866
思	-8.8687
圣	-8.86885
质	-8.86904
方案	-8.86905
选手	-8.8706
消费者	-8.87106
形	-8.87148
这样的	-8.87265
W	-8.87326
托	-8.8739
按照	-8.87429
这项	-8.87462
草	-8.87487
威	-8.87551
官员	-8.87562
鲁	-8.87625
假	-8.87714
in	-8.87802
扩大	-8.87836
en	-8.87843
作用	-8.87854
十分	-8.87913
设备	-8.88229
季	-8.88329
到了	-8.88364
留	-8.88373
事业	-8.88422
盛	-8.88433
改变	-8.88536
)、	-8.88542
茶	-8.88627
购买	-8.88629
网站	-8.88721
。」	-8.88788
脚	-8.88792
资料	-8.88972
勒	-8.88985
X	-8.89
活	-8.89044
索	-8.89057
任务	-8.89132
需	-8.89147
结束	-8.89157
知道	-8.89169
成员	-8.89211
康	-8.89242
并且	-8.89253
宗	-8.89408
致	-8.89495
设	-8.89499
下降	-8.89541
一种	-8.89621
保险	-8.89674
蓝	-8.89704
推进	-8.89744
确定	-8.89918
体系	-8.89988
平均	-8.90057
年度	-8.901
题	-8.90146
面积	-8.90284
韩	-8.904
小时	-8.90424
作品	-8.90432
剧	-8.90443
协议	-8.9056
or	-8.90681
肉	-8.90742
h	-8.90876
on	-8.91009
破	-8.91048
新的	-8.91076
彩	-8.91106
90	-8.91154
衣	-8.91216
穿	-8.91274
质量	-8.91335
改善	-8.91351
农村	-8.91427
倍	-8.91627
U	-8.91628
连续	-8.91713
铁路	-8.91748
儿童	-8.91849
具	-8.91916
拍	-8.91934
最近	-8.91965
I	-8.92019
一位	-8.92059
易	-8.92073
战略	-8.92105
计	-8.92126
庆	-8.92187
男子	-8.92197
喜欢	-8.92358
整	-8.92486
架	-8.92497
联合国	-8.92525
玩	-8.92556
野	-8.92575
方法	-8.92605
财	-8.92696
只要	-8.92747
客户	-8.92835
影	-8.92896
成长	-8.92974
负	-8.93192
伊拉克	-8.93243
举	-8.93391
是一个	-8.93489
塞	-8.93496
开放	-8.9365
遭	-8.93679
亦	-8.93707
朋友	-8.93725
找	-8.9373
也有	-8.93788
恩	-8.93897
日前	-8.93906
实际	-8.9396
机制	-8.93968
针对	-8.93975
c	-8.94233
商业	-8.94247
成绩	-8.94509
整个	-8.94791
章	-8.94795
印度	-8.94962
然	-8.95165
l	-8.95169
读	-8.95456
保证	-8.9546
温	-8.95595
属于	-8.95717
卫	-8.95808
厅	-8.95813
冷	-8.95876
速	-8.95969
股市	-8.96047
统一	-8.96091
汇	-8.96212
短	-8.96276
警	-8.96292
轻	-8.96302
一家	-8.9634
守	-8.96425
征	-8.96454
|	-8.96604
雅	-8.96786
冲	-8.96852
消息	-8.9686
一点	-8.96888
▁P	-8.97062
两国	-8.97191
检	-8.97218
投资者	-8.97248
将在	-8.97322
造	-8.97419
杯	-8.9745
民族	-8.97513
尽	-8.97733
端	-8.97737
歌	-8.97794
课	-8.97798
降	-8.97937
冰	-8.98121
评	-8.98122
救	-8.9817
友	-8.98214
总理	-8.98234
▁B	-8.98271
杰	-8.98355
灯	-8.98465
考试	-8.98487
味	-8.98514
安排	-8.98664
治疗	-8.98755
联盟	-8.98829
封	-8.98856
军事	-8.98907
怎么	-8.98929
果	-8.99138
土地	-8.99205
股票	-8.99381
相当	-8.99434
互联网	-8.99506
统计	-8.99534
人民币	-8.99562
峰	-8.99619
曼	-8.9965
知识	-8.99704
唐	-8.99722
原因	-8.99785
洪	-9.00017
干部	-9.00067
昨天	-9.00119
追	-9.00425
步	-9.00471
杀	-9.005
洋	-9.00577
足	-9.00721
礼	-9.00736
他说	-9.00737
依	-9.00751
旧	-9.00866
算	-9.00878
独立	-9.00892
命	-9.00928
丰	-9.00939
的发展	-9.01128
每天	-9.01136
每年	-9.01208
▁4	-9.01281
佛	-9.01314
将于	-9.01402
考虑	-9.01417
宣传	-9.01426
归	-9.01457
人才	-9.01458
具体	-9.01526
洛	-9.01558
—	-9.01651
联系	-9.01678
青年	-9.01795
齐	-9.01804
仁	-9.01926
如此	-9.02022
▁而	-9.02041
经验	-9.02101
整体	-9.02145
服	-9.02177
一定	-9.0218
投入	-9.02206
绿	-9.02213
叫	-9.02225
招	-9.02376
压力	-9.02394
限	-9.02438
谢	-9.0245
赵	-9.02459
基地	-9.0251
操作	-9.02529
拿	-9.02594
民主	-9.02651
素	-9.0273
乱	-9.0286
200	-9.02891
召开	-9.02893
尚	-9.02977
岁的	-9.03
2009	-9.03094
伯	-9.03159
采用	-9.03171
宫	-9.03256
郑	-9.03279
500	-9.0335
意见	-9.03388
供	-9.03392
70	-9.03494
不少	-9.03546
异	-9.0355
顶	-9.03652
===	-9.03758
堂	-9.03848
产生	-9.03876
击	-9.03934
阵风	-9.04037
2008	-9.04114
机场	-9.04121
市民	-9.04168
烟	-9.04345
最大的	-9.04486
智	-9.04522
再次	-9.04768
势	-9.0477
待	-9.05126
医疗	-9.05177
展开	-9.05212
时代	-9.05219
目	-9.05282
莫	-9.05309
b	-9.05351
农民	-9.05532
恢复	-9.05754
人的	-9.05924
公布	-9.05978
尾	-9.06005
ing	-9.06132
正常	-9.06163
圈	-9.06635
其实	-9.06726
来看	-9.06789
附近	-9.06795
射	-9.06907
伦	-9.07052
今	-9.07195
谁	-9.07317
变化	-9.0749
优势	-9.0749
▁A	-9.07539
此次	-9.07651
庄	-9.07656
贵	-9.07683
广州	-9.07715
夏	-9.07722
应用	-9.07811
办理	-9.07836
词	-9.07837
发表	-9.07861
公共	-9.08181
有限公司	-9.08205
编	-9.0822
同意	-9.08352
有些	-9.08431
竞争	-9.08463
雄	-9.08479
人数	-9.08485
备	-9.08489
容	-9.08541
2010	-9.08544
女子	-9.08569
职业	-9.08573
x	-9.08689
销	-9.08706
载	-9.0878
引起	-9.08859
降低	-9.08883
困难	-9.09101
发挥	-9.09207
▁C	-9.09231
机关	-9.09285
涨	-9.09365
35	-9.09422
良	-9.09506
利益	-9.09518
面对	-9.09536
女性	-9.09555
现代	-9.09595
因素	-9.09645
印	-9.09707
亮	-9.0971
国民党	-9.09738
独	-9.09769
丁	-9.09837
程度	-9.09916
笑	-9.09935
靠	-9.1
明确	-9.1003
车辆	-9.10082
re	-9.1019
基础	-9.10217
进行了	-9.10321
制作	-9.10431
断	-9.10534
预期	-9.10603
le	-9.1078
就业	-9.10827
母	-9.10873
财政	-9.10915
十二	-9.10967
世纪	-9.11071
徐	-9.11106
罪	-9.1113
嘉	-9.11152
范围	-9.11192
%	-9.11193
然后	-9.11198
▁3	-9.11252
足球	-9.11344
坐	-9.11365
佳	-9.11379
新加坡	-9.11449
道路	-9.11584
惠	-9.11671
折	-9.11711
枪	-9.1178
案件	-9.11794
卫生	-9.11824
监督	-9.11893
费用	-9.11906
食品	-9.11906
朱	-9.11997
抗	-9.12014
推出	-9.12063
劳	-9.12071
社区	-9.12085
民进党	-9.12091
急	-9.12148
觉得	-9.12203
最大	-9.12239
普通	-9.12257
以下	-9.12339
另外	-9.12365
姆	-9.12396
出来	-9.12583
状况	-9.1262
伟	-9.12623
卷	-9.12651
密	-9.12672
报导	-9.12779
静	-9.12789
制造	-9.1279
掉	-9.12914
重新	-9.12947
机会	-9.13006
带来	-9.13064
跌	-9.13126
教师	-9.13126
就会	-9.13276
登	-9.13293
员工	-9.13327
优	-9.13366
毒	-9.13368
杜	-9.13384
时期	-9.13469
经常	-9.13587
望	-9.13648
莱	-9.13669
商品	-9.13771
指导	-9.13885
避免	-9.13944
大型	-9.13953
随着	-9.14041
贝	-9.1406
大会	-9.14156
办法	-9.14164
培训	-9.14168
您	-9.14406
上升	-9.14525
同样	-9.1453
节目	-9.1463
陆	-9.1475
当天	-9.14795
国务院	-9.14812
京	-9.15054
都有	-9.15222
’	-9.15294
不可	-9.15299
下跌	-9.1544
战争	-9.15452
上市	-9.15457
方向	-9.15491
以后	-9.1576
背	-9.15774
系列	-9.15832
艾	-9.15837
演	-9.15913
父母	-9.15925
飞机	-9.16235
突破	-9.16247
绝	-9.16269
广告	-9.16295
进口	-9.16301
数量	-9.16411
随	-9.16559
宋	-9.16643
利率	-9.16711
相信	-9.16729
参	-9.16732
2000	-9.16807
7.	-9.16886
只能	-9.16927
菲	-9.16946
散	-9.16953
助	-9.16994
错	-9.17118
完善	-9.17199
注意	-9.173
▁小行星	-9.17458
深圳	-9.17476
▁#	-9.17634
明年	-9.17693
▁美国	-9.17716
欧盟	-9.17719
晚	-9.17802
郭	-9.17844
身体	-9.179
规范	-9.18147
海外	-9.18174
及时	-9.18368
抢	-9.1849
协助	-9.18542
细	-9.18596
喜	-9.18787
功	-9.18831
透露	-9.1912
下午	-9.19155
家长	-9.19322
32	-9.19346
中华	-9.19351
丝	-9.19375
售	-9.19382
骨	-9.19462
以色列	-9.19482
航空	-9.19491
邀请	-9.19508
讯	-9.19627
年代	-9.1966
▁根据	-9.19707
反对	-9.19738
梁	-9.19784
都会	-9.1991
宽	-9.19933
设立	-9.19952
确保	-9.19968
”、“	-9.20135
跳	-9.20372
8.	-9.20399
创业	-9.20499
结合	-9.20593
俄	-9.20632
酸	-9.20649
晓	-9.2067
电脑	-9.20762
护	-9.20766
效果	-9.20814
苦	-9.20836
微信	-9.20846
施	-9.2088
300	-9.20934
众	-9.20943
凯	-9.20993
文章	-9.20997
纪	-9.21023
配合	-9.21079
协调	-9.21165
仍然	-9.21261
ch	-9.21368
材料	-9.2154
盖	-9.21612
是在	-9.21617
的话	-9.21627
戴	-9.21627
维护	-9.21636
隆	-9.2165
严	-9.21662
告诉	-9.21802
购	-9.22012
禁	-9.2211
深入	-9.2214
控	-9.22234
纸	-9.22293
洗	-9.22322
推荐	-9.22421
力量	-9.22434
33	-9.22447
▁这	-9.22522
涉及	-9.22586
审	-9.22634
做好	-9.22666
主任	-9.22714
脸	-9.22722
▁G	-9.22761
这里	-9.22785
台北市	-9.22843
上述	-9.22964
乌	-9.23048
一下	-9.23081
不足	-9.23095
笔	-9.23115
事故	-9.23223
丹	-9.23244
5%	-9.23245
哥	-9.23265
团队	-9.2331
最佳	-9.23316
大量	-9.2337
的重要	-9.23387
能源	-9.23459
你的	-9.2368
不得	-9.23686
维持	-9.23716
钟	-9.23838
那些	-9.23853
籍	-9.23882
谷	-9.23974
止	-9.24001
左	-9.24019
免费	-9.24071
报名	-9.24127
成果	-9.2413
▁M	-9.2416
戏	-9.24301
呼吁	-9.24303
秋	-9.24345
新台币	-9.24374
落实	-9.24409
伊朗	-9.24451
生态	-9.24522
井	-9.2453
昌	-9.24613
访	-9.24661
▁从	-9.24705
的一个	-9.24734
挑战	-9.24761
程序	-9.24895
▁但	-9.25046
▁不过	-9.25049
当前	-9.25066
资本	-9.25114
负责人	-9.25143
粉	-9.25198
犯	-9.25203
6.	-9.25233
教授	-9.25312
登记	-9.25558
泽	-9.25581
日在	-9.25585
▁此外	-9.25713
翻	-9.25805
环保	-9.25871
氏	-9.25876
既	-9.25925
设施	-9.25968
▁5	-9.26035
采	-9.2614
运行	-9.26147
监管	-9.26161
万人	-9.26197
患者	-9.2632
is	-9.26388
团体	-9.26478
w	-9.26501
三个	-9.26558
z	-9.26635
大幅	-9.26706
集中	-9.26816
三年	-9.26828
而是	-9.26861
上午	-9.26882
危机	-9.26893
注	-9.2692
el	-9.27007
出席	-9.27101
后来	-9.27118
钢	-9.27234
符合	-9.27235
过程中	-9.27249
立即	-9.27271
谈判	-9.27289
创造	-9.27343
各地	-9.27429
一场	-9.27437
欢迎	-9.27481
内部	-9.27585
第四	-9.27643
死亡	-9.27665
真正	-9.27803
金额	-9.27848
公园	-9.27858
资格	-9.27886
体验	-9.27917
处于	-9.27989
证明	-9.27993
希	-9.28085
at	-9.28107
广东	-9.28197
J	-9.28226
‘	-9.2823
犯罪	-9.28271
席	-9.2829
两人	-9.2851
特别是	-9.28518
梦	-9.28528
啊	-9.28577
兼	-9.2861
几乎	-9.28669
攻	-9.28737
痛	-9.28768
状态	-9.28825
有人	-9.28856
生命	-9.28949
逐渐	-9.29052
秒	-9.29061
预	-9.29108
置	-9.29171
攻击	-9.29187
君	-9.29401
硬	-9.29413
迅速	-9.2944
行政院	-9.29579
贴	-9.29688
思想	-9.2973
泰国	-9.3001
比例	-9.30059
理论	-9.30209
限制	-9.30251
这么	-9.30281
投票	-9.30287
末	-9.30371
2007	-9.30395
延	-9.30415
议会	-9.30468
支付	-9.30477
观众	-9.30478
忠	-9.30639
部长	-9.30717
灵	-9.30722
持	-9.30771
肯定	-9.30778
论	-9.30793
▁F	-9.30871
人类	-9.30929
赫	-9.3095
蔡	-9.31063
曾经	-9.31089
舞	-9.31155
善	-9.31217
▁如果	-9.31252
蒙	-9.31561
一项	-9.31589
实行	-9.31619
迷	-9.31625
为什么	-9.31653
也不	-9.31703
快速	-9.31714
感到	-9.31856
引	-9.31975
▁of	-9.31998
污染	-9.32016
出版	-9.32057
将会	-9.32083
小组	-9.32201
Y	-9.32247
继	-9.32265
即将	-9.32328
it	-9.32397
奥运	-9.32464
▁1	-9.32498
36	-9.32504
也会	-9.32542
汤	-9.32567
圆	-9.32579
医生	-9.32716
医	-9.32956
弹	-9.33016
赴	-9.33066
动力	-9.33124
us	-9.33141
署	-9.33214
演出	-9.33226
趋势	-9.33312
石油	-9.33362
例	-9.33372
一条	-9.33382
潮	-9.33458
充分	-9.33473
含	-9.33552
五十	-9.33561
加快	-9.33583
私	-9.33633
相比	-9.33657
十五	-9.33677
增强	-9.33721
预算	-9.33737
聚	-9.33773
反应	-9.33869
咨询	-9.34058
主义	-9.34072
委员	-9.34129
纽约	-9.34138
南京	-9.34148
网友	-9.34148
股份	-9.34229
借	-9.3432
共有	-9.34484
ed	-9.34489
过程	-9.34519
脱	-9.34534
临	-9.34546
至少	-9.3458
容易	-9.34592
用于	-9.34608
险	-9.34613
意义	-9.34638
给予	-9.34661
论坛	-9.34707
探	-9.34723
▁目前	-9.34853
不到	-9.34943
虎	-9.34986
引发	-9.35143
形式	-9.35266
份	-9.3527
》、《	-9.35282
澳门	-9.35286
矿	-9.35339
▁我	-9.3535
原则	-9.35402
免	-9.35417
样	-9.35474
妈妈	-9.35489
抽	-9.35524
》(	-9.35648
阴	-9.35684
球员	-9.35689
振	-9.3572
–	-9.35818
法院	-9.35865
巨	-9.35933
真的	-9.35962
▁2	-9.36048
八十	-9.36122
宏	-9.36145
有所	-9.3616
鼓励	-9.3629
重视	-9.36357
作出	-9.3636
房地产	-9.36408
游客	-9.36422
鸡	-9.36441
一天	-9.36562
饭	-9.36621
使得	-9.3664
老人	-9.36731
现象	-9.36807
工作人员	-9.36897
中华民国	-9.36903
多个	-9.36907
脑	-9.36964
刀	-9.3703
右	-9.37102
糖	-9.37198
最新	-9.37205
▁对于	-9.37238
的新	-9.37241
来源	-9.37247
官方	-9.37259
声明	-9.37291
屋	-9.37325
顺利	-9.37492
愿	-9.37583
▁6	-9.37673
黄金	-9.37699
生物	-9.37794
启动	-9.37799
事务	-9.37831
通知	-9.37873
立委	-9.37875
喝	-9.379
诗	-9.37932
数字	-9.37988
▁L	-9.38182
湾	-9.38236
警察	-9.38394
观察	-9.38405
败	-9.38449
第一次	-9.38457
距离	-9.38459
45	-9.38536
缺	-9.3856
症	-9.38594
随后	-9.38597
二十	-9.38609
融资	-9.38688
祖	-9.38717
核心	-9.38753
打击	-9.38845
相对	-9.38943
卢	-9.38965
司法	-9.38969
蒂	-9.39047
三十	-9.39099
严格	-9.39256
久	-9.39287
教学	-9.39381
加拿大	-9.39428
et	-9.39477
民间	-9.39549
公告	-9.39589
38	-9.39646
国会	-9.39695
兹	-9.39853
天气	-9.39856
南部	-9.39857
特殊	-9.40042
侧	-9.4006
故	-9.40106
息	-9.40165
议员	-9.40189
移动	-9.40212
怀	-9.40277
文件	-9.40348
顿	-9.40472
须	-9.40537
净	-9.40547
业者	-9.40571
紧	-9.40703
纯	-9.40747
依然	-9.40757
显	-9.4083
害	-9.40925
尽管	-9.40933
指标	-9.40965
导	-9.40965
主动	-9.41003
近期	-9.41007
令人	-9.41037
制定	-9.41054
每个	-9.41077
明天	-9.41138
多次	-9.41141
酒店	-9.41158
面临	-9.41248
更是	-9.41294
**	-9.41473
越来越	-9.41498
奥运会	-9.41565
48	-9.41577
墙	-9.4166
行情	-9.41672
测	-9.41703
▁由于	-9.41724
立法院	-9.41747
【	-9.41826
积	-9.4185
勇	-9.4188
的时间	-9.41913
十一	-9.41933
健	-9.41941
横	-9.41975
组成	-9.41981
滑	-9.41993
37	-9.42004
满足	-9.42075
帮	-9.42079
抓	-9.42096
车站	-9.42122
依法	-9.42123
暴	-9.42221
府	-9.42355
34	-9.42417
中国大陆	-9.42445
摩	-9.42494
ro	-9.42507
公尺	-9.42516
关键	-9.42578
驾驶	-9.42627
资讯	-9.4263
逃	-9.42725
地震	-9.4278
象	-9.42783
打造	-9.42811
而言	-9.42895
革命	-9.429
的情况	-9.42921
弱	-9.42944
收益	-9.43123
离开	-9.43148
司	-9.43204
推广	-9.43308
的影响	-9.43438
货币	-9.43458
最低	-9.43469
为主	-9.43502
近日	-9.43585
领导人	-9.43607
下来	-9.43669
拜	-9.43691
邦	-9.43812
设置	-9.4386
年来	-9.4389
并没有	-9.43976
损失	-9.44012
溪	-9.44021
担心	-9.44069
麦	-9.44073
餐	-9.44093
年轻	-9.44094
加上	-9.44137
评估	-9.44164
帕	-9.44172
效	-9.4418
实力	-9.44265
从事	-9.44275
2013	-9.44426
400	-9.44485
爆	-9.44501
他们的	-9.44561
巴西	-9.44561
视频	-9.44577
表演	-9.44671
块	-9.44694
的方式	-9.44695
比如	-9.4479
剂	-9.44844
朗	-9.44923
人物	-9.44998
分享	-9.4502
冠	-9.45129
th	-9.45219
▁T	-9.45291
▁7	-9.45292
▁10	-9.4533
麻	-9.45373
帝	-9.45435
十六	-9.45443
适合	-9.45541
别人	-9.45622
让人	-9.45661
运输	-9.45697
一定要	-9.45741
先后	-9.45748
▁19	-9.45795
廿	-9.45795
自动	-9.45807
之间的	-9.45813
吸引	-9.45814
2006	-9.45871
1.	-9.45892
一切	-9.45928
培养	-9.45986
对方	-9.46138
隔	-9.46191
1000	-9.46248
炎	-9.46377
智能	-9.46389
疾病	-9.46427
即使	-9.46517
育	-9.46538
此外	-9.46647
研发	-9.4665
工资	-9.4673
我的	-9.46745
▁李	-9.46797
尤其是	-9.4694
批	-9.46987
武器	-9.4703
扬	-9.47128
军队	-9.47142
淡	-9.47155
西班牙	-9.4717
决	-9.4737
不再	-9.47393
▁他	-9.47404
念	-9.47463
旅	-9.47464
ur	-9.47465
扎	-9.47479
以前	-9.47503
来到	-9.47606
▁他说	-9.47647
找到	-9.47658
灾	-9.47672
例如	-9.4769
年前	-9.4784
仪式	-9.47901
车型	-9.4791
理解	-9.47968
历	-9.48018
广泛	-9.48054
玛	-9.48109
一致	-9.48172
艺	-9.48177
浪	-9.48179
厚	-9.48411
婚	-9.48419
举行的	-9.48466
计算	-9.48502
辉	-9.48534
女儿	-9.48696
意识	-9.48803
至今	-9.48816
出了	-9.48837
几个	-9.48866
性的	-9.48897
惊	-9.48952
会谈	-9.48983
球队	-9.49
划	-9.4903
v	-9.49043
享受	-9.49082
稳	-9.49112
语言	-9.49144
十八	-9.49159
洞	-9.49238
认真	-9.49352
缓	-9.49352
重庆	-9.49427
猪	-9.49455
高雄	-9.49473
人生	-9.49473
公路	-9.49512
紧急	-9.49539
普遍	-9.49631
庭	-9.4964
基层	-9.49673
▁新华社	-9.4972
39	-9.49813
凡	-9.49815
你们	-9.49831
今日	-9.49833
st	-9.49853
逐步	-9.49939
启	-9.49975
泉	-9.50011
斗	-9.50037
特色	-9.50041
故事	-9.50071
付	-9.50107
辛	-9.50142
▁H	-9.50192
文明	-9.5024
境	-9.50256
纪念	-9.50311
挂	-9.50419
类似	-9.50429
晚上	-9.50437
朝鲜	-9.50455
各国	-9.50469
▁多云时晴	-9.50549
从而	-9.50555
广大	-9.50618
考生	-9.50765
▁另外	-9.50786
北部	-9.50791
币	-9.50854
难以	-9.50866
▁N	-9.50882
我们的	-9.50943
作业	-9.51262
达成	-9.51268
拒绝	-9.51274
解释	-9.51307
已有	-9.51427
表达	-9.51439
广场	-9.51462
民国	-9.51485
震	-9.51525
沉	-9.51558
播	-9.51578
更多的	-9.51584
透过	-9.51677
租	-9.51718
的地方	-9.5174
联赛	-9.51848
烧	-9.51878
ic	-9.51937
争取	-9.5201
童	-9.52123
协	-9.5214
央行	-9.52159
应当	-9.52189
此前	-9.52212
表明	-9.52271
洲	-9.52323
认识	-9.52339
必	-9.52451
ra	-9.52483
la	-9.52527
合同	-9.52531
刻	-9.52563
取消	-9.5261
运营	-9.5261
俊	-9.52618
▁the	-9.52663
略	-9.52761
还要	-9.52961
临时	-9.52967
腿	-9.53014
高度	-9.53205
现实	-9.53225
宜	-9.53247
持有	-9.53251
废	-9.53261
当局	-9.53268
沟通	-9.53395
▁D	-9.53419
首先	-9.53461
围	-9.53476
威胁	-9.53546
速度	-9.53563
位置	-9.53569
首都	-9.53578
年底	-9.53595
突然	-9.53644
它们	-9.53681
东北	-9.53687
88	-9.53789
3.	-9.53796
习惯	-9.53893
办公室	-9.53894
承诺	-9.53927
对象	-9.53944
竹	-9.54015
住房	-9.54051
虽	-9.54068
墓	-9.5415
000	-9.54192
供应	-9.54234
豆	-9.54285
是一种	-9.54296
ol	-9.54306
队伍	-9.54358
冬	-9.54368
另一	-9.54374
如今	-9.54501
露	-9.54534
妇女	-9.5457
董事长	-9.54596
高达	-9.54614
工商	-9.54693
经济发展	-9.547
预测	-9.547
策略	-9.54703
阅读	-9.54722
记录	-9.54728
简	-9.54807
主持	-9.54808
敏	-9.54819
缘	-9.54843
杆	-9.54911
暖	-9.54945
心理	-9.5495
固	-9.54975
附	-9.54998
课程	-9.55088
宇	-9.55131
成交	-9.55172
女士	-9.55187
四川	-9.55225
参考	-9.55234
批准	-9.55261
大部分	-9.55267
贡献	-9.55277
耳	-9.55326
鲜	-9.5538
运动员	-9.55387
西藏	-9.55461
日报	-9.55463
当然	-9.55526
纪录	-9.55583
阵	-9.5567
盐	-9.5571
一份	-9.55712
▁W	-9.55729
敬	-9.55755
豪	-9.55794
外交	-9.55873
配置	-9.55874
危险	-9.55897
往往	-9.55907
天津	-9.5593
实践	-9.56011
外国	-9.56079
对此	-9.56103
他在	-9.56108
争	-9.56134
一旦	-9.56151
改造	-9.56224
唱	-9.56283
优惠	-9.56321
冲突	-9.56325
今天在	-9.56433
终于	-9.56485
期货	-9.56526
提前	-9.56554
移	-9.56565
本次	-9.56673
四十	-9.56714
诚	-9.56747
宝宝	-9.56772
收购	-9.5682
名单	-9.56863
剑	-9.5689
ri	-9.56909
旅客	-9.56937
拟	-9.56952
吨	-9.57065
搞	-9.57102
经历	-9.57138
月底	-9.5716
突出	-9.57181
中学	-9.5722
原油	-9.5723
牙	-9.57248
99	-9.57391
承	-9.57444
东京	-9.57473
两年	-9.57499
篇	-9.57638
也将	-9.57718
范	-9.57879
成了	-9.57891
值得	-9.57892
感觉	-9.57935
十七	-9.57936
com	-9.58008
十四	-9.5804
孔	-9.58053
专门	-9.58074
手段	-9.58116
鸟	-9.58126
优秀	-9.58215
指挥	-9.58227
厂商	-9.58278
埃	-9.58324
债	-9.58364
条例	-9.58368
寺	-9.58455
遇到	-9.58494
然而	-9.58518
不知道	-9.58529
掌握	-9.58546
在中国	-9.58663
地点	-9.58672
方便	-9.58691
地位	-9.58718
遇	-9.58792
品质	-9.58802
工具	-9.58818
的情况下	-9.58904
股权	-9.58926
弗	-9.58939
告	-9.59035
发言人	-9.59105
勤	-9.59127
万美元	-9.59319
演员	-9.5938
遭到	-9.59501
财务	-9.59546
联邦	-9.5955
排名	-9.59558
液	-9.59606
的小	-9.59639
确实	-9.59687
纷纷	-9.59713
羊	-9.59765
姓	-9.59819
加大	-9.59828
软	-9.59844
跨	-9.59857
年龄	-9.5992
照片	-9.59959
劳动	-9.60019
一千	-9.60066
今后	-9.60105
绝对	-9.60122
测试	-9.60133
动物	-9.60135
寒	-9.60221
恶	-9.60267
简单	-9.60329
旗	-9.60399
非法	-9.60515
的工作	-9.60568
并未	-9.60572
海军	-9.60638
领先	-9.60672
发出	-9.60705
舍	-9.60745
娜	-9.60753
高级	-9.60784
展示	-9.60796
很大	-9.60898
小学	-9.60929
职工	-9.60938
儿子	-9.60944
▁但是	-9.6095
及其	-9.61009
创作	-9.61026
力度	-9.61052
不同的	-9.61141
业绩	-9.61168
录	-9.61177
状	-9.61178
多少	-9.61216
风格	-9.61268
另	-9.61311
il	-9.61312
签署	-9.61357
良好	-9.61816
最好	-9.61838
主题	-9.61864
利润	-9.62078
――	-9.6208
准	-9.62118
益	-9.62142
j	-9.62182
旁	-9.62195
女人	-9.62257
东西	-9.62268
累计	-9.62271
全省	-9.62486
虚	-9.62496
丰富	-9.62512
通常	-9.62532
统	-9.62642
55	-9.62688
坏	-9.62722
2005	-9.62761
审查	-9.62834
确认	-9.62945
消	-9.62953
不好	-9.62959
扫	-9.62983
停止	-9.63049
遗	-9.63066
]	-9.63067
教练	-9.63104
债券	-9.63204
绿色	-9.63214
高中	-9.6327
五年	-9.63311
则是	-9.6333
郎	-9.63367
伦敦	-9.63404
理念	-9.63424
似乎	-9.63437
佩	-9.63462
筹	-9.63465
认	-9.63479
终	-9.63577
北京市	-9.63608
支撑	-9.63614
答	-9.63631
之外	-9.63718
市长	-9.63791
拍摄	-9.63805
相互	-9.6384
非洲	-9.63863
本身	-9.63925
09	-9.63965
做出	-9.63999
男人	-9.64007
父亲	-9.64026
刑	-9.64074
即可	-9.64173
批评	-9.64218
父	-9.64263
国外	-9.64311
2012	-9.64323
议	-9.64391
候选人	-9.64417
提醒	-9.6447
哪	-9.64546
评价	-9.64595
池	-9.6464
▁记者	-9.64677
▁中新网	-9.64719
大众	-9.64731
日至	-9.64755
2.	-9.64814
动作	-9.64837
箱	-9.6495
对外	-9.64986
吸	-9.65025
07	-9.6503
愿意	-9.65271
时尚	-9.654
芳	-9.65445
2011	-9.65482
委会	-9.6549
对手	-9.65521
签	-9.65561
意大利	-9.65593
杭州	-9.65612
国民	-9.65625
鞋	-9.65651
岸	-9.65699
感染	-9.65703
▁所以	-9.6574
反映	-9.65753
意外	-9.65911
协商	-9.65915
浙江	-9.66007
信心	-9.66016
再度	-9.66065
监	-9.66103
母亲	-9.66136
申	-9.66152
应对	-9.66173
休	-9.66209
ad	-9.66222
▁放大缩小字体功能	-9.66233
房价	-9.66261
移民	-9.66279
明星	-9.66304
皇	-9.6632
▁陈	-9.66349
岩	-9.66413
当年	-9.66488
她的	-9.66535
魔	-9.66548
辆	-9.66561
收费	-9.66577
十三	-9.66583
莉	-9.66719
缺乏	-9.66768
瓜	-9.66815
宣	-9.66868
装备	-9.66921
(1	-9.66926
渠道	-9.66943
炮	-9.66958
的主要	-9.66966
房屋	-9.67015
可能会	-9.67016
2017	-9.67168
续	-9.67197
祥	-9.67199
柯	-9.67225
升级	-9.673
各类	-9.67307
娱乐	-9.67317
600	-9.67389
苹果	-9.67389
出台	-9.67408
根本	-9.6749
手术	-9.67529
▁今年	-9.67543
ia	-9.67576
放弃	-9.67577
甘	-9.67724
了一个	-9.67787
润	-9.678
主要是	-9.67821
路线	-9.67855
输	-9.67856
浮	-9.67886
采访	-9.67968
文学	-9.68062
就可以	-9.68101
依据	-9.68184
马英九	-9.68217
爆炸	-9.6827
印尼	-9.6827
高速	-9.68314
企	-9.68413
误	-9.68465
舰	-9.68491
接触	-9.68493
俱乐部	-9.68494
的大	-9.68523
合理	-9.6855
互	-9.68569
武汉	-9.68588
代表团	-9.68627
床	-9.68643
都在	-9.6867
尊重	-9.68674
锋	-9.68732
决议	-9.68766
稿	-9.68812
分配	-9.68822
桑	-9.68922
欲	-9.68951
回到	-9.68972
初步	-9.68987
患	-9.69001
高雄市	-9.69058
抵达	-9.69076
赞	-9.69099
5.	-9.69148
乘	-9.6916
紫	-9.69174
评论	-9.69181
著名	-9.69261
先进	-9.69412
承担	-9.6951
▁王	-9.69525
当选	-9.69607
事实	-9.69633
学者	-9.69677
▁K	-9.69789
境内	-9.6979
新疆	-9.69949
透	-9.69986
呼	-9.69993
承认	-9.70013
执法	-9.70025
众多	-9.70123
施工	-9.70211
官兵	-9.70216
软件	-9.70262
成都	-9.70313
尚未	-9.7036
彭	-9.7054
扣	-9.70602
紧张	-9.70604
律师	-9.70647
网上	-9.70649
仓	-9.70675
锦	-9.70687
队员	-9.70692
47	-9.70698
破坏	-9.70727
赖	-9.70739
近年来	-9.70827
关心	-9.70835
期待	-9.7085
涉嫌	-9.70887
一批	-9.71032
公众	-9.71064
列车	-9.71101
▁R	-9.7111
接近	-9.71121
胜利	-9.71136
截至	-9.71138
赶	-9.71139
运用	-9.71183
▁张	-9.7123
榜	-9.71349
08	-9.71367
迈	-9.7139
作者	-9.7147
抵	-9.71513
很难	-9.7154
图片	-9.71548
示	-9.71623
暗	-9.71774
睡	-9.71859
菲律宾	-9.71984
腾	-9.71999
陈水扁	-9.72002
建成	-9.72093
拼	-9.72212
订	-9.72214
会计	-9.72225
薪	-9.72252
42	-9.72282
是因为	-9.72305
争议	-9.72311
刺激	-9.72448
日起	-9.72539
规则	-9.72555
概念	-9.72755
涉	-9.72758
▁====	-9.72765
博物馆	-9.72776
领袖	-9.7283
内地	-9.72877
估计	-9.72898
同志	-9.72903
学术	-9.72972
一百	-9.73062
徒	-9.73128
股东	-9.73147
幅	-9.73149
做到	-9.73184
凤	-9.73193
进步	-9.73238
▁同时	-9.73255
研	-9.73259
):	-9.73283
唯一	-9.73363
宾	-9.73368
幸	-9.73431
充满	-9.73452
家人	-9.73464
呈	-9.73511
好的	-9.73547
考察	-9.73554
穆	-9.73559
霍	-9.73563
治理	-9.73577
幸福	-9.73579
住宅	-9.73599
壁	-9.7366
南韩	-9.73684
并非	-9.73692
44	-9.73718
怪	-9.73833
秘书长	-9.73887
的同时	-9.73889
于是	-9.73906
至于	-9.73909
情绪	-9.73968
物质	-9.73979
4.	-9.73998
防止	-9.74009
就能	-9.74028
山东	-9.74134
铜	-9.7418
乔	-9.7421
平方公里	-9.74263
am	-9.74293
审核	-9.74301
传播	-9.74314
赛事	-9.74337
财产	-9.74342
'	-9.74423
告诉记者	-9.74441
--	-9.74472
癌	-9.7454
形象	-9.74618
六十	-9.74694
并在	-9.74732
觉	-9.74755
植物	-9.74758
直到	-9.74855
的事情	-9.74973
形势	-9.75025
强化	-9.75051
垃圾	-9.75082
些	-9.75087
煤	-9.75094
感谢	-9.75102
效率	-9.75187
医学	-9.75212
禁止	-9.7527
乳	-9.75284
杂	-9.75337
对话	-9.75359
自身	-9.7538
同学	-9.7561
妻子	-9.75661
市场的	-9.75686
加工	-9.75724
违法	-9.75747
...	-9.75809
病毒	-9.75844
组合	-9.7588
会有	-9.75901
触	-9.75912
西部	-9.75934
涨幅	-9.75939
98	-9.75958
决策	-9.75969
响	-9.75977
在这里	-9.76002
赢	-9.76029
参赛	-9.76106
挺	-9.76135
参观	-9.76165
8%	-9.76167
工厂	-9.76167
司机	-9.76276
65	-9.76306
屏	-9.76345
的生活	-9.76348
第五	-9.76493
可是	-9.76516
想要	-9.76526
镜	-9.76611
财政部	-9.76657
飞行	-9.76691
消防	-9.76706
部署	-9.76843
斯特	-9.76845
多数	-9.76855
知名	-9.76899
坚	-9.7691
注册	-9.76912
秦	-9.76934
身上	-9.76959
教育部	-9.76963
集体	-9.76999
岗位	-9.77034
虫	-9.7705
锅	-9.77256
英语	-9.77305
骑	-9.77354
技	-9.77377
百分之	-9.77426
冲击	-9.77462
岗	-9.77502
大学生	-9.77553
在美国	-9.7757
救援	-9.77588
es	-9.77612
是由	-9.77743
▁8	-9.77864
居住	-9.77872
敌	-9.77913
在于	-9.77915
霸	-9.77958
也在	-9.77979
炒	-9.77998
基金会	-9.78026
重要的	-9.78042
越南	-9.78095
奶	-9.78111
原本	-9.78127
as	-9.7813
▁E	-9.78218
经费	-9.78248
学会	-9.78249
等地	-9.78315
各项	-9.78333
te	-9.78337
贾	-9.78346
导演	-9.7836
地下	-9.78362
还在	-9.78368
也可以	-9.78377
工人	-9.78379
档	-9.78381
美军	-9.7851
43	-9.78515
超级	-9.78541
盟	-9.78543
强烈	-9.78558
公民	-9.78569
摆	-9.78602
世界杯	-9.7871
这位	-9.78717
东方	-9.78728
多名	-9.78766
适应	-9.78831
始终	-9.78844
基于	-9.78844
追求	-9.78852
幕	-9.7888
机械	-9.79006
7%	-9.79016
侨	-9.79023
具备	-9.79051
高校	-9.79154
提名	-9.79157
各级	-9.79168
等人	-9.79225
有着	-9.79262
沈	-9.79288
猫	-9.79302
武装	-9.79349
爆发	-9.79356
权力	-9.79465
目的	-9.79473
台风	-9.79561
58	-9.79577
昨日	-9.79582
正是	-9.79611
第一个	-9.79635
出生	-9.79665
ー	-9.79851
预防	-9.79857
三百	-9.79905
呈现	-9.79923
电力	-9.79971
采购	-9.79978
卫星	-9.80024
进展	-9.80026
周边	-9.80058
粮	-9.80077
体制	-9.80144
▁第	-9.8019
2004	-9.80197
迁	-9.8023
渡	-9.80242
仙	-9.80264
罚	-9.803
变得	-9.80367
晶	-9.80452
转移	-9.80469
一度	-9.80513
:1	-9.80578
缴	-9.8065
搭	-9.80721
事情	-9.80734
800	-9.80746
援	-9.80754
粮食	-9.80769
民警	-9.80806
周年	-9.80827
75	-9.80859
▁9	-9.8092
毕业	-9.8096
贤	-9.80972
放在	-9.80973
无论	-9.81011
编辑	-9.81034
熊	-9.8104
两名	-9.8106
坡	-9.8112
仪	-9.81167
里面	-9.81194
晋	-9.81242
引导	-9.81285
发动机	-9.81329
珠	-9.81347
反弹	-9.81444
凉	-9.81621
▁我们	-9.81624
句	-9.8166
结婚	-9.8168
职务	-9.81682
地区的	-9.81717
平衡	-9.81822
公务员	-9.81844
充	-9.81865
构成	-9.81897
友好	-9.81913
57	-9.8193
▁18	-9.81947
公斤	-9.81947
顾	-9.8196
展览	-9.81976
密切	-9.81992
老板	-9.82013
团结	-9.82172
总额	-9.82186
理由	-9.82196
走势	-9.82197
桌	-9.82199
有了	-9.82206
津	-9.8226
夺	-9.82261
小编	-9.82281
饰	-9.82319
当中	-9.82358
营销	-9.82378
变成	-9.82399
劲	-9.82414
星期	-9.82414
全市	-9.82425
肯	-9.82436
发展的	-9.82437
魏	-9.82443
外资	-9.82464
陵	-9.82465
洁	-9.8249
全力	-9.8255
电视台	-9.82648
北韩	-9.82726
七十	-9.82729
化学	-9.82743
油价	-9.82778
转变	-9.82873
第十	-9.82896
大约	-9.82973
总体	-9.82995
刺	-9.83084
骗	-9.83191
探索	-9.83198
发射	-9.83208
磨	-9.83209
整合	-9.83209
运作	-9.83219
=20	-9.83235
违反	-9.83256
巡	-9.8331
流行	-9.83335
恒	-9.8334
ir	-9.83437
济	-9.83474
驾	-9.8348
狗	-9.83505
决赛	-9.83525
的原因	-9.8355
党的	-9.83587
闻	-9.83638
是个	-9.83652
码	-9.83702
文物	-9.83764
▁据了解	-9.83764
产量	-9.8381
电信	-9.83833
海洋	-9.83849
角色	-9.83856
搭配	-9.83857
检测	-9.83991
皮肤	-9.84024
术	-9.84027
覆盖	-9.84088
甜	-9.84118
在北京	-9.84182
恋	-9.84203
澳大利亚	-9.84229
布局	-9.84287
研究所	-9.84295
营养	-9.84366
援助	-9.84424
46	-9.84432
寻找	-9.84471
献	-9.84477
窗	-9.84481
练	-9.84484
中国的	-9.84497
撞	-9.84536
浓	-9.84544
政党	-9.84546
的作用	-9.84571
判断	-9.84587
燕	-9.84655
吕	-9.84848
日下午	-9.84849
总是	-9.84893
阿富汗	-9.84968
较大	-9.84995
Q	-9.8507
贺	-9.85075
实验	-9.85166
退休	-9.85228
的机会	-9.85244
加速	-9.85253
质疑	-9.85285
还将	-9.85293
05	-9.85316
巴勒斯坦	-9.85383
柏	-9.854
袋	-9.85466
证实	-9.85504
湿	-9.85509
万吨	-9.85599
珍	-9.85648
瓶	-9.85672
谋	-9.85699
那个	-9.85715
其它	-9.85737
模	-9.85753
以为	-9.85828
收到	-9.85899
青少年	-9.8592
自我	-9.85988
社会主义	-9.85998
权益	-9.86
理想	-9.86003
土耳其	-9.86025
鼓	-9.86036
掌	-9.86056
微博	-9.8613
账	-9.86148
典	-9.86154
熟	-9.86155
尽快	-9.86175
房子	-9.86197
id	-9.86286
智慧	-9.86307
姜	-9.86418
九十	-9.86418
900	-9.8644
分子	-9.86485
有一个	-9.86561
泡	-9.866
寄	-9.86621
轨	-9.8667
实际上	-9.86676
」、「	-9.86678
校长	-9.86699
华人	-9.8672
戈	-9.86731
杂志	-9.86784
中华人民共和国	-9.86792
会员	-9.86839
残	-9.86843
尖	-9.86852
韦	-9.86863
铺	-9.86876
缩	-9.86898
危	-9.86899
雾	-9.86905
胸	-9.86905
带动	-9.86915
主体	-9.86922
棋	-9.86928
开幕	-9.86971
地铁	-9.87002
国防	-9.87033
皆	-9.87045
新增	-9.87054
摄	-9.87076
十年	-9.87121
上市公司	-9.8713
毁	-9.87162
97	-9.87194
插	-9.87213
财富	-9.87218
澳	-9.87228
等等	-9.87232
刷	-9.87265
抗议	-9.87308
慢	-9.8731
▁虽然	-9.8731
代理	-9.87311
才是	-9.8732
会上	-9.87345
工作的	-9.87347
未能	-9.87358
堡	-9.87371
南非	-9.87489
戒	-9.8752
信用	-9.87535
多年	-9.87538
陆续	-9.87575
51	-9.87639
厦门	-9.87651
腰	-9.87694
欢	-9.87697
本人	-9.87712
主张	-9.87712
原来	-9.87751
记者会	-9.8777
村民	-9.878
和谐	-9.87803
Z	-9.87833
福建	-9.87837
纹	-9.87845
菌	-9.87859
成就	-9.87863
一座	-9.87904
它的	-9.8791
观光	-9.88019
un	-9.88025
顾问	-9.88078
贫困	-9.88154
公司的	-9.88169
赢得	-9.88173
否则	-9.88249
&	-9.88262
li	-9.8828
9%	-9.88307
尤	-9.88331
四个	-9.88408
袭击	-9.88409
▁该	-9.88412
回应	-9.88546
况	-9.88558
06	-9.88657
潘	-9.88715
家里	-9.88717
▁参考文献	-9.88787
精彩	-9.88922
竞	-9.88939
不够	-9.8896
暂	-9.89017
细胞	-9.89067
态度	-9.89077
啦	-9.89109
错误	-9.89164
局部	-9.89197
3000	-9.89198
53	-9.89256
铭	-9.89321
各个	-9.89328
现金	-9.89348
薄	-9.89362
经典	-9.89394
作战	-9.89406
大多数	-9.89473
现有	-9.89501
柱	-9.89572
互动	-9.89588
补贴	-9.896
西方	-9.89609
股份有限公司	-9.89616
责	-9.89661
重建	-9.89686
嘴	-9.89717
清楚	-9.89744
灾区	-9.89752
识	-9.89766
疑	-9.898
体现	-9.89802
暨	-9.89843
灰	-9.89851
曹	-9.89873
▁2、	-9.89901
公安	-9.8991
青岛	-9.90044
巴黎	-9.90158
89	-9.90174
49	-9.90181
永远	-9.90186
96	-9.90193
上了	-9.90222
混	-9.90233
出发	-9.90358
一周	-9.90366
回答	-9.9037
沃	-9.9039
41	-9.90414
都不	-9.90452
签订	-9.90468
识别	-9.90557
科研	-9.90595
就有	-9.90607
低于	-9.90625
食物	-9.90674
合并	-9.90698
成熟	-9.90705
忙	-9.90796
短期	-9.90808
招聘	-9.9082
到底	-9.90833
澳洲	-9.9086
是中国	-9.90873
本届	-9.90882
劳工	-9.9091
金牌	-9.90997
述	-9.91021
旺	-9.91048
女孩	-9.91085
鬼	-9.91146
伤害	-9.91212
有可能	-9.91239
68	-9.91253
环节	-9.91281
一张	-9.91304
点击	-9.91403
▁|	-9.91405
踏	-9.91416
邓	-9.9145
蒋	-9.91452
在此	-9.91456
150	-9.91494
二百	-9.91503
鸿	-9.91508
1.5	-9.91519
寿	-9.91551
称为	-9.91557
日上午	-9.91557
摄影	-9.91584
江苏	-9.91604
背景	-9.91627
5000	-9.91641
刊	-9.91666
兄弟	-9.91761
今天表示	-9.91807
▁I	-9.91826
融	-9.9183
56	-9.91849
提供了	-9.91861
试验	-9.91883
有关部门	-9.91979
岭	-9.91988
66	-9.91996
春节	-9.91996
看来	-9.92021
四年	-9.92055
人权	-9.92147
五百	-9.92152
素质	-9.92177
平方米	-9.92184
返	-9.92186
帅	-9.92214
感受	-9.92238
英雄	-9.92333
民主党	-9.92402
太阳	-9.9245
就要	-9.92464
▁日本	-9.92548
颇	-9.92575
博士	-9.9261
ation	-9.92653
佐	-9.92668
壮	-9.92669
盗	-9.92695
逼	-9.92743
如下	-9.92748
主管	-9.92766
兴建	-9.92805
暴力	-9.9287
或是	-9.92877
湖南	-9.92894
肠	-9.92938
校园	-9.92997
在一起	-9.93007
身份	-9.93023
始	-9.93083
▁and	-9.93116
颜	-9.93158
总部	-9.93184
91	-9.93214
针	-9.93221
她们	-9.93252
名称	-9.93262
▁当	-9.93309
大楼	-9.93338
的关系	-9.93391
全体	-9.93417
受伤	-9.93427
奔	-9.93458
自主	-9.93502
黎	-9.93664
定期	-9.93755
有利于	-9.93777
总经理	-9.93819
中文	-9.93843
分为	-9.93847
鹏	-9.93876
规	-9.93897
也没有	-9.9409
02	-9.94099
95	-9.94168
了解到	-9.94215
○	-9.94257
街道	-9.9427
十九	-9.94278
页	-9.94283
训	-9.94559
2003	-9.94583
轻松	-9.94602
股价	-9.94629
通信	-9.94639
予以	-9.94698
外交部	-9.94751
上周	-9.94793
出现了	-9.94833
都要	-9.94833
监测	-9.94879
刚刚	-9.94881
补助	-9.94925
方面的	-9.94928
空军	-9.94934
存款	-9.94951
委托	-9.94963
冯	-9.94976
药物	-9.94996
引进	-9.9501
河南	-9.95012
品种	-9.9514
修改	-9.95195
宗教	-9.95203
恐怖	-9.95211
红色	-9.95313
潜	-9.95339
▁香港	-9.95389
网路	-9.95399
优先	-9.95416
矛盾	-9.95441
试点	-9.955
进程	-9.95514
耀	-9.95553
寻	-9.95557
坦	-9.95563
候	-9.95567
蛋	-9.95589
公平	-9.95615
优质	-9.95661
也要	-9.95705
一个人	-9.95716
激烈	-9.9574
走向	-9.95759
乘客	-9.95774
多种	-9.95798
肝	-9.958
固定	-9.9581
胡锦涛	-9.95866
逆	-9.95891
2020	-9.95915
就在	-9.95977
哦	-9.96052
经理	-9.96081
复杂	-9.96085
肥	-9.96132
郡	-9.9614
零售	-9.96159
奉	-9.96163
2001	-9.96205
气温	-9.96291
猛	-9.963
涂	-9.96304
热情	-9.96314
真实	-9.96346
园区	-9.9639
毅	-9.96395
耗	-9.96411
浩	-9.96415
药品	-9.96441
但在	-9.96461
特点	-9.96534
所谓	-9.96584
狂	-9.96599
数据显示	-9.96618
展现	-9.96664
耶	-9.96675
定位	-9.96705
看看	-9.96709
通讯	-9.9671
东部	-9.96716
乎	-9.96716
让你	-9.96718
孟	-9.96738
的目标	-9.96751
01	-9.96799
并不是	-9.96812
大规模	-9.9682
喷	-9.96821
93	-9.96855
膜	-9.96869
金属	-9.96913
良好的	-9.96915
ent	-9.96916
适当	-9.96938
抱	-9.96966
高层	-9.97026
正确	-9.97141
85	-9.97142
党员	-9.97172
处罚	-9.97175
」(	-9.97201
三大	-9.97222
里的	-9.97277
03	-9.97346
棒	-9.97391
气象	-9.97402
打开	-9.97423
下去	-9.97468
泥	-9.97475
中午	-9.97497
详细	-9.97498
直播	-9.97502
120	-9.97536
长江	-9.97572
累	-9.97677
为此	-9.97681
家族	-9.97711
的历史	-9.97764
董	-9.97791
示范	-9.97796
的事	-9.97812
后的	-9.97852
转型	-9.97854
地球	-9.97874
回家	-9.97915
_	-9.97948
立法	-9.97953
苏联	-9.98013
怎样	-9.98017
龄	-9.98027
茂	-9.98056
有限	-9.98091
庙	-9.981
伍	-9.98109
欣	-9.9816
萧	-9.98161
更为	-9.98164
柳	-9.98177
思考	-9.9818
的要求	-9.98234
翼	-9.98302
频	-9.98309
中间	-9.98343
遭遇	-9.98367
▁V	-9.98484
桂	-9.98552
还会	-9.98557
小区	-9.9856
云南	-9.98593
草案	-9.98625
层次	-9.98626
昆	-9.98645
公益	-9.98645
违规	-9.98679
招生	-9.98704
也许	-9.98713
西安	-9.98757
乙	-9.98764
家属	-9.98788
销量	-9.9884
59	-9.98859
激	-9.98863
墨西哥	-9.98907
个百分点	-9.98915
安装	-9.98937
!”	-9.9898
法官	-9.98993
失败	-9.99069
1999	-9.99072
马来西亚	-9.99208
粗	-9.99284
总结	-9.99335
zh	-9.99341
之中	-9.99509
感情	-9.99517
不错	-9.99535
幼	-9.99586
宪	-9.99598
就像	-9.99606
太空	-9.99694
必要	-9.99707
ne	-9.99709
迎	-9.99726
版本	-9.99778
妇	-9.99788
冒	-9.99795
陶	-9.99865
七月	-9.99901
竞选	-9.99951
替	-10.0003
捕	-10.0008
十月	-10.0008
辞	-10.0012
刑事	-10.0013
此时	-10.0019
下滑	-10.0021
不但	-10.0025
太多	-10.0025
战斗	-10.0028
天然气	-10.003
金门	-10.0031
少年	-10.0038
城镇	-10.0041
都能	-10.0042
▁据悉	-10.0044
两天	-10.005
旅行	-10.0051
汪	-10.0058
理财	-10.0064
切实	-10.0066
态	-10.0079
锦标赛	-10.0084
享	-10.0088
兆	-10.0089
经贸	-10.0089
贷	-10.009
男性	-10.0091
78	-10.0093
把握	-10.0096
偷	-10.01
空气	-10.0103
-1	-10.0107
预定	-10.0115
什	-10.0115
本周	-10.0115
邱	-10.0117
胶	-10.0118
了一	-10.0121
胃	-10.0125
基因	-10.013
几天	-10.013
山区	-10.0133
广西	-10.0141
不可能	-10.0148
议题	-10.0152
支出	-10.0162
▁・	-10.0164
寻求	-10.0167
爱情	-10.0167
▁刘	-10.0169
带来的	-10.0169
赔偿	-10.0175
保留	-10.0178
-3	-10.018
汽	-10.0186
坛	-10.0186
忍	-10.0187
不良	-10.0188
舞台	-10.0191
▁然而	-10.0193
莲	-10.0195
秩序	-10.0207
部份	-10.0207
妈	-10.0215
荒	-10.0218
ot	-10.0219
配套	-10.022
事项	-10.0227
子女	-10.0232
可能是	-10.0233
补充	-10.0236
每次	-10.0237
栋	-10.0237
储	-10.0241
满意	-10.0243
年初	-10.0245
奈	-10.0249
授权	-10.025
坑	-10.0256
暂时	-10.0256
墨	-10.0258
外界	-10.0258
公布的	-10.0258
颜色	-10.0264
2018	-10.0266
下面	-10.0267
发动	-10.0269
同比增长	-10.0269
▁J	-10.0274
是为了	-10.0274
▁2016	-10.0276
民生	-10.0281
市政府	-10.0282
闪	-10.0285
荷兰	-10.0287
场所	-10.0295
沿	-10.0296
之下	-10.0297
lo	-10.0301
52	-10.0301
竞争力	-10.0301
会见	-10.0305
不用	-10.0309
营业	-10.031
来了	-10.0311
最好的	-10.0311
福利	-10.0311
巴基斯坦	-10.0312
差距	-10.0317
歌曲	-10.0317
局长	-10.032
汇率	-10.0322
参考资料	-10.0336
纳入	-10.034
发放	-10.0342
回归	-10.0344
快乐	-10.0344
类型	-10.0347
警告	-10.0348
队的	-10.0348
击败	-10.0349
庆祝	-10.0351
映	-10.0354
繁	-10.0355
本基金	-10.0356
不满	-10.0356
日晚	-10.0357
认定	-10.0359
ay	-10.0359
留下	-10.0362
大赛	-10.0366
深化	-10.0366
耐	-10.0374
侯	-10.0375
逢	-10.0378
演讲	-10.0384
地址	-10.0385
人体	-10.0386
mm	-10.0386
影片	-10.0387
隐	-10.0396
赛季	-10.0405
小说	-10.0414
技能	-10.0414
▁O	-10.0415
崇	-10.043
大力	-10.0432
译	-10.0433
沈阳	-10.0437
邮	-10.0437
不了	-10.0437
op	-10.0438
震荡	-10.044
森林	-10.0442
允许	-10.0443
怕	-10.0445
审计	-10.0457
工艺	-10.0459
希腊	-10.0472
细节	-10.0472
赤	-10.0472
障碍	-10.0472
线路	-10.0475
负担	-10.0477
琳	-10.0479
前景	-10.0488
-2	-10.0488
孝	-10.0501
64	-10.0506
并将	-10.0508
两次	-10.0509
▁0	-10.0511
名为	-10.0512
书记	-10.0513
一段	-10.0515
滨	-10.0519
尤其	-10.0521
10.	-10.0522
吹	-10.0524
很快	-10.0524
巨大	-10.0526
宪法	-10.0528
烈	-10.0533
文字	-10.0541
券	-10.0542
地产	-10.0543
合法	-10.0544
赚	-10.0545
拆	-10.0547
债务	-10.0548
um	-10.0554
在内的	-10.0556
蔬菜	-10.0556
中东	-10.0563
周期	-10.0564
高峰	-10.0568
证据	-10.0571
梦想	-10.0572
盈利	-10.0574
哭	-10.0577
▁date	-10.0578
▁今天	-10.058
性能	-10.0581
或许	-10.0582
通道	-10.0584
摊	-10.0588
▁因为	-10.0589
瑞士	-10.059
以上的	-10.0592
今天上午	-10.0597
另一方面	-10.06
搜索	-10.0601
▁因此	-10.0605
执政	-10.0607
乡镇	-10.0611
▁你	-10.0613
一系列	-10.0614
醒	-10.0618
包含	-10.062
科学家	-10.0621
显然	-10.0621
ン	-10.0626
の	-10.0628
诸	-10.0629
审议	-10.063
优化	-10.0635
拨	-10.0638
肩	-10.0639
作家	-10.064
惨	-10.0641
亏损	-10.0641
专辑	-10.0643
照顾	-10.0644
都市	-10.0648
人群	-10.065
际	-10.0654
域	-10.0656
新型	-10.0663
航空公司	-10.0666
专项	-10.0667
时候	-10.0668
观念	-10.068
2002	-10.0689
▁&	-10.0692
苗	-10.0698
本地	-10.07
一日	-10.0702
台中	-10.0702
役	-10.0702
▁为了	-10.0704
诉	-10.0705
桃	-10.0706
连接	-10.0706
沟	-10.0708
一辆	-10.0711
86	-10.0717
院长	-10.0717
尊	-10.0718
新华社	-10.0719
1998	-10.0726
职位	-10.0729
芬	-10.0731
围绕	-10.0738
释放	-10.0743
祖国	-10.0743
跃	-10.0744
察	-10.0752
五月	-10.0754
欠	-10.0756
共识	-10.0759
▁参考资料	-10.076
是什么	-10.0767
篮	-10.077
以往	-10.0774
损	-10.0775
账户	-10.0777
很多人	-10.0782
频道	-10.0783
场比赛	-10.0795
信号	-10.0799
突	-10.08
检验	-10.08
衣服	-10.0801
华盛顿	-10.0805
本月	-10.081
逾	-10.0817
尘	-10.0818
旗下	-10.0818
共和国	-10.0819
退出	-10.0819
为何	-10.0822
高于	-10.0831
默	-10.0831
做了	-10.0837
函	-10.0838
▁St	-10.0838
孩子的	-10.0839
冈	-10.0839
东南	-10.084
腹	-10.0842
日益	-10.0844
有很多	-10.0848
带着	-10.0851
多人	-10.0857
完美	-10.0858
法规	-10.0858
一件	-10.0858
较为	-10.086
卓	-10.086
人事	-10.0862
伴	-10.0867
大使	-10.0868
所在	-10.0868
撤	-10.0872
50%	-10.0873
显著	-10.0875
渔	-10.0882
平时	-10.0883
九月	-10.0884
彻底	-10.0884
病人	-10.0887
履行	-10.0891
全民	-10.0895
炼	-10.0897
祭	-10.0903
俗	-10.0908
出售	-10.091
每日	-10.091
饭店	-10.0911
69	-10.0912
台商	-10.0913
群体	-10.0923
提到	-10.0924
反而	-10.0926
藤	-10.0926
他认为	-10.0928
能否	-10.0929
▁至于	-10.0931
鹿	-10.0939
准确	-10.094
纵	-10.0942
逮捕	-10.0944
获悉	-10.0945
琴	-10.0947
幅度	-10.0949
症状	-10.0955
南方	-10.0956
浦	-10.0962
操	-10.0963
ma	-10.0965
酷	-10.0973
晨	-10.0975
分类	-10.0975
同比	-10.0978
67	-10.098
带领	-10.0982
似	-10.0985
显得	-10.0986
拖	-10.099
相同	-10.0992
date	-10.0996
54	-10.0996
动画	-10.1001
▁这是	-10.1008
连战	-10.1009
77	-10.1012
记忆	-10.1012
赏	-10.1018
商务	-10.1021
°	-10.1023
牧	-10.1023
广东省	-10.1025
特征	-10.1027
范围内	-10.1027
的行为	-10.1041
是不是	-10.1042
等待	-10.1044
枝	-10.1048
增速	-10.1052
授	-10.1053
情报	-10.1057
堆	-10.1061
整理	-10.1065
有望	-10.1068
葛	-10.1068
创意	-10.1068
年轻人	-10.107
一是	-10.1072
几年	-10.1073
最多	-10.1074
考核	-10.1077
副主席	-10.1083
阁	-10.1084
一片	-10.1087
六月	-10.1093
接到	-10.1095
挡	-10.1096
中国人	-10.1102
一半	-10.1103
指示	-10.1105
还没有	-10.1107
76	-10.111
▁in	-10.1111
灭	-10.1113
两位	-10.1114
板块	-10.112
等方面	-10.1126
更新	-10.1134
的经济	-10.114
申报	-10.114
情形	-10.1141
脉	-10.1142
身边	-10.1144
最重要的	-10.115
伏	-10.1152
研讨会	-10.1157
线上	-10.116
。–	-10.1162
背后	-10.1162
很好	-10.1162
多家	-10.1162
饱	-10.1163
权利	-10.1169
内阁	-10.1175
▁台湾	-10.1177
弃	-10.1178
不如	-10.1179
http	-10.1183
玻璃	-10.1184
懂	-10.1186
ig	-10.1197
喊	-10.1198
焦	-10.1199
63	-10.1205
中方	-10.1208
一款	-10.1212
这场	-10.1218
奥巴马	-10.122
两种	-10.1225
玲	-10.1233
比赛中	-10.1235
融合	-10.1235
▁3、	-10.1236
慧	-10.1236
阻	-10.1241
://	-10.1247
im	-10.1251
人均	-10.1256
捷	-10.1256
新兴	-10.1269
休闲	-10.127
瘦	-10.1274
西北	-10.1275
妙	-10.1276
返回	-10.1278
城区	-10.1281
各方	-10.1284
@	-10.1285
医师	-10.1287
斑	-10.1289
发起	-10.1292
凭	-10.1292
一边	-10.1307
04	-10.1312
改革开放	-10.1313
羽	-10.1315
一方面	-10.1315
海南	-10.1317
微信号	-10.1318
宿	-10.1318
廖	-10.132
分布	-10.1325
造型	-10.1325
婚姻	-10.1326
海上	-10.1327
阳光	-10.1328
全世界	-10.133
▁三	-10.133
副主任	-10.1332
昂	-10.1337
习	-10.1346
一套	-10.1356
ang	-10.136
对中国	-10.136
汗	-10.1362
一个月	-10.1363
思维	-10.1365
四百	-10.1374
锐	-10.1379
三月	-10.1381
道德	-10.1381
时报	-10.1382
中国队	-10.1382
绕	-10.1383
所有的	-10.1385
曝光	-10.1389
西南	-10.1389
义务	-10.139
物流	-10.1397
鸣	-10.1397
董事会	-10.1402
不久	-10.1406
有点	-10.1417
锡	-10.1418
海面	-10.142
工会	-10.1427
服装	-10.1428
驱	-10.1438
自行	-10.1441
饰演	-10.1444
链	-10.1449
大小	-10.1449
▁其中	-10.1453
救灾	-10.1457
二是	-10.1459
实在	-10.1464
意味着	-10.1466
的东西	-10.1466
▁12	-10.1466
美食	-10.1471
辅	-10.1481
廷	-10.1485
胎	-10.1487
估值	-10.1489
总裁	-10.1489
财经	-10.149
回来	-10.1494
与会	-10.1494
市府	-10.1498
大选	-10.1512
分别为	-10.1514
困	-10.1514
参考文献	-10.1517
人死亡	-10.152
尝试	-10.1521
茨	-10.1521
电商	-10.1521
这也是	-10.1524
▁11	-10.1525
vi	-10.1527
法案	-10.1531
▁p	-10.1535
其余	-10.154
艳	-10.1544
全年	-10.1546
中央社	-10.1547
▁2014	-10.1549
电池	-10.155
一大	-10.1557
忧	-10.1561
3%	-10.1561
金融机构	-10.1571
中山	-10.1577
填	-10.158
到达	-10.1581
地面	-10.1585
格局	-10.1593
om	-10.1594
导弹	-10.1598
各自	-10.1598
序	-10.1604
奖金	-10.1606
效应	-10.1607
购物	-10.1608
外汇	-10.1611
楼市	-10.1612
改为	-10.1612
也能	-10.1615
还能	-10.163
▁Co	-10.1631
失去	-10.1631
▁其实	-10.1634
通报	-10.1635
莎	-10.1638
来的	-10.1638
最后一	-10.1638
年内	-10.164
某些	-10.1644
番	-10.1646
国有	-10.1655
等问题	-10.1655
悬	-10.1655
一路	-10.1656
逊	-10.1657
策	-10.1658
时刻	-10.1663
企业的	-10.1663
的投资	-10.1664
se	-10.1666
询问	-10.1668
歌手	-10.1668
少数	-10.1675
介	-10.168
周末	-10.168
防治	-10.1688
多元	-10.1691
▁2015	-10.1691
而不是	-10.1703
生存	-10.1705
陷入	-10.1706
▁小至中浪	-10.1709
no	-10.171
一线	-10.1713
球迷	-10.1714
孕	-10.1716
尽量	-10.1718
中部	-10.1718
高速公路	-10.1719
串	-10.1728
增加了	-10.1729
应急	-10.173
混合	-10.173
闹	-10.1733
乐观	-10.1739
将继续	-10.1741
丈夫	-10.1742
▁26	-10.1742
适	-10.1743
火箭	-10.1746
62	-10.1747
的支持	-10.1749
摇	-10.175
www	-10.1754
倾	-10.1755
亩	-10.1764
灾害	-10.1764
艘	-10.1767
验	-10.1767
枚	-10.1773
的产品	-10.1775
打破	-10.1779
外长	-10.1783
20%	-10.1783
世界上	-10.1787
下的	-10.1788
水果	-10.1797
不得不	-10.1797
距	-10.18
第六	-10.1804
辅导	-10.1804
а	-10.1806
ul	-10.1808
差异	-10.1812
捐	-10.1813
元素	-10.1815
涛	-10.182
辣	-10.1823
发电	-10.1829
五千	-10.183
;3	-10.1835
百分之十	-10.1838
江泽民	-10.1841
ie	-10.1841
殿	-10.1845
取得了	-10.1846
仔	-10.1846
物价	-10.1847
荷	-10.185
落后	-10.1853
册	-10.1858
材	-10.186
炸	-10.1863
休息	-10.1871
ta	-10.1873
10%	-10.1874
钢铁	-10.1875
不管	-10.1876
仍有	-10.188
支援	-10.188
1%	-10.1881
坊	-10.1883
坚决	-10.1885
领域的	-10.1886
搬	-10.1887
同时也	-10.1887
诊	-10.1889
生意	-10.1889
在今年	-10.189
执	-10.1891
期限	-10.1893
布希	-10.1894
主权	-10.1899
她说	-10.19
流通	-10.1901
上面	-10.1916
季度	-10.192
判决	-10.1922
沪	-10.1922
▁16	-10.1925
柔	-10.1929
的朋友	-10.1932
办公	-10.1933
神经	-10.1934
温度	-10.1938
主办	-10.1941
循环	-10.1941
健身	-10.1942
▁20	-10.1943
标志	-10.1944
凶	-10.1945
注重	-10.1946
获取	-10.1947
出来的	-10.1949
吸收	-10.1954
途	-10.1956
眼睛	-10.1957
经济部	-10.1967
释	-10.1967
裤	-10.1969
玩家	-10.1973
士兵	-10.198
柜	-10.1985
否认	-10.1985
种植	-10.1986
英文	-10.1987
提交	-10.1992
历史上	-10.1992
黑色	-10.1993
国家的	-10.1993
2%	-10.1994
▁「	-10.1995
2019	-10.2004
甚	-10.2005
观点	-10.2007
舒	-10.2009
他人	-10.201
▁s	-10.2013
私人	-10.2014
粉丝	-10.2015
太平洋	-10.2015
浅	-10.2015
参选	-10.2019
无论是	-10.2022
那样	-10.2028
碎	-10.2031
海域	-10.2035
结束后	-10.2036
流动	-10.2039
os	-10.2039
的表现	-10.2048
信贷	-10.2051
培	-10.2054
▁二	-10.2055
ow	-10.2057
让他	-10.206
高端	-10.206
的基础上	-10.2061
避	-10.2063
轴	-10.2066
▁de	-10.2067
漏	-10.2082
TV	-10.2084
关闭	-10.2088
三千	-10.2093
咖啡	-10.2093
的态度	-10.2094
ion	-10.2095
讲话	-10.2098
这两	-10.2099
八月	-10.2108
披露	-10.211
阿根廷	-10.2112
计算机	-10.2114
怀疑	-10.2117
朴	-10.2119
荣誉	-10.2119
袁	-10.2121
的消息	-10.2123
1997	-10.2125
游泳	-10.2127
营运	-10.2133
活跃	-10.2134
路上	-10.2136
才会	-10.2138
▁2.	-10.2138
台中市	-10.2139
技巧	-10.214
▁北京	-10.2142
起诉	-10.2146
大师	-10.2148
军方	-10.2149
700	-10.2149
全新	-10.2152
繁荣	-10.2152
餐厅	-10.2161
鹰	-10.2169
日期	-10.2173
▁小	-10.2174
ter	-10.2177
乃	-10.2181
美好	-10.2183
三星	-10.2184
貌	-10.2191
迫	-10.2194
壳	-10.2195
表面	-10.2196
监控	-10.2203
协定	-10.2206
早期	-10.2209
极大	-10.221
研究院	-10.2212
挤	-10.2214
摸	-10.2215
平安	-10.2216
拔	-10.2217
四月	-10.2218
翁	-10.222
医药	-10.2221
案例	-10.2221
解放	-10.2224
稀	-10.2226
陪	-10.2228
『	-10.2228
立场	-10.223
报考	-10.223
篮球	-10.223
听到	-10.2231
愈	-10.2235
和其他	-10.2241
葬	-10.2242
1.6	-10.2243
管制	-10.2243
滚	-10.2246
也就是	-10.2246
装修	-10.2248
co	-10.2248
大大	-10.225
选民	-10.2251
的规定	-10.2251
斌	-10.2259
空中	-10.226
饮食	-10.226
』	-10.2264
海关	-10.2268
诉讼	-10.2269
国立	-10.227
”(	-10.2271
肺	-10.2273
to	-10.2275
数学	-10.2275
回复	-10.2275
答案	-10.2278
的精神	-10.228
提出了	-10.228
乌克兰	-10.2282
成效	-10.2283
的国家	-10.2283
-5	-10.2284
扁	-10.2285
▁她	-10.2285
高考	-10.2286
锁	-10.2289
72	-10.2291
天下	-10.2291
完整	-10.2295
航天	-10.2303
但他	-10.2305
因而	-10.2308
信任	-10.2308
添加	-10.2308
热点	-10.2309
提示	-10.2314
脂	-10.2315
舒适	-10.2315
当日	-10.2317
尿	-10.2318
能量	-10.2323
制造业	-10.2324
行驶	-10.2324
拓展	-10.233
碧	-10.233
煮	-10.2334
仅仅	-10.2335
裁	-10.2335
谱	-10.2336
亡	-10.2336
迎来	-10.2338
该公司	-10.2341
兽	-10.2343
的需求	-10.2345
提出的	-10.2346
自治	-10.2349
▁25	-10.235
自行车	-10.2351
同一	-10.2352
饼	-10.2353
▁17	-10.2356
中国政府	-10.2356
植	-10.2357
中小企业	-10.2364
▁东北风	-10.2365
穷	-10.2366
气候	-10.2367
ew	-10.2369
房产	-10.2379
台北县	-10.238
弄	-10.2382
秘密	-10.2383
鼻	-10.2384
设有	-10.2385
哲	-10.2385
北约	-10.2389
坚定	-10.239
经济增长	-10.2391
检察官	-10.2394
吊	-10.2394
参加了	-10.2395
播出	-10.2395
之际	-10.2403
更高	-10.2407
随时	-10.2408
文艺	-10.2408
影响力	-10.2409
昭	-10.2411
拿到	-10.2411
埃及	-10.2411
有助于	-10.2414
话题	-10.2416
巧	-10.2422
税收	-10.2422
地说	-10.2426
87	-10.243
尼亚	-10.2431
半年	-10.2433
赠	-10.244
波动	-10.2443
夫人	-10.2444
劝	-10.2457
凌	-10.2458
的价格	-10.2462
个小时	-10.2464
库存	-10.2466
de	-10.2467
ab	-10.247
▁*《	-10.247
指定	-10.2474
景区	-10.2475
市区	-10.2476
昆明	-10.2476
都没有	-10.248
在这个	-10.2481
今天下午	-10.2483
收藏	-10.2485
逐	-10.2485
▁[	-10.2488
年以来	-10.2493
深度	-10.2495
收盘	-10.2498
莫斯科	-10.2499
的第一	-10.2499
lt	-10.2502
马上	-10.2508
不敢	-10.2509
在线	-10.2511
现任	-10.2512
前来	-10.2513
中美	-10.2514
审批	-10.2514
亏	-10.2516
效益	-10.2518
ID	-10.2518
将其	-10.252
晒	-10.2521
亭	-10.2522
必然	-10.2524
美丽	-10.2528
条约	-10.2531
#	-10.2534
更有	-10.2539
地理	-10.2539
每一个	-10.2539
法庭	-10.2542
主力	-10.2542
小型	-10.2543
心里	-10.255
不知	-10.2553
异常	-10.2561
罗马	-10.2562
and	-10.2566
维修	-10.2568
夹	-10.2572
泛	-10.2573
岳	-10.2573
国防部	-10.2574
运动会	-10.2575
夺得	-10.2577
▁本	-10.2582
毕竟	-10.2584
兴趣	-10.2585
妮	-10.2585
绘	-10.2587
今晚	-10.2589
大多	-10.259
院校	-10.2591
。--	-10.2591
淮	-10.2597
ut	-10.2599
鉴	-10.2601
表决	-10.2604
清理	-10.2605
汁	-10.2605
日常	-10.2606
传递	-10.2608
个股	-10.2614
金融危机	-10.2617
楚	-10.2617
一部	-10.2618
深刻	-10.2619
录取	-10.2621
发言	-10.2625
主导	-10.2629
留学	-10.263
稍	-10.2631
上下	-10.2643
十二月	-10.2644
年间	-10.2646
忘	-10.2647
亲自	-10.2649
三天	-10.2649
的能力	-10.2649
试图	-10.2659
长沙	-10.2661
丰富的	-10.2662
挑	-10.2664
79	-10.2666
:0	-10.2669
的孩子	-10.2671
弟	-10.2671
ill	-10.2672
起了	-10.2678
明白	-10.2679
一人	-10.2687
真正的	-10.269
悲	-10.2692
以外	-10.2693
心情	-10.2693
还可以	-10.2698
学家	-10.27
巨大的	-10.27
郑州	-10.27
拍卖	-10.2711
水利	-10.2712
开通	-10.2713
百万	-10.2714
奖励	-10.2716
熟悉	-10.2716
爽	-10.2717
家中	-10.2721
炉	-10.2723
大连	-10.2726
▁作为	-10.2731
监察	-10.2732
都可以	-10.2738
河北	-10.2742
总统府	-10.2749
疏	-10.275
裂	-10.2754
将是	-10.2757
二年	-10.2758
内的	-10.276
▁中至大浪	-10.276
盆	-10.2766
是指	-10.2774
角度	-10.2776
不愿	-10.2786
伸	-10.2789
八年	-10.279
级别	-10.2798
ha	-10.2798
毒品	-10.28
对抗	-10.2802
瑞典	-10.2805
添	-10.2808
海峡	-10.2809
由此	-10.281
扶贫	-10.2811
转让	-10.2813
山西	-10.2813
▁24	-10.2817
专题	-10.2822
手续	-10.283
物资	-10.283
拳	-10.2833
总会	-10.2835
广播	-10.2837
报纸	-10.2844
面前	-10.2848
机器人	-10.2848
的政策	-10.285
上海市	-10.2853
月初	-10.2854
棉	-10.2858
景气	-10.2859
▁当然	-10.2859
盒	-10.2862
损害	-10.2863
仲	-10.2865
-8	-10.2867
剪	-10.2871
白色	-10.2872
用来	-10.2877
欧元	-10.2877
活力	-10.2879
流程	-10.288
学科	-10.2884
amp	-10.2888
撒	-10.2889
每月	-10.2891
停车	-10.2891
少女	-10.2894
含有	-10.2894
扶	-10.2896
的方法	-10.2898
GDP	-10.2898
阿里	-10.2898
东风	-10.2907
途径	-10.2916
决心	-10.2919
将军	-10.292
电视剧	-10.2927
跌幅	-10.2928
勃	-10.2928
分局	-10.293
印象	-10.293
上班	-10.2936
▁15	-10.2936
址	-10.2941
延长	-10.2943
助理	-10.2944
1996	-10.2953
ec	-10.2953
波兰	-10.2956
得到了	-10.2971
物品	-10.2975
济南	-10.2977
可见	-10.2977
间的	-10.2981
周围	-10.2982
第二次	-10.2985
聊	-10.2985
的故事	-10.2986
食用	-10.2987
十一月	-10.299
沿海	-10.2991
战胜	-10.2993
的成绩	-10.2993
防范	-10.2996
排放	-10.2997
两岸关系	-10.3
催	-10.3002
投资人	-10.3003
机遇	-10.3004
获得了	-10.3008
六年	-10.301
竟	-10.301
调控	-10.3015
);	-10.3016
▁c	-10.3017
问题上	-10.302
一步	-10.3021
夫妻	-10.3022
回落	-10.3022
▁晴时多云	-10.3028
2.0	-10.3034
的基本	-10.3036
打算	-10.3039
彦	-10.3041
延续	-10.3041
曾在	-10.3045
ho	-10.3049
巴士	-10.305
2.5	-10.3056
湘	-10.3056
过来	-10.3057
呼吸	-10.3058
妹	-10.3058
娃	-10.3058
最为	-10.3062
战士	-10.3068
截	-10.307
裕	-10.307
适用	-10.307
开启	-10.3071
千万	-10.3073
遍	-10.3075
)】	-10.3078
董事	-10.3078
难度	-10.3078
洛杉矶	-10.3079
市场上	-10.3082
签约	-10.3086
110	-10.3089
思路	-10.309
▁这个	-10.3091
接下来	-10.3094
肖	-10.31
国庆	-10.31
此间	-10.3106
究竟	-10.3109
捷运	-10.311
爸爸	-10.3117
判	-10.3118
修正	-10.3119
届时	-10.3122
盈	-10.3126
十大	-10.3128
各大	-10.3129
贪	-10.313
中国经济	-10.3131
航班	-10.3132
北京奥运会	-10.3134
指控	-10.3136
宴	-10.3137
重组	-10.3139
面试	-10.3139
构	-10.314
气氛	-10.3142
姚	-10.3143
友谊	-10.3145
囊	-10.3145
这款	-10.3146
自杀	-10.3148
泪	-10.315
改进	-10.3151
92	-10.3157
幻	-10.3157
学历	-10.3158
-4	-10.3168
轨道	-10.3169
政权	-10.317
此后	-10.317
塘	-10.3172
农产品	-10.3173
淘汰	-10.3175
鼎	-10.3177
北方	-10.318
一支	-10.3184
一段时间	-10.3186
消除	-10.3188
列入	-10.3195
萌	-10.3195
做法	-10.3195
桶	-10.3196
会在	-10.3198
埋	-10.3202
6%	-10.321
袭	-10.3212
克斯	-10.3212
进攻	-10.3215
30%	-10.322
国际社会	-10.3222
主流	-10.3222
促	-10.3223
面向	-10.3227
依旧	-10.3228
摘	-10.3235
现代化	-10.3235
福州	-10.3239
州市	-10.3242
的企业	-10.3244
割	-10.3248
73	-10.3249
便利	-10.3251
疫情	-10.3259
性质	-10.3261
站在	-10.3265
辈	-10.3265
砖	-10.3265
▁黄	-10.3268
4%	-10.3269
艇	-10.3269
潜力	-10.3273
翔	-10.3277
的内容	-10.3278
得以	-10.328
县府	-10.3284
同胞	-10.3284
冻	-10.3289
座谈会	-10.3298
得知	-10.33
ex	-10.3301
誉	-10.3302
慢慢	-10.3304
1995	-10.3305
予	-10.3305
94	-10.3306
▁随着	-10.3307
分析师	-10.3311
ell	-10.3315
发布的	-10.3317
多位	-10.3327
数十	-10.3331
出任	-10.3334
晚间	-10.3335
查询	-10.3337
在接受	-10.3339
党委	-10.3339
生长	-10.3342
牵	-10.3342
另一个	-10.3343
首相	-10.3343
▼	-10.3344
▁除了	-10.3345
早上	-10.3349
多云	-10.3351
号线	-10.3351
▁新	-10.3354
▁四	-10.3362
让我们	-10.3363
▁索科罗	-10.3364
坎	-10.3372
崔	-10.3374
林肯近地小行星研究小组	-10.3381
姐	-10.3383
化的	-10.3383
清洁	-10.3383
---	-10.3386
仍在	-10.3388
秘	-10.3391
地方政府	-10.3392
押	-10.3393
秘书	-10.3396
这就是	-10.3397
的政治	-10.3401
依靠	-10.3408
▁现在	-10.3412
町	-10.342
谈话	-10.3422
描述	-10.3423
sh	-10.3423
83	-10.3423
的一种	-10.3427
商家	-10.3428
缓解	-10.3431
丢	-10.3433
救助	-10.3435
已成为	-10.3438
病例	-10.3439
宅	-10.3442
的学生	-10.3455
焦点	-10.346
局势	-10.3466
74	-10.3467
迹	-10.3471
坪	-10.3474
×	-10.3476
学员	-10.3478
竟然	-10.348
赔	-10.3482
行程	-10.3482
纲	-10.3486
危害	-10.3486
▁13	-10.3486
年至	-10.3488
回忆	-10.349
常委	-10.3498
区的	-10.3499
动态	-10.3502
他表示	-10.3505
透明	-10.3505
产品的	-10.351
如果你	-10.3512
的原则	-10.3515
▁2010	-10.3516
栏	-10.3516
人民政府	-10.3525
▁3.	-10.3526
控股	-10.3527
夫妇	-10.3527
裔	-10.3529
国王	-10.3537
他还	-10.3539
城乡	-10.3539
顾客	-10.354
包装	-10.3544
安徽	-10.3546
认证	-10.3547
此事	-10.3553
无人	-10.3554
专利	-10.3554
蒙古	-10.3555
出去	-10.3555
猎	-10.3555
潭	-10.3558
疫苗	-10.356
认可	-10.356
61	-10.3563
合格	-10.3564
▁晴天	-10.3567
人选	-10.3572
读书	-10.3572
一生	-10.3572
ap	-10.3575
多项	-10.3577
的结果	-10.3578
一级	-10.3579
毫米	-10.3581
号码	-10.3586
我想	-10.3589
所属	-10.3597
色彩	-10.3599
偿	-10.3602
动员	-10.3602
ine	-10.3602
配备	-10.3605
下半年	-10.3605
-{	-10.3609
颖	-10.361
平等	-10.3611
男女	-10.3611
上方	-10.3611
登场	-10.3611
art	-10.3615
外观	-10.3616
国内外	-10.3617
小孩	-10.3619
▁23	-10.3619
晴	-10.3623
4000	-10.3623
织	-10.3624
大道	-10.3625
营造	-10.3632
培育	-10.3632
心态	-10.3632
弯	-10.3639
典礼	-10.3645
的变化	-10.3646
水库	-10.3646
挖	-10.3648
趋	-10.3649
帝国	-10.3651
ry	-10.3652
接待	-10.3656
走出	-10.3656
副总统	-10.3658
证书	-10.3659
MA	-10.3659
这名	-10.366
失业	-10.3661
1994	-10.3664
聘	-10.3669
竞赛	-10.3669
一块	-10.3672
流感	-10.3674
▁–	-10.3678
强制	-10.3679
钻	-10.368
变动	-10.3681
▁14	-10.3682
纠纷	-10.3683
很少	-10.3683
已被	-10.3684
all	-10.3684
的感觉	-10.3687
军区	-10.3691
问题的	-10.3697
湖北	-10.3698
燃	-10.3705
安置	-10.3708
影视	-10.3714
军人	-10.3718
首席	-10.3719
整治	-10.372
两百	-10.3722
总数	-10.3727
层面	-10.3728
孩子们	-10.3729
▁2009	-10.3734
轿车	-10.3734
产能	-10.3735
屈	-10.3736
境外	-10.3738
氧	-10.3738
空调	-10.3739
一万	-10.3741
图书馆	-10.3742
旋	-10.3745
煤炭	-10.3747
辞职	-10.375
被称为	-10.3752
室内	-10.3759
漫画	-10.3761
午	-10.3761
狱	-10.3763
迟	-10.3764
保健	-10.3768
率先	-10.3775
亚太	-10.3776
党团	-10.3776
中国国民党	-10.3777
廉	-10.3778
用地	-10.3781
组成的	-10.3782
峰会	-10.3782
有时	-10.3784
斤	-10.379
辽宁	-10.3791
这类	-10.3794
实现了	-10.3795
最早	-10.3801
约翰	-10.3802
舞蹈	-10.3804
长春	-10.3812
管道	-10.3814
畅	-10.3815
流量	-10.3815
40%	-10.3817
利亚	-10.3822
舟	-10.3822
更大	-10.3827
滋	-10.3829
这份	-10.3832
美女	-10.3834
▁尽管	-10.3837
江西	-10.3838
装置	-10.3838
敢	-10.3841
▁这些	-10.3843
天然	-10.3844
待遇	-10.3845
82	-10.3846
伪	-10.3852
→	-10.3852
的关键	-10.3855
谈到	-10.3862
各界	-10.3865
一只	-10.3866
让我	-10.3868
me	-10.3871
新鲜	-10.3872
碗	-10.3872
意愿	-10.3875
常常	-10.3883
查看	-10.3886
1990	-10.3888
▁0%	-10.3889
敲	-10.389
航线	-10.3892
豪华	-10.3893
0.1	-10.3898
客运	-10.39
雕	-10.3901
臣	-10.3903
扑	-10.3904
不太	-10.3905
蒸	-10.391
忌	-10.3911
鉴定	-10.3912
主场	-10.3918
蛇	-10.3918
1.2	-10.3919
三角	-10.392
延伸	-10.3923
观看	-10.3925
规律	-10.3928
[	-10.393
总量	-10.393
稻	-10.3937
布什	-10.3938
抚	-10.3938
共享	-10.3942
回升	-10.3942
职责	-10.3943
二千	-10.3944
美术	-10.3945
手中	-10.3951
律	-10.3958
帐	-10.396
擦	-10.3961
为期	-10.3961
公交	-10.3964
女生	-10.3965
同年	-10.3968
美联储	-10.3969
▁"	-10.397
情况下	-10.3971
▁=	-10.3974
84	-10.3978
建造	-10.398
机车	-10.398
特定	-10.3982
q	-10.3984
创建	-10.3986
会晤	-10.3986
补偿	-10.3986
不一样	-10.3987
提案	-10.3994
也就	-10.4
蓄	-10.4002
六百	-10.4004
目前已	-10.4004
邀	-10.4006
悦	-10.4009
看好	-10.4009
孤	-10.4017
坝	-10.4018
势力	-10.4019
将来	-10.4019
买卖	-10.402
青春	-10.4022
ce	-10.4023
的可能性	-10.4024
郁	-10.4026
抬	-10.4026
讨	-10.4028
而在	-10.4028
记得	-10.403
不想	-10.4031
派出所	-10.4037
领导干部	-10.4044
下方	-10.4046
不起	-10.4046
侵	-10.4048
者的	-10.4049
敏感	-10.405
大盘	-10.4051
耕	-10.4052
起到	-10.4054
获利	-10.4054
相当于	-10.4055
仅有	-10.4058
己	-10.406
陷	-10.406
0.2	-10.4061
的安全	-10.4066
赚钱	-10.4068
抓住	-10.4069
柯林顿	-10.4072
绵	-10.4072
▁浪高	-10.4072
议长	-10.4075
1993	-10.4076
前后	-10.4078
国产	-10.4078
粒	-10.4079
台湾省	-10.4081
激励	-10.4082
贬值	-10.4091
娘	-10.4091
他也	-10.4096
出现在	-10.4096
变更	-10.41
霞	-10.4105
有力	-10.4106
彼此	-10.4107
о	-10.4108
售价	-10.411
取代	-10.411
因应	-10.4112
man	-10.4117
本土	-10.4117
中有	-10.4121
苏州	-10.4125
阿尔	-10.4125
本报	-10.4127
成员国	-10.4129
想象	-10.4142
AT	-10.4142
最初	-10.4143
征收	-10.4147
开工	-10.4148
:1、	-10.4149
列为	-10.4157
携带	-10.4158
▁美	-10.4158
画面	-10.4159
ac	-10.416
派出	-10.4161
事宜	-10.4162
南海	-10.4163
经销商	-10.4164
超越	-10.4169
em	-10.4178
直升机	-10.4185
更好	-10.4185
诱	-10.4185
给你	-10.4188
游行	-10.4189
互相	-10.419
很大的	-10.4193
扮演	-10.4194
不大	-10.4195
小姐	-10.42
伙	-10.4203
11.	-10.421
(2)	-10.4213
为止	-10.4219
ly	-10.4219
这家	-10.422
牢	-10.4222
IT	-10.4228
嫌	-10.4229
一代	-10.4236
签证	-10.4236
时机	-10.4237
现货	-10.4242
的意见	-10.4244
仿	-10.4247
内心	-10.4248
爱心	-10.425
1992	-10.4252
创下	-10.4252
有什么	-10.4255
截止	-10.4256
捐赠	-10.4257
(1)	-10.4257
AR	-10.4259
兑	-10.4261
名义	-10.4265
积累	-10.4265
业主	-10.4269
71	-10.4273
第七	-10.4276
志愿者	-10.4279
遭受	-10.4287
形成了	-10.4287
三十分	-10.429
成交量	-10.4291
▁阴	-10.4292
碳	-10.4293
列表	-10.4294
拒	-10.4294
见到	-10.4295
研究生	-10.4297
调节	-10.43
的比赛	-10.4302
窃	-10.4308
与中国	-10.4309
▁to	-10.4309
ag	-10.4311
发生了	-10.4323
实用	-10.4325
闭	-10.4327
九年	-10.433
中国共产党	-10.4333
读者	-10.4335
舆论	-10.4335
毕业生	-10.4339
便宜	-10.4341
自治区	-10.4341
一定会	-10.4343
物业	-10.4344
解除	-10.4344
肾	-10.4344
现在的	-10.4349
小米	-10.4352
梯	-10.4354
早已	-10.4354
▁The	-10.4357
巷	-10.4362
二月	-10.4362
走进	-10.4366
正面	-10.4366
开发商	-10.4372
递	-10.4374
长按二维码	-10.4375
陕西	-10.4375
人工	-10.4379
有利	-10.4381
眉	-10.4382
东南亚	-10.4383
付出	-10.4383
同步	-10.4387
在全国	-10.4389
调研	-10.439
一部分	-10.4394
区间	-10.4396
斥	-10.4402
加盟	-10.4402
▁b	-10.4405
魅力	-10.4405
有意	-10.4405
推行	-10.4407
炸弹	-10.4409
的研究	-10.4411
传出	-10.4413
ou	-10.4414
餐饮	-10.4417
构建	-10.4421
污	-10.4421
的确	-10.4422
离婚	-10.4423
0.0	-10.4426
开设	-10.4427
严重的	-10.4428
将有	-10.4428
io	-10.443
车主	-10.443
贯彻	-10.4432
宋楚瑜	-10.4433
出版社	-10.4434
缝	-10.4436
修订	-10.4436
平稳	-10.4438
吐	-10.4439
形态	-10.4441
好好	-10.4443
真是	-10.4443
四大	-10.4444
阅	-10.4446
随即	-10.4449
哪些	-10.4453
大桥	-10.4458
详	-10.4459
三名	-10.4459
登陆	-10.4459
陆军	-10.4463
高铁	-10.4467
贩	-10.4471
嫁	-10.4475
装饰	-10.4475
乡村	-10.4477
发生的	-10.448
新竹	-10.4489
ph	-10.4489
较高	-10.4489
过于	-10.449
有机会	-10.449
▁2008	-10.4492
丘	-10.4493
办事处	-10.4495
▁中央气象局	-10.4502
门口	-10.4507
斗争	-10.4508
东盟	-10.4509
贸	-10.451
花莲	-10.4512
县长	-10.4515
并于	-10.4516
传媒	-10.4517
县市	-10.4519
吃饭	-10.4521
PS	-10.4522
在这	-10.4527
大厦	-10.4533
碰	-10.4539
渔业	-10.4546
路段	-10.4548
径	-10.4549
贫	-10.4549
合约	-10.4556
也很	-10.456
▁21	-10.4567
担保	-10.4569
主持人	-10.457
通用	-10.4574
淑	-10.4578
怡	-10.4581
转换	-10.4584
出行	-10.4585
味道	-10.4586
慈善	-10.459
举报	-10.4592
第八	-10.4593
鼠	-10.4596
血管	-10.4599
拿出	-10.46
爬	-10.4602
胆	-10.4605
专用	-10.4606
舱	-10.4608
我就	-10.4608
定义	-10.4609
大概	-10.4616
民营	-10.462
过度	-10.4621
原料	-10.4623
▁吴	-10.4626
来台	-10.4628
▁林	-10.463
每一	-10.4631
去世	-10.4631
怒	-10.4634
大队	-10.4636
妻	-10.4639
交往	-10.4643
党内	-10.4654
组建	-10.4658
余额	-10.4658
保存	-10.4661
受灾	-10.4663
回收	-10.4664
奏	-10.4664
诸多	-10.4669
多年来	-10.4671
我是	-10.4673
恰	-10.4674
ive	-10.4678
泳	-10.4679
贵州	-10.4681
桃园	-10.4686
给了	-10.4686
上网	-10.4689
内政部	-10.4692
特区	-10.4693
新华	-10.4694
应该是	-10.4694
飞弹	-10.4696
и	-10.4697
实验室	-10.4697
的说法	-10.4697
回报	-10.4699
想到	-10.4699
租赁	-10.4703
季节	-10.4704
漫	-10.4705
革	-10.4705
双边	-10.4711
原住民	-10.4713
CD	-10.4723
基本上	-10.4723
NBA	-10.4723
修复	-10.4725
局局长	-10.4726
编制	-10.4726
锻炼	-10.4726
捐款	-10.4728
交换	-10.473
继承	-10.4734
人受伤	-10.4739
一九	-10.4739
搜	-10.4742
货物	-10.4742
17.	-10.4743
检讨	-10.4743
缅甸	-10.4744
灵活	-10.4749
腐败	-10.4749
清晰	-10.4754
公正	-10.4755
球场	-10.4759
看着	-10.476
介入	-10.4761
粤	-10.4762
辨	-10.4763
所需	-10.4764
▁Ch	-10.4768
超市	-10.4771
”“	-10.4771
场景	-10.4771
查处	-10.4771
贝尔	-10.4774
不论	-10.4777
踢	-10.4788
新建	-10.4789
收获	-10.479
对其	-10.4794
?”	-10.4799
IP	-10.4804
举办的	-10.4807
抛	-10.4807
万多	-10.4808
分别是	-10.4809
谨慎	-10.4809
na	-10.4811
逸	-10.4814
瞬间	-10.4814
0.3	-10.4816
遗憾	-10.4816
现行	-10.4818
一体	-10.4822
依赖	-10.4823
骂	-10.4824
挥	-10.483
身份证	-10.4831
堵	-10.4832
御	-10.4832
亮相	-10.4834
般	-10.4838
努	-10.484
火车	-10.4841
奋	-10.4845
大批	-10.4849
认同	-10.4849
纽	-10.485
拿下	-10.4851
对比	-10.4852
大家都	-10.4857
邻	-10.486
临床	-10.486
命运	-10.4861
1.8	-10.4862
基金管理人	-10.4863
di	-10.4864
象征	-10.4867
含量	-10.4867
ber	-10.4868
理性	-10.4872
内蒙古	-10.4885
颗	-10.4886
审判	-10.4888
简称	-10.4889
所得	-10.489
预估	-10.4891
上半年	-10.4893
在台湾	-10.4895
闲	-10.4895
之路	-10.4898
吓	-10.4898
研究中心	-10.4905
制品	-10.4907
交警	-10.4907
染	-10.4908
很有	-10.4909
权威	-10.491
国土	-10.4914
高兴	-10.4914
治安	-10.4915
引述	-10.492
说话	-10.4923
水准	-10.4924
The	-10.4924
是以	-10.4925
探讨	-10.4926
的现象	-10.4928
干净	-10.493
SUV	-10.4931
心中	-10.4931
飘	-10.4941
毕	-10.4941
也不会	-10.4942
意思	-10.4942
英格兰	-10.4947
率领	-10.495
的好	-10.4952
提供的	-10.4955
诈骗	-10.4956
da	-10.4958
凭借	-10.4962
ub	-10.4962
遵守	-10.4965
性格	-10.4966
反复	-10.4966
热门	-10.4967
▁英国	-10.4967
中国人民	-10.4967
夏季	-10.4971
次会议	-10.4972
笔者	-10.4973
窝	-10.4976
▁22	-10.4976
更换	-10.4977
统筹	-10.4979
美国的	-10.4984
分裂	-10.4984
长达	-10.4986
传统的	-10.4994
衷	-10.5002
企业家	-10.5003
80%	-10.5005
公顷	-10.5005
事实上	-10.5006
前期	-10.501
行业的	-10.5011
中介	-10.5011
幼儿园	-10.5012
12.	-10.5012
涌	-10.5013
的基础	-10.5014
爷	-10.5016
▁a	-10.502
说法	-10.5022
抢救	-10.5023
之所以	-10.5028
悟	-10.5028
处分	-10.5029
普及	-10.5035
1.4	-10.5036
展出	-10.5038
将成为	-10.5038
审理	-10.5038
节能	-10.5041
保养	-10.5041
升值	-10.5042
不变	-10.5043
难题	-10.5045
每周	-10.5045
烤	-10.5045
浴	-10.5047
研制	-10.5049
客观	-10.5049
高效	-10.5051
房间	-10.5055
▁杨	-10.5056
储备	-10.5056
190	-10.506
违	-10.5063
屡	-10.5063
相应	-10.5063
漂亮	-10.5065
局面	-10.5066
▁去年	-10.5069
到来	-10.5071
街头	-10.5072
开心	-10.5072
而不	-10.5076
狼	-10.5078
荡	-10.5078
最多的	-10.5082
性和	-10.5084
统治	-10.5085
现状	-10.5085
新区	-10.5088
交通部	-10.5089
艺术家	-10.509
另有	-10.5092
信托	-10.5097
成分	-10.5098
遗址	-10.5099
看起来	-10.5099
▁发布时间	-10.51
可望	-10.5101
的设计	-10.5103
五个	-10.5104
年开始	-10.511
国家队	-10.511
致力于	-10.5112
本科	-10.5114
记者从	-10.5119
妆	-10.5119
七年	-10.512
ong	-10.5121
旨在	-10.5123
强势	-10.5123
受理	-10.5123
▁针对	-10.5124
总局	-10.5125
券商	-10.5125
奋斗	-10.5128
▁新华社记者	-10.5136
基础设施	-10.5137
记载	-10.5138
用品	-10.5138
被告	-10.5141
造成的	-10.5141
建立了	-10.5142
两大	-10.5144
框架	-10.5148
ni	-10.515
ST	-10.515
旭	-10.515
在上海	-10.5156
的过程	-10.5157
一事	-10.5157
古巴	-10.5161
两千	-10.5162
▁4、	-10.5163
裙	-10.5166
婴儿	-10.517
台南	-10.517
投诉	-10.517
的位置	-10.5172
翻译	-10.5173
血液	-10.5173
听取	-10.5176
早在	-10.5179
有效的	-10.518
八百	-10.519
为例	-10.5192
0.5	-10.5192
著名的	-10.5194
十几	-10.5195
养老	-10.5202
总书记	-10.5203
公报	-10.5204
请求	-10.5205
没想到	-10.5206
产生的	-10.5208
的目的	-10.5209
播放	-10.5209
磁	-10.5211
暂停	-10.5215
▁m	-10.5216
新车	-10.5217
海岸	-10.5218
一道	-10.5218
开幕式	-10.5219
▁马	-10.5225
美洲	-10.5225
我觉得	-10.5226
的比例	-10.5226
ist	-10.523
其中包括	-10.523
新高	-10.5232
是最	-10.5233
结论	-10.5234
路口	-10.5236
后续	-10.5243
不出	-10.525
VR	-10.5251
和社会	-10.5257
▁那么	-10.5258
弘	-10.5258
止损	-10.5259
预报	-10.526
重申	-10.5262
争夺	-10.5271
中共中央	-10.5275
命令	-10.5276
在香港	-10.5276
他是	-10.5277
替代	-10.5277
发生在	-10.5279
初期	-10.5279
son	-10.5286
加息	-10.5287
媒体报道	-10.5291
年后	-10.5297
考量	-10.5297
减轻	-10.5298
消失	-10.5298
个国家	-10.5303
长征	-10.5304
声音	-10.5305
的心	-10.5307
蓝色	-10.5309
ip	-10.5311
消化	-10.5312
出色	-10.5317
鸭	-10.5318
指责	-10.532
敦	-10.5321
ate	-10.5321
党中央	-10.5322
筹备	-10.5325
档案	-10.5325
之处	-10.5331
曼谷	-10.5334
的风险	-10.5348
输出	-10.5348
不利	-10.5348
▁w	-10.5349
区别	-10.5353
依照	-10.5354
输入	-10.5354
更好的	-10.5357
开盘	-10.5366
失踪	-10.5366
▁Re	-10.5366
民意	-10.5367
钦	-10.5368
н	-10.5368
迹象	-10.5369
伙伴	-10.537
IC	-10.537
电台	-10.537
给他	-10.537
却是	-10.5371
未来的	-10.5371
阔	-10.5373
▁▲	-10.5376
情感	-10.5378
场地	-10.538
长的	-10.5381
1991	-10.5383
送到	-10.5383
英镑	-10.5383
冬季	-10.5387
若干	-10.5389
挂牌	-10.5389
暴雨	-10.539
利息	-10.5394
但由于	-10.5396
加以	-10.5399
即便	-10.5403
扩张	-10.5404
数百	-10.5408
又有	-10.5409
复苏	-10.5412
管理局	-10.5426
义大利	-10.5426
不见	-10.5431
养殖	-10.5432
事业单位	-10.5447
白银	-10.5448
pe	-10.5458
od	-10.5458
ス	-10.5458
转向	-10.5461
虾	-10.5461
服务业	-10.5462
强大	-10.5463
赌	-10.5464
高科技	-10.5466
法制	-10.5467
创办	-10.5469
姑娘	-10.5469
罚款	-10.547
时表示	-10.5473
铃	-10.5474
名字	-10.5474
do	-10.5476
队长	-10.5478
揽	-10.5478
比重	-10.5481
够	-10.5481
举措	-10.5481
商业银行	-10.5483
疾	-10.5484
开拓	-10.5485
唯	-10.5485
看出	-10.5487
白宫	-10.5488
长时间	-10.5489
可以在	-10.5492
考验	-10.5492
叠	-10.5494
强劲	-10.5494
180	-10.55
ai	-10.55
慈	-10.5502
欣赏	-10.5502
▁f	-10.5507
防御	-10.5507
保险公司	-10.5508
闽	-10.5511
以便	-10.5511
葱	-10.5516
nbsp	-10.5518
种子	-10.5518
聚集	-10.5519
机器	-10.552
肌	-10.5521
砂	-10.5521
兰州	-10.5524
百分之二十	-10.5525
港口	-10.5525
被迫	-10.5527
制裁	-10.5527
红军	-10.5527
的老	-10.5528
入口	-10.5528
万人次	-10.5531
伟大	-10.5533
多了	-10.5534
选拔	-10.5535
隧道	-10.5536
生涯	-10.5541
合资	-10.5545
北市	-10.5549
二十五	-10.5549
下了	-10.5551
处置	-10.5552
中说	-10.5552
加州	-10.5553
佛教	-10.5554
▁据介绍	-10.5554
人在	-10.556
和发展	-10.5562
地图	-10.5562
订单	-10.5563
首度	-10.5564
-6	-10.5564
侠	-10.5564
相关的	-10.5566
以免	-10.5567
脂肪	-10.5567
大数据	-10.5569
很好的	-10.5574
对待	-10.5574
收取	-10.5581
惩	-10.5583
遥	-10.5585
伊斯兰	-10.5588
抹	-10.5592
古代	-10.5594
垫	-10.5596
的一部分	-10.5597
百度	-10.5597
尔斯	-10.56
东北风	-10.56
е	-10.56
he	-10.5602
狮	-10.5603
▁新华社北京	-10.5608
81	-10.561
是要	-10.5613
一定的	-10.5614
大气	-10.5616
策划	-10.5616
福建省	-10.5617
搭载	-10.5621
5%。	-10.5622
▁多云局部阵雨	-10.5624
同事	-10.5626
健全	-10.5628
化工	-10.5634
好处	-10.564
腐	-10.5641
希望能	-10.5641
会议上	-10.5646
附近的	-10.565
燃料	-10.565
评选	-10.565
大臣	-10.5651
带来了	-10.5655
▁第二	-10.5656
)(	-10.5657
邓小平	-10.5657
社交	-10.5659
频繁	-10.5661
完成了	-10.5663
热烈	-10.5666
寨	-10.5667
个性	-10.5671
收集	-10.5671
东亚	-10.5672
码头	-10.5672
地质	-10.5673
ve	-10.5674
并购	-10.5681
积分	-10.5681
物理	-10.5682
盼	-10.5682
督	-10.5686
蜜	-10.5687
活动的	-10.5691
▁基特峰	-10.5697
一直在	-10.5699
没有任何	-10.5706
合肥	-10.5708
有没有	-10.5708
中小	-10.5709
期望	-10.5715
通车	-10.5718
联络	-10.5718
一行	-10.5721
神秘	-10.5723
的做法	-10.5723
演习	-10.5724
毛泽东	-10.5727
减肥	-10.5728
芝	-10.5734
百姓	-10.5736
生活中	-10.5737
戏剧	-10.5739
约为	-10.5739
约有	-10.574
边界	-10.5741
等级	-10.5749
台湾的	-10.5751
ment	-10.5752
喜爱	-10.5752
市委	-10.5754
募	-10.5756
ers	-10.5757
〉	-10.576
犬	-10.5761
滞	-10.5777
关切	-10.5777
共计	-10.578
醉	-10.5781
恶化	-10.5787
崎	-10.5789
预警	-10.579
▁太空监视	-10.5792
任命	-10.5795
向上	-10.5796
查获	-10.5796
偶	-10.5805
键	-10.5805
模型	-10.5807
慕	-10.581
见面	-10.5811
简介	-10.5811
垒	-10.5815
论文	-10.5815
从未	-10.5822
堤	-10.5823
be	-10.5823
占据	-10.5824
瑟	-10.5824
渐	-10.5826
很高	-10.5833
葡萄牙	-10.5836
抑制	-10.5837
三人	-10.5845
花园	-10.5846
卧	-10.585
视觉	-10.5852
降雨	-10.5858
产值	-10.5863
报警	-10.5863
李登辉	-10.5864
温家宝	-10.5867
此一	-10.5873
条款	-10.5873
-10	-10.5874
不必	-10.5875
工作者	-10.5875
丰田	-10.5878
给我	-10.588
ian	-10.5881
当代	-10.5881
温暖	-10.5882
梨	-10.5894
6000	-10.5895
目前的	-10.5896
引擎	-10.5896
的压力	-10.5896
火灾	-10.5897
890	-10.5897
滴	-10.5898
泄	-10.5903
达到了	-10.5905
正确的	-10.5905
回国	-10.5909
南北	-10.5912
人文	-10.5912
个体	-10.5915
的社会	-10.5916
一时	-10.5919
IN	-10.592
召开的	-10.5922
太大	-10.5923
理事会	-10.5924
棚	-10.5928
有个	-10.5933
态势	-10.5936
出国	-10.5937
谢长廷	-10.5947
主委	-10.5947
出的	-10.5948
增幅	-10.5949
图书	-10.5951
这个问题	-10.5952
东莞	-10.5952
坤	-10.5954
本文	-10.5954
而来	-10.5955
万名	-10.5956
使用的	-10.5957
解读	-10.5957
烂	-10.596
结算	-10.5961
占比	-10.5963
练习	-10.5964
感动	-10.5964
充电	-10.5967
四千	-10.5967
保安	-10.5968
▁比如	-10.5969
微软	-10.5971
tion	-10.5972
的合作	-10.5972
降价	-10.5972
较多	-10.5975
劫	-10.598
cn	-10.5986
诞生	-10.5986
二次	-10.5987
收益率	-10.5988
咸	-10.5989
屯	-10.5993
资深	-10.5994
促使	-10.5995
大战	-10.5996
很容易	-10.5996
倾向	-10.6004
:《	-10.6011
都很	-10.6012
受益	-10.6013
这部	-10.6015
也可	-10.6015
哲学	-10.6015
辩	-10.6015
宽松	-10.6016
薇	-10.6017
ル	-10.6018
担忧	-10.6019
ud	-10.602
一面	-10.6022
排名第	-10.6022
紧密	-10.6023
方针	-10.6023
啥	-10.6027
的高	-10.6029
呆	-10.6029
下一	-10.6033
信用卡	-10.6033
今年以来	-10.6035
契	-10.604
最高的	-10.6041
灌	-10.6042
交给	-10.6045
的数据	-10.6048
走私	-10.6048
许可	-10.6051
▁参见	-10.6051
感受到	-10.6055
70%	-10.6056
掩	-10.6059
当场	-10.6059
设定	-10.606
▁/	-10.606
老公	-10.606
获奖	-10.6062
到位	-10.6064
单一	-10.6066
傅	-10.6071
澎湖	-10.6077
这也	-10.6079
重复	-10.6084
四川省	-10.6086
个别	-10.6087
哈尔滨	-10.6089
有机	-10.6092
货币政策	-10.61
晚报	-10.6103
有一	-10.6104
的一项	-10.6105
排除	-10.6108
委书记	-10.6108
美国总统	-10.611
ER	-10.6119
琼	-10.612
人心	-10.6121
哪里	-10.6121
还不	-10.6122
一把	-10.6123
持股	-10.6124
演唱会	-10.6126
省级	-10.6126
使命	-10.6127
下载	-10.6127
宁波	-10.6131
年起	-10.6132
职能	-10.6132
丸	-10.6136
趁	-10.6136
与美国	-10.6138
俩	-10.6142
不及	-10.6146
靖	-10.615
部位	-10.6152
▁中新社	-10.6152
监狱	-10.6159
创业板	-10.6159
去了	-10.616
坐在	-10.6161
业内人士	-10.6161
恨	-10.6162
▁外部连结	-10.6163
虹	-10.6165
自信	-10.6168
衡	-10.6168
后期	-10.6172
60%	-10.6172
原创	-10.6172
头发	-10.6173
斯坦	-10.6175
哥伦比亚	-10.6177
享有	-10.6179
净利润	-10.618
又是	-10.6184
行政院长	-10.6185
浙江省	-10.6192
帖	-10.6194
相似	-10.6195
屏幕	-10.6195
往来	-10.6195
遂	-10.6196
昨晚	-10.6202
巩固	-10.6202
谭	-10.6207
国小	-10.6208
这条	-10.6208
简单的	-10.6209
阿拉伯	-10.621
====	-10.6211
〈	-10.6211
辰	-10.6214
一同	-10.6219
步伐	-10.6219
毫无	-10.622
裁判	-10.6221
一月	-10.6226
谴责	-10.6228
1.3	-10.6229
ard	-10.6236
的努力	-10.6236
马克	-10.6238
政府的	-10.6241
氛围	-10.6243
尸	-10.6246
强大的	-10.6249
恐	-10.625
est	-10.6251
衰退	-10.6254
领土	-10.6254
联合会	-10.6261
及其他	-10.6261
▁警方	-10.6263
设计师	-10.6265
商场	-10.6265
250	-10.6267
▁4.	-10.6273
高温	-10.6276
驱动	-10.6277
供给	-10.6278
▁h	-10.6279
本来	-10.6279
承受	-10.6282
成为了	-10.6282
传承	-10.6283
▁27	-10.6286
符	-10.6287
的立场	-10.6287
辅助	-10.6288
零点	-10.6291
诊断	-10.6293
企图	-10.6294
项目的	-10.6295
交易所	-10.6301
》《	-10.6306
第九	-10.6306
不需要	-10.6307
ci	-10.6307
的经验	-10.6308
有多	-10.6308
▁上海	-10.631
无限	-10.6311
中医	-10.6312
高雄县	-10.6316
东海	-10.6323
奥地利	-10.6325
丧	-10.6328
人家	-10.6329
景观	-10.6333
0.4	-10.634
进出口	-10.634
的名字	-10.634
if	-10.6341
疗	-10.6352
迎接	-10.6354
▁预报员	-10.6354
的优势	-10.6355
全程	-10.6356
巾	-10.6361
七百	-10.6361
博览会	-10.6364
么	-10.6365
绍	-10.6367
前进	-10.6374
960	-10.6375
趣	-10.6378
埔	-10.6379
并无	-10.638
立刻	-10.638
ge	-10.6382
地上	-10.6388
发明	-10.6391
萍	-10.6392
之旅	-10.6392
▁高	-10.6392
硕士	-10.6394
イ	-10.6397
在国际	-10.6398
OS	-10.6399
仔细	-10.64
常务	-10.6405
小心	-10.6406
男孩	-10.6408
是对	-10.6409
裸	-10.6409
西亚	-10.6409
2%,	-10.641
柴	-10.6413
足够	-10.6418
复制	-10.6419
资助	-10.6424
bo	-10.6425
比利时	-10.6425
的技术	-10.6427
节奏	-10.6427
鲍	-10.6428
所谓的	-10.6431
癌症	-10.6432
询	-10.6433
工程师	-10.6434
皇帝	-10.6436
好像	-10.6437
▁2006	-10.6438
ss	-10.644
进而	-10.6443
新生	-10.6451
勾	-10.6452
▁2007	-10.6452
关税	-10.6454
促销	-10.6454
已在	-10.6454
AN	-10.6457
牺牲	-10.6459
好了	-10.6463
启用	-10.6466
3%,	-10.6472
当初	-10.6477
ant	-10.6485
的核心	-10.6487
在日本	-10.6492
鸡蛋	-10.6493
模拟	-10.6498
艺人	-10.6499
确	-10.6501
网球	-10.6501
阶	-10.6503
硕	-10.6508
辐射	-10.6508
夏天	-10.6509
二人	-10.651
垂	-10.651
共和党	-10.651
拆除	-10.6512
公安机关	-10.6513
ak	-10.6514
祝	-10.6515
▁阿	-10.6517
▁”“	-10.6518
建国	-10.6522
QQ	-10.6524
疯狂	-10.6526
的效果	-10.6527
政务	-10.6529
石化	-10.6532
舌	-10.6535
入境	-10.6537
媒	-10.6541
占领	-10.6542
言论	-10.6543
1500	-10.6545
再加上	-10.6545
环球	-10.6546
的最大	-10.655
韵	-10.6551
声称	-10.6554
系统的	-10.6555
揭	-10.6558
一颗	-10.6561
密集	-10.6564
招商	-10.6568
▁Ma	-10.6569
陈总统	-10.6569
汽油	-10.6573
不幸	-10.6577
农民工	-10.658
打电话	-10.6581
阻止	-10.6583
维生素	-10.6583
下周	-10.6584
负债	-10.6585
疼	-10.6587
玩具	-10.6589
既然	-10.6589
iPhone	-10.659
970	-10.6598
精品	-10.6598
担	-10.6599
首批	-10.6602
朋友圈	-10.6602
原有	-10.6603
三峡	-10.6606
很可能	-10.6609
各位	-10.6613
边境	-10.6615
外贸	-10.6619
一九八	-10.6622
▁近日	-10.6623
老百姓	-10.6624
丑	-10.6626
强度	-10.6626
群岛	-10.6629
了很多	-10.6632
约定	-10.6635
相继	-10.6637
总监	-10.6642
纪律	-10.6643
他强调	-10.6647
地检署	-10.6649
更好地	-10.6649
国中	-10.665
主人	-10.6652
后面	-10.6655
维奇	-10.6656
可谓	-10.6658
警察局	-10.6659
浪费	-10.666
大使馆	-10.6661
通行	-10.6662
帆	-10.6664
蕾	-10.6666
家具	-10.6668
一句	-10.6669
发展中国家	-10.6674
脏	-10.6676
的过程中	-10.6678
逻辑	-10.6681
讲述	-10.6684
大量的	-10.6686
时说	-10.6686
无数	-10.669
▁来源	-10.669
下行	-10.6692
4%,	-10.6694
人气	-10.6695
的作品	-10.6695
mo	-10.67
他们在	-10.6701
龙头	-10.6704
执政党	-10.6705
的一些	-10.6706
区内	-10.6706
要把	-10.6706
树立	-10.6709
月中旬	-10.6709
猜	-10.6714
流域	-10.6714
道理	-10.6716
Ch	-10.6718
考虑到	-10.6718
复兴	-10.6721
郊	-10.6721
笼	-10.6727
这对	-10.6727
视为	-10.6729
ep	-10.6736
二十四	-10.6738
硬件	-10.674
主演	-10.6741
▁10%	-10.6743
的城市	-10.6744
体内	-10.6744
必要的	-10.6745
成功的	-10.6745
就不	-10.6746
美容	-10.6749
婚礼	-10.675
告知	-10.6751
鉴于	-10.6753
追究	-10.6758
聪明	-10.6759
公众号	-10.676
解放军	-10.6762
考古	-10.6762
р	-10.6764
三国	-10.6764
菊	-10.6764
了吗	-10.6765
市政	-10.6766
化解	-10.6766
酱	-10.6768
肌肉	-10.6769
mp	-10.677
立法委员	-10.677
看见	-10.6771
▁2013	-10.6772
水泥	-10.6774
入学	-10.6777
嘉义	-10.6779
版权	-10.678
万亩	-10.6783
的角色	-10.6783
流动性	-10.6787
重量	-10.6789
攀	-10.6793
节日	-10.6793
单独	-10.6794
涵	-10.6795
残疾人	-10.6796
形容	-10.6797
▁中共	-10.6799
首长	-10.6804
作风	-10.6805
螺	-10.6805
痛苦	-10.6807
相应的	-10.6807
盲	-10.6808
煤矿	-10.6811
可爱	-10.6815
一一	-10.6816
以此	-10.6818
胖	-10.6818
充足	-10.6819
二维码	-10.682
蜂	-10.6822
的决定	-10.6823
悠	-10.6824
不明	-10.6826
的力量	-10.6826
生效	-10.6828
马拉	-10.6829
怀孕	-10.6829
商标	-10.683
爵	-10.6832
辽	-10.6839
核子	-10.684
将由	-10.684
国人	-10.6847
砸	-10.6848
扩	-10.6849
叉	-10.6851
增进	-10.6851
拉斯	-10.6855
后果	-10.6856
已达	-10.6856
能在	-10.6857
廊	-10.686
坠	-10.6862
乘坐	-10.6867
的利益	-10.6869
那里	-10.6869
360	-10.6869
景点	-10.687
泡沫	-10.687
▁--	-10.6871
采访时	-10.6872
侦查	-10.6873
真相	-10.6875
肿	-10.6875
捞	-10.6876
饮	-10.6877
欧美	-10.6878
15.	-10.6879
仰	-10.688
买入	-10.6881
会出现	-10.6882
架构	-10.6883
让他们	-10.6883
仇	-10.6885
会中	-10.6886
人民群众	-10.6887
小标题	-10.689
干预	-10.6892
山东省	-10.6893
发达	-10.6894
门槛	-10.6896
云林	-10.69
过多	-10.6903
的信息	-10.6907
美国政府	-10.6908
13.	-10.6909
up	-10.6909
共产党	-10.6911
au	-10.6912
额度	-10.6914
课题	-10.6915
ea	-10.6917
南昌	-10.6922
免疫	-10.6922
▁U	-10.6923
身材	-10.6927
那种	-10.6934
通胀	-10.6934
批发	-10.6937
政协	-10.6939
经济合作	-10.6945
合计	-10.6946
研究员	-10.6947
侦	-10.6948
天的	-10.695
国家安全	-10.6953
购房	-10.6953
融入	-10.6953
门票	-10.6957
扶持	-10.6958
▁1、	-10.6959
选出	-10.696
身分	-10.6962
日圆	-10.6962
1%,	-10.6964
人民法院	-10.6967
比分	-10.6969
镜头	-10.697
勉	-10.6973
假期	-10.6975
已于	-10.6975
生平	-10.6976
任职	-10.698
▁第三	-10.6982
▁他表示	-10.6982
▁2005	-10.6986
嘉宾	-10.699
的资金	-10.6994
最快	-10.6994
6%,	-10.6996
实质	-10.6997
走了	-10.6999
自从	-10.7
电动	-10.7
玉米	-10.7003
回顾	-10.7005
商店	-10.7013
专案	-10.7019
纷	-10.7023
乃至	-10.7025
选区	-10.7026
较低	-10.7028
信息化	-10.703
民调	-10.7033
将以	-10.7034
书法	-10.7036
还没	-10.7038
mi	-10.7038
国有企业	-10.7038
日报道	-10.7039
他对	-10.7041
AM	-10.7042
皇家	-10.7043
引入	-10.7049
一处	-10.7049
常规	-10.7056
万平方米	-10.7059
势头	-10.7061
的责任	-10.7062
也表示	-10.7063
检方	-10.7063
远远	-10.7063
160	-10.7065
智利	-10.7069
上有	-10.7069
挖掘	-10.7072
就算	-10.7073
接着	-10.7073
独特的	-10.7078
多年的	-10.7079
公主	-10.7086
们的	-10.7087
客车	-10.7088
外部连结	-10.709
▁四至五阵风七级	-10.7092
玄	-10.7092
出身	-10.7094
市场经济	-10.7094
邮政	-10.7097
▁晴	-10.7097
三点	-10.7098
一期	-10.71
承包	-10.7101
奥林匹克	-10.7102
威尔	-10.7103
妥	-10.7104
外商	-10.7108
罐	-10.711
与其	-10.7114
放松	-10.7117
标题	-10.7117
勋	-10.7118
▁饰	-10.7119
申购	-10.7121
叙利亚	-10.7121
克拉	-10.7123
晚会	-10.7123
环境保护	-10.7126
卸	-10.7128
这么多	-10.7128
两会	-10.7138
▁自	-10.7139
风景	-10.714
棒球	-10.714
放入	-10.7142
参展	-10.7142
体重	-10.7145
宣称	-10.7146
奖项	-10.7147
吞	-10.715
式的	-10.7155
在国内	-10.7162
分行	-10.7167
当事人	-10.7168
华侨	-10.7169
日凌晨	-10.7169
长城	-10.7171
转载	-10.7174
运会	-10.7174
将对	-10.7175
三个月	-10.7185
加强对	-10.7185
困境	-10.719
16.	-10.7192
极为	-10.7195
碑	-10.7195
闯	-10.7196
六千	-10.7197
晋级	-10.7197
我们要	-10.7202
可靠	-10.7202
通讯员	-10.7202
有一些	-10.7207
的具体	-10.7207
侦办	-10.7214
}-	-10.7216
唤	-10.722
14.	-10.722
▁from	-10.7221
其后	-10.7222
130	-10.7223
IS	-10.7229
驶	-10.7231
ight	-10.7234
消耗	-10.7236
封闭	-10.7237
撤销	-10.7239
后者	-10.7247
示威	-10.7248
CO	-10.725
严厉	-10.725
0.6	-10.7252
第二天	-10.7256
0.8	-10.7257
ti	-10.7259
从此	-10.7261
发现了	-10.7263
日元	-10.7264
江苏省	-10.7267
随著	-10.7268
大国	-10.7269
睡眠	-10.727
精准	-10.727
二级	-10.7271
扰	-10.7271
道歉	-10.7272
1.0	-10.7272
家电	-10.7275
辩论	-10.7275
派遣	-10.7277
这一点	-10.7284
oc	-10.7285
厘米	-10.7286
▁此次	-10.7287
听说	-10.729
的国际	-10.7293
―	-10.7294
这座	-10.7295
完工	-10.7296
周刊	-10.7298
过了	-10.7299
薛	-10.7299
时许	-10.7302
百年	-10.7305
不容	-10.7306
两个月	-10.7306
估	-10.7308
开车	-10.7309
▁他们	-10.7311
渔船	-10.7312
花费	-10.7312
ba	-10.7314
书面	-10.7316
CA	-10.7316
嫌犯	-10.7316
税务	-10.7318
氧化	-10.7319
领取	-10.7319
▁by	-10.7324
河南省	-10.7324
0.7	-10.7329
与其他	-10.733
美方	-10.7331
华为	-10.7331
进度	-10.7332
肿瘤	-10.7336
漆	-10.7338
知识产权	-10.734
加油	-10.7341
线下	-10.7346
劣	-10.7346
尹	-10.7347
住在	-10.7347
首届	-10.7348
人民的	-10.7348
规定的	-10.735
鑫	-10.7351
-20	-10.7353
就读	-10.7354
女神	-10.7358
帽	-10.7361
创始人	-10.7363
短线	-10.7365
携	-10.7366
遮	-10.7368
sp	-10.7368
▁II	-10.7371
更大的	-10.7374
柏林	-10.7378
小朋友	-10.7381
老年人	-10.7382
业界	-10.7383
肌肤	-10.7385
困扰	-10.7387
近几年	-10.7389
嘛	-10.7389
都将	-10.739
▁In	-10.7393
的相关	-10.7393
渊	-10.7393
人力	-10.7394
▁这次	-10.7394
100%	-10.7395
明显的	-10.7396
分离	-10.7397
卡拉	-10.7398
罢	-10.7402
国防部长	-10.7405
丹麦	-10.7408
90%	-10.7411
one	-10.7414
机动车	-10.7416
咬	-10.7417
过渡	-10.7417
管辖	-10.7418
要有	-10.742
的声音	-10.7429
战役	-10.7433
命名	-10.7437
颁发	-10.7438
腾讯	-10.744
窗口	-10.7443
高度重视	-10.7448
净值	-10.745
外部	-10.7451
受损	-10.7452
姿	-10.7452
??	-10.7455
电子商务	-10.7455
进行的	-10.7458
一九九	-10.7459
基础上	-10.7461
tr	-10.7461
穴	-10.7464
粘	-10.7468
一体化	-10.7469
大街	-10.747
传说	-10.7472
ity	-10.7476
这两个	-10.7477
不上	-10.7477
乐团	-10.7478
扭	-10.7482
下游	-10.7483
今天说	-10.7485
也都	-10.7488
获胜	-10.7489
不超过	-10.749
专访	-10.749
定价	-10.749
也被	-10.7492
面临的	-10.7493
本质	-10.7494
实地	-10.7496
不住	-10.7499
增多	-10.7502
爱尔兰	-10.7505
带有	-10.7505
上演	-10.7505
丙	-10.7505
多万	-10.7506
环比	-10.7507
台湾地区	-10.7508
节约	-10.7509
实体	-10.7509
不应	-10.7511
St	-10.7513
自觉	-10.7514
学位	-10.7517
麻烦	-10.7519
部部长	-10.7519
唇	-10.7519
障	-10.7521
嫩	-10.7523
择	-10.753
砍	-10.753
故障	-10.7534
心灵	-10.7534
着力	-10.7538
的情形	-10.7539
▁周	-10.7542
览	-10.7546
拓	-10.7552
落地	-10.7552
的速度	-10.7554
hi	-10.7554
承办	-10.7555
介绍说	-10.7555
黄河	-10.756
部副部长	-10.756
相反	-10.756
琪	-10.7561
曾任	-10.7561
省政府	-10.7562
TA	-10.7562
▁1.	-10.7562
足协	-10.7564
召	-10.7566
的市场	-10.7567
客人	-10.7567
虚拟	-10.7568
看法	-10.7568
时代的	-10.757
ct	-10.7571
得分	-10.7572
人次	-10.7578
贯	-10.7579
挫	-10.758
筑	-10.7581
威廉	-10.759
卫视	-10.7593
生日	-10.7593
儒	-10.7599
度假	-10.7602
公投	-10.7602
с	-10.7603
均为	-10.7604
志愿	-10.7607
发布会	-10.7607
-11	-10.7607
情势	-10.7608
较好	-10.7612
种种	-10.7613
○○	-10.7614
哪个	-10.7614
东北部	-10.7615
也没	-10.7616
匹	-10.7616
客机	-10.7619
老婆	-10.7622
中小学	-10.7624
凌晨	-10.7626
发生后	-10.7628
短信	-10.763
丛	-10.763
让孩子	-10.7634
US	-10.7636
极端	-10.7638
熙	-10.7639
蒜	-10.7641
队在	-10.7643
海峡两岸	-10.7646
要注意	-10.7647
车身	-10.7648
慰问	-10.7652
ord	-10.7653
预料	-10.7655
每人	-10.7655
史上	-10.7661
闭幕	-10.7662
万桶	-10.7665
饮料	-10.7669
▁金	-10.7669
der	-10.767
贞	-10.7678
途中	-10.7681
贡	-10.7682
法治	-10.7684
代码	-10.7685
万辆	-10.7687
伞	-10.7687
溶	-10.7689
商务部	-10.7691
事发	-10.7692
什么样的	-10.7696
授予	-10.7699
布拉	-10.7703
缴纳	-10.7707
齿	-10.7708
今天的	-10.7709
旅行社	-10.771
背景下	-10.771
婴	-10.7714
谦	-10.7714
的重大	-10.7716
国债	-10.7717
对接	-10.7717
婷	-10.7719
▁俄罗斯	-10.772
歇	-10.7722
开会	-10.7724
关怀	-10.7725
算是	-10.7725
例子	-10.7731
发达国家	-10.7732
绑	-10.7733
卖出	-10.7734
护理	-10.7735
é	-10.7738
▁大浪	-10.7742
轰	-10.7743
ca	-10.7744
い	-10.7748
新党	-10.7749
邪	-10.7749
纺织	-10.775
快递	-10.7754
衰	-10.7755
▁昨日	-10.7758
党政	-10.7759
麟	-10.7761
潮流	-10.7762
中外	-10.7763
3.5	-10.7764
份额	-10.7765
热线	-10.7767
百货	-10.7767
大门	-10.7768
变成了	-10.7769
纪委	-10.777
降至	-10.7771
分数	-10.7771
气质	-10.7775
这件事	-10.7779
一号	-10.7779
苑	-10.7779
政治人物	-10.7781
近来	-10.7782
可达	-10.7782
▁这种	-10.7783
滩	-10.7784
黄色	-10.7785
克服	-10.7789
爱国	-10.7791
不多	-10.7793
魂	-10.7794
几十	-10.7796
生活的	-10.7806
美国人	-10.7806
少数民族	-10.781
备受	-10.781
青海	-10.7812
辜	-10.7814
战术	-10.7814
已经成为	-10.7814
否	-10.7816
的重点	-10.7817
兴奋	-10.7819
存在的	-10.7821
▁最后	-10.7821
房地产市场	-10.7822
巡逻	-10.7824
点评	-10.7825
新能源	-10.7825
卡尔	-10.7826
聪	-10.783
不停	-10.7832
崛起	-10.7833
漂	-10.7833
宇宙	-10.7834
法人	-10.7834
市值	-10.7834
疑似	-10.7836
怨	-10.7839
к	-10.7839
也就是说	-10.7843
这时	-10.7845
基隆	-10.7851
呀	-10.7854
涉案	-10.7855
严肃	-10.7857
功效	-10.7862
公里的	-10.7864
正义	-10.7865
分歧	-10.7867
旱	-10.7867
研究人员	-10.7868
▁●	-10.7868
三次	-10.7869
他将	-10.7869
不仅是	-10.787
白天	-10.787
编号	-10.7873
对应	-10.7875
中国驻	-10.7886
牛肉	-10.7886
深圳市	-10.7887
亮点	-10.7887
清晨	-10.789
心脏	-10.789
当时的	-10.7891
垄断	-10.7892
股东大会	-10.7892
体检	-10.7894
产业发展	-10.7895
留在	-10.7895
吉林	-10.7895
很重要	-10.7897
任期	-10.7901
的世界	-10.7904
等于	-10.7905
振兴	-10.7912
对台湾	-10.7914
中期	-10.7914
司令	-10.7914
勿	-10.7915
ev	-10.7916
广州市	-10.7922
是我	-10.7923
传奇	-10.7923
披	-10.7924
绝不	-10.7924
甘肃	-10.7925
政策的	-10.7928
是我们	-10.7929
恐怕	-10.793
的战略	-10.7933
轩	-10.7933
是从	-10.7934
家乡	-10.7935
票房	-10.7937
ver	-10.7938
中华民族	-10.7941
互联网金融	-10.7942
蓉	-10.7943
死者	-10.7944
绑架	-10.7944
2%。	-10.7948
1988	-10.7952
而非	-10.7953
精心	-10.7955
李总统	-10.7955
SA	-10.7955
破产	-10.796
的趋势	-10.7962
3%。	-10.7963
错过	-10.7964
箭	-10.7965
APP	-10.7966
的特点	-10.7966
上扬	-10.7966
相结合	-10.7967
首个	-10.7967
婆	-10.797
台中县	-10.7972
多万元	-10.7972
而已	-10.7973
赶紧	-10.7977
蟹	-10.798
▁这项	-10.7982
的角度	-10.7982
容量	-10.7986
慎	-10.7989
捷克	-10.799
精英	-10.799
忽视	-10.7994
停留	-10.8
苍	-10.8
詹	-10.8002
田径	-10.8003
的看法	-10.8006
叹	-10.8013
简直	-10.8017
此举	-10.8018
140	-10.8019
开出	-10.8019
王国	-10.8022
原始	-10.8026
未经	-10.8029
颈	-10.8029
狠	-10.803
ob	-10.8033
前面	-10.8033
监事	-10.8036
过后	-10.8036
无奈	-10.8038
拥	-10.8038
贪污	-10.804
余人	-10.804
同期	-10.8043
电器	-10.8045
1.1	-10.8046
足以	-10.8049
驳	-10.8056
塑	-10.8058
题材	-10.806
在未来	-10.806
蓬	-10.8066
响应	-10.8068
率为	-10.8069
迄今	-10.8072
集中在	-10.8076
禅	-10.8077
竞技	-10.8077
一带	-10.8077
巴拿马	-10.8078
朵	-10.8079
信仰	-10.808
做的	-10.8082
激动	-10.8082
交所	-10.8084
法律法规	-10.8084
接收	-10.8085
有许多	-10.8087
黎巴嫩	-10.8089
尺寸	-10.8089
巡回	-10.809
洪水	-10.809
是美国	-10.8095
战机	-10.8097
奉献	-10.8099
不容易	-10.81
南宁	-10.8102
鹤	-10.8102
桥梁	-10.8103
住院	-10.8104
我也	-10.8105
步骤	-10.8109
不在	-10.8111
台股	-10.8111
买房	-10.8112
养生	-10.8114
作曲	-10.8115
一开始	-10.8116
不佳	-10.8117
▁可吸入颗粒物	-10.812
出租车	-10.8123
1989	-10.8123
体制改革	-10.8124
首位	-10.8124
课堂	-10.8126
写作	-10.8127
va	-10.8129
港澳	-10.8137
一季度	-10.8137
之内	-10.8137
电站	-10.8142
特区政府	-10.8142
最具	-10.8143
骑士	-10.8144
纤维	-10.8145
携手	-10.8146
叙	-10.8148
相关部门	-10.8151
单纯	-10.8153
发表声明	-10.8159
腺	-10.8161
腔	-10.8163
团长	-10.8164
配音	-10.8165
幸运	-10.8165
资本市场	-10.8167
有趣	-10.8171
定制	-10.8172
尺	-10.8175
赞助	-10.818
十足	-10.818
某种	-10.8184
前提	-10.8185
连锁	-10.8188
入选	-10.8189
据统计	-10.819
无线	-10.8192
臭	-10.8192
两者	-10.8192
钓鱼	-10.8196
缓慢	-10.8198
时段	-10.8199
三位	-10.8201
子公司	-10.8201
潜在	-10.8202
引领	-10.8204
基准	-10.8204
意志	-10.8206
对他	-10.8209
种类	-10.8209
仍是	-10.8211
温州	-10.8212
热带	-10.8216
寸	-10.8217
热爱	-10.8218
提及	-10.822
车队	-10.8221
主管部门	-10.8221
国际机场	-10.8222
珠海	-10.8226
演唱	-10.8228
僧	-10.8228
楠	-10.8229
独特	-10.8234
蛋白	-10.8234
难民	-10.824
摆脱	-10.8243
铝	-10.8243
长远	-10.8243
霜	-10.8244
户籍	-10.8247
小幅	-10.8248
姓名	-10.8249
18.	-10.8252
ue	-10.8252
防守	-10.8252
保守	-10.8255
椒	-10.8256
天天	-10.8259
采用了	-10.8261
有序	-10.8262
放心	-10.8263
赋	-10.8263
▁▼	-10.8264
▁五	-10.8266
1980	-10.8266
教你	-10.8268
ess	-10.8268
罕见	-10.8269
作了	-10.8269
用途	-10.8271
艰难	-10.8274
踩	-10.8275
驰	-10.8275
该国	-10.828
借助	-10.8283
的主	-10.8283
▁经过	-10.8285
目的是	-10.8286
奎	-10.8286
▁如果你	-10.8287
脱离	-10.8289
磋商	-10.829
战场	-10.8296
在过去	-10.8296
AC	-10.8298
疆	-10.8298
招标	-10.8302
家园	-10.8304
内涵	-10.8307
它是	-10.8309
单元	-10.831
长安	-10.8313
一篇	-10.8313
圆满	-10.8317
喀	-10.8318
彬	-10.8318
辛苦	-10.8319
亚军	-10.8319
的形式	-10.8319
事后	-10.832
不易	-10.832
科目	-10.8321
典型	-10.8321
三是	-10.8324
珊	-10.8324
成立了	-10.8327
但也	-10.8331
雀	-10.8337
卫生署	-10.8339
履	-10.8341
充分发挥	-10.8341
学名	-10.8343
选票	-10.8344
不当	-10.8347
电厂	-10.8347
得很	-10.8347
的部分	-10.8348
是否有	-10.8349
解决方案	-10.8353
故意	-10.836
的钱	-10.836
失误	-10.8366
停车场	-10.8366
多样	-10.8367
一本	-10.8369
扩散	-10.837
懂得	-10.8372
一方	-10.8373
情节	-10.8373
会场	-10.8375
集会	-10.8377
越来越多	-10.8378
恋爱	-10.8379
身为	-10.8382
身高	-10.8382
回合	-10.8387
副院长	-10.8389
公寓	-10.8394
辖区	-10.84
要在	-10.8404
浪漫	-10.8407
LED	-10.8409
打工	-10.8413
陪同	-10.8413
已经有	-10.8414
▁***	-10.8417
柴油	-10.8422
过的	-10.8422
中日	-10.8423
一番	-10.8424
ラ	-10.8425
习近平	-10.8425
今年的	-10.8425
创造了	-10.8426
公会	-10.8427
受欢迎	-10.8428
了一些	-10.8428
ト	-10.8429
马尼拉	-10.8431
娇	-10.8432
罗斯	-10.8432
民航	-10.8434
严峻	-10.8437
我认为	-10.844
教育局	-10.8441
答复	-10.8442
中断	-10.8443
吻	-10.8445
户外	-10.8445
楼盘	-10.845
发育	-10.8454
优良	-10.8454
验证	-10.8454
射击	-10.8455
ty	-10.8457
八点	-10.8457
河北省	-10.8457
禽流感	-10.8459
日开始	-10.8459
芬兰	-10.8459
的选择	-10.8459
扩展	-10.8461
国企	-10.8461
公元	-10.8462
杰出	-10.8465
有时候	-10.8466
法定	-10.8469
our	-10.8471
涅	-10.8475
北美	-10.8475
优秀的	-10.8476
浆	-10.848
拐	-10.8481
的想法	-10.8481
中正	-10.8486
塑料	-10.8486
禽	-10.8488
评审	-10.8489
举行了	-10.8492
称号	-10.8493
的日子	-10.8495
这是一个	-10.8501
看了	-10.8501
开了	-10.8503
柬埔寨	-10.8504
4%。	-10.8506
从小	-10.8506
剩	-10.8514
6%。	-10.8519
CC	-10.8524
出资	-10.8525
初中	-10.8526
效力	-10.8527
阵容	-10.8528
苏丹	-10.8531
高位	-10.8531
才有	-10.8534
提高了	-10.8536
推出的	-10.8537
有必要	-10.8537
长按	-10.8541
终止	-10.8544
的地位	-10.8544
▁2000	-10.8545
译者	-10.8545
海拔	-10.8547
吸引了	-10.8547
比去年同期	-10.8551
失业率	-10.8551
混乱	-10.8552
官方网站	-10.8554
托管	-10.8556
焕	-10.8558
突发	-10.8558
怎么办	-10.8562
龟	-10.8562
1.7	-10.8562
夜间	-10.8564
搭乘	-10.8564
第三方	-10.857
ton	-10.8571
夕	-10.8572
展望	-10.8572
名额	-10.8572
准则	-10.8577
百分之三十	-10.8579
流入	-10.858
per	-10.8583
凝	-10.8585
正当	-10.8598
彰化	-10.8601
瓷	-10.8602
出租	-10.8604
污水	-10.8604
认知	-10.8606
激发	-10.8608
专业的	-10.8608
是有	-10.861
创立	-10.8611
就开始	-10.8613
发布了	-10.8613
的所有	-10.8614
见证	-10.8615
海口	-10.8615
卿	-10.8617
并对	-10.8619
兔	-10.8621
★	-10.8622
剧情	-10.8625
在全球	-10.8626
(4	-10.8628
约束	-10.8628
相机	-10.8628
巢	-10.8629
原因是	-10.8632
精力	-10.8635
第一位	-10.8638
赛场	-10.864
1%。	-10.864
厄	-10.8641
洒	-10.8641
两国关系	-10.8642
永久	-10.8646
遗产	-10.8646
党部	-10.8646
缩小	-10.8648
隔离	-10.865
利好	-10.8654
Mar	-10.8655
妖	-10.8655
成人	-10.8656
提议	-10.8657
两家	-10.8659
ON	-10.866
吾	-10.8661
登上	-10.8662
向前	-10.8663
愿望	-10.8664
终端	-10.8666
核准	-10.8667
ix	-10.8668
大脑	-10.8669
拍照	-10.8669
女友	-10.8672
涵盖	-10.8673
等领域	-10.8673
激情	-10.8674
株	-10.8674
▁2002	-10.8678
只会	-10.8679
火炬	-10.8682
也不能	-10.8683
ee	-10.869
ite	-10.8693
▁28	-10.8695
碟	-10.8696
这就	-10.87
一对	-10.8701
几个月	-10.8701
七千	-10.8702
汉语	-10.8703
唱片	-10.8703
干扰	-10.8703
国际化	-10.8708
也曾	-10.8711
大奖	-10.8712
组织的	-10.8716
进球	-10.8718
叔	-10.872
哀	-10.8721
县政府	-10.8722
颁奖	-10.8727
的照片	-10.8727
江南	-10.8728
四点	-10.8733
师傅	-10.8733
溢	-10.8733
支队	-10.8733
乔治	-10.8736
讲座	-10.8741
谊	-10.8742
侵犯	-10.8744
......”	-10.8746
目录	-10.8747
两地	-10.875
早日	-10.8751
日宣布	-10.8751
逝世	-10.8753
7%。	-10.8756
省份	-10.8756
毫	-10.8761
天主教	-10.8763
师生	-10.8764
▁阵雨	-10.8765
营收	-10.8766
家公司	-10.877
反恐	-10.8772
影像	-10.8774
适量	-10.8774
GB	-10.8775
▁对此	-10.8778
后再	-10.878
聊天	-10.8781
买了	-10.8787
勘	-10.8788
对自己	-10.8793
犯罪嫌疑人	-10.8797
常见的	-10.8797
是非常	-10.8799
名人	-10.8799
口岸	-10.88
Co	-10.8802
..	-10.8804
手法	-10.8805
艾滋病	-10.8806
一层	-10.8807
▁2001	-10.8813
翠	-10.8813
-12	-10.8814
书籍	-10.8815
8%。	-10.8818
辖	-10.8821
磊	-10.8823
并以	-10.8825
进场	-10.8828
▁2012	-10.8828
妃	-10.8829
的通知	-10.8833
淘宝	-10.8834
age	-10.8834
如同	-10.8835
膏	-10.8836
▁——	-10.8836
徽	-10.8838
8000	-10.884
公车	-10.8841
邵	-10.8841
温泉	-10.8842
不宜	-10.8842
康复	-10.8843
机组	-10.8844
留言	-10.8845
八千	-10.8849
部落	-10.885
附加	-10.8851
剧场	-10.8852
表现出	-10.8853
的空间	-10.8854
敌人	-10.8855
卫生部	-10.8858
林业	-10.8859
匈牙利	-10.8862
喂	-10.8862
各方面	-10.8863
惊人	-10.8865
总面积	-10.8866
斯基	-10.8869
无疑	-10.887
艰苦	-10.8871
灾难	-10.8873
▁at	-10.8873
瞩目	-10.8876
:1.	-10.8879
生产的	-10.8881
杏	-10.8886
随意	-10.8887
奴	-10.8887
也不是	-10.8887
单曲	-10.8887
厂家	-10.8887
调查显示	-10.8889
绳	-10.8895
不错的	-10.8896
午后	-10.8897
原先	-10.8903
qu	-10.8916
新政	-10.8918
务实	-10.8919
宿舍	-10.8919
不存在	-10.8926
周一	-10.8928
”,“	-10.8929
ran	-10.8932
茅	-10.8935
大事	-10.8935
伤亡	-10.8937
富有	-10.8938
把自己	-10.894
不懂	-10.8942
劳动力	-10.8942
出场	-10.8943
直至	-10.8945
车祸	-10.8946
会长	-10.8946
2.4	-10.8948
跟着	-10.8952
短暂	-10.8957
五大	-10.8958
给出	-10.8958
0.9	-10.8959
天气预报	-10.896
的权利	-10.8962
常态	-10.8963
中央银行	-10.8963
注入	-10.8964
教材	-10.8966
网民	-10.8966
一群	-10.8966
半岛	-10.8967
泊	-10.8968
教会	-10.8969
而成	-10.8969
划分	-10.8972
经济学家	-10.8974
Br	-10.8974
体会	-10.898
肆	-10.8982
开支	-10.8982
服务中心	-10.8982
覆	-10.8986
将近	-10.8987
出境	-10.8987
▁而且	-10.8988
缺少	-10.8989
▁本次	-10.899
测量	-10.8992
农历	-10.8993
看到了	-10.8998
议案	-10.8999
第二个	-10.9001
进一步加强	-10.9003
性感	-10.9004
变革	-10.9004
▁5、	-10.9005
▁昨天	-10.9006
啤酒	-10.9007
马拉松	-10.9008
第三次	-10.9009
经历了	-10.901
上课	-10.9012
唯一的	-10.9013
厨房	-10.9015
闷	-10.9016
ts	-10.9016
缩短	-10.9016
好友	-10.9018
-9	-10.9019
塔利班	-10.902
题目	-10.9021
界人士	-10.9027
电梯	-10.9032
源于	-10.9036
▁这位	-10.9038
修建	-10.9039
私募	-10.9045
剩下	-10.9045
禄	-10.9047
越来越多的	-10.9049
车道	-10.9051
朝野	-10.9051
协作	-10.9051
脊	-10.9052
当地时间	-10.9056
走上	-10.9056
ina	-10.906
两项	-10.9061
凝聚	-10.9062
港澳台	-10.9062
葡萄	-10.9067
闸	-10.9069
我要	-10.907
日举行	-10.9073
这段	-10.9073
偏北风	-10.9076
本期	-10.9077
绿化	-10.9082
▁首先	-10.9085
忘记	-10.9085
▁l	-10.9087
参选人	-10.9088
感冒	-10.9092
ng	-10.9092
你会	-10.9094
国安	-10.9095
▁如今	-10.9095
铁道	-10.9096
害怕	-10.9096
一分	-10.9098
扇	-10.9101
界的	-10.9102
支持者	-10.9103
留学生	-10.9106
太原	-10.9106
一架	-10.9107
死刑	-10.9108
先行	-10.911
弟弟	-10.9111
猴	-10.9114
抓获	-10.9114
ear	-10.9114
撤离	-10.9115
产业链	-10.9116
主角	-10.9117
轰炸	-10.9119
赞成	-10.912
糊	-10.9121
一台	-10.9121
行使	-10.9123
通货膨胀	-10.9132
MI	-10.9133
catIdx	-10.9133
退役	-10.9134
被捕	-10.9136
钞	-10.9137
分散	-10.9137
官网	-10.9138
立方米	-10.9138
go	-10.9141
畏	-10.9142
发送	-10.9142
座椅	-10.9143
可以通过	-10.9146
她在	-10.9152
三种	-10.9153
全身	-10.9156
以下简称	-10.9157
借款	-10.9159
水位	-10.9163
此类	-10.9165
盘中	-10.9166
金钱	-10.9169
那就是	-10.9169
究	-10.9169
一直是	-10.9172
都被	-10.9177
外地	-10.9177
凤凰	-10.9177
健保	-10.9178
国家级	-10.9178
电网	-10.9179
场上	-10.9179
的状态	-10.9181
▁关于	-10.9182
▁法国	-10.9182
刮	-10.9183
涨价	-10.9186
功夫	-10.9186
实时	-10.919
▁for	-10.9191
设在	-10.9192
一笔	-10.9194
下调	-10.9194
跟踪	-10.9194
▁赵	-10.9195
的标准	-10.9196
上线	-10.9196
▁随后	-10.9201
的环境	-10.9202
较大的	-10.9202
米兰	-10.9203
教堂	-10.9204
十字	-10.9204
▁截至	-10.9204
ack	-10.9205
筒	-10.9206
船舶	-10.9208
链接	-10.9211
穿着	-10.9211
赠送	-10.9213
1987	-10.9213
的生命	-10.9218
力争	-10.9219
火车站	-10.9219
拜会	-10.922
将从	-10.9224
旁边	-10.9225
弊	-10.9226
早就	-10.9227
ore	-10.9228
短期内	-10.9229
感兴趣	-10.9235
挑选	-10.9236
放宽	-10.9236
轮胎	-10.9237
经济成长	-10.9239
恒大	-10.924
不愿意	-10.9241
上世纪	-10.9242
▁2004	-10.9244
社团	-10.9244
王子	-10.9245
全场	-10.9247
壶	-10.9249
居然	-10.9249
领导的	-10.925
探测	-10.9252
顶级	-10.9255
体现了	-10.9257
上看	-10.9263
的方向	-10.9267
表态	-10.9274
礼物	-10.9274
知情	-10.9274
旅游业	-10.9275
的服务	-10.9275
▁莱蒙山	-10.9279
con	-10.9281
华裔	-10.9282
熬	-10.9282
这起	-10.9282
拉萨	-10.9283
到期	-10.9283
睡觉	-10.9284
阶层	-10.9285
po	-10.9286
低价	-10.9288
施行	-10.929
弱势	-10.9293
锁定	-10.9296
卵	-10.9297
升高	-10.9297
代表大会	-10.9298
来讲	-10.9298
京东	-10.9299
诚信	-10.9299
证券交易所	-10.9299
一波	-10.9299
但这	-10.9301
宁夏	-10.9302
线索	-10.9302
管理办法	-10.9303
tic	-10.9303
据悉	-10.9305
这张	-10.9305
流失	-10.9306
要想	-10.9314
据了解	-10.9314
抵押	-10.9314
无效	-10.9316
解决问题	-10.9316
上诉	-10.9317
偶像	-10.9318
万股	-10.9318
盾	-10.9319
拆迁	-10.932
PC	-10.932
注释	-10.9322
夺冠	-10.9322
跨国	-10.9325
有不少	-10.9331
施政	-10.9332
的最高	-10.9335
全方位	-10.9339
多元化	-10.9341
傍晚	-10.9344
春天	-10.9346
▁194	-10.9346
束	-10.9348
姬	-10.9349
党籍	-10.9351
世界经济	-10.9352
躺	-10.9352
公约	-10.9353
亨	-10.9354
省市	-10.9354
可以说	-10.9355
起点	-10.9355
驾驶员	-10.9356
第一时间	-10.9363
的文化	-10.9364
市公安局	-10.9369
蒲	-10.937
(18	-10.937
发售	-10.9371
打印	-10.9371
帮忙	-10.9372
阴时多云	-10.9377
RO	-10.9377
转化	-10.9378
报告中	-10.9379
的就是	-10.9379
恭	-10.9382
拘	-10.9383
改编	-10.9385
将与	-10.9386
臂	-10.9387
萧万长	-10.9388
第二届	-10.9389
每天都	-10.9392
搭建	-10.9392
足够的	-10.9393
武警	-10.9396
亿元人民币	-10.9397
认购	-10.9398
台大	-10.94
货车	-10.9402
リ	-10.9403
许多人	-10.9406
上调	-10.9406
高原	-10.9412
港元	-10.9415
尝	-10.9415
新任	-10.9419
ass	-10.942
1985	-10.942
就此	-10.9424
巨头	-10.9424
维尔	-10.9424
期末	-10.9425
报价	-10.9425
语文	-10.9427
谅	-10.9427
观赏	-10.9428
本公司	-10.9428
ies	-10.9428
那是	-10.9431
兄	-10.9432
舰队	-10.9432
还需要	-10.9432
仍将	-10.9432
杀人	-10.9433
阵营	-10.944
赛后	-10.944
为主题	-10.9446
德拉	-10.9446
病患	-10.9447
病情	-10.945
场面	-10.945
外出	-10.9451
气候变化	-10.9452
绝大多数	-10.9454
15%	-10.9455
ア	-10.9457
有关规定	-10.9457
衍生	-10.9458
湖南省	-10.9458
风暴	-10.9458
关节	-10.9459
防卫	-10.946
的父亲	-10.9464
”;	-10.9466
摔	-10.947
证券投资基金	-10.9472
长大	-10.9472
据说	-10.9474
为中国	-10.9475
村里	-10.9475
斜	-10.9475
好转	-10.9476
户口	-10.9477
加剧	-10.948
班机	-10.9481
平均每	-10.9481
▁2017	-10.9482
当下	-10.9482
糖尿病	-10.9483
差不多	-10.9486
种族	-10.9487
av	-10.9488
常见	-10.9488
的其他	-10.949
遵	-10.949
产生了	-10.9491
观测	-10.9493
第一名	-10.9495
颁布	-10.9497
晕	-10.9499
的重要性	-10.9499
护照	-10.95
发表的	-10.95
连任	-10.95
赋予	-10.9503
陌生	-10.9503
用水	-10.9504
在去年	-10.9504
车上	-10.9505
部分地区	-10.9506
队友	-10.9506
给大家	-10.9509
打出	-10.9509
但仍	-10.9511
超出	-10.9512
只需	-10.9513
出门	-10.9514
不排除	-10.9515
亲民党	-10.9516
时光	-10.9517
并表示	-10.9518
只好	-10.9518
挪威	-10.9519
夸	-10.9521
搜救	-10.9521
经济学	-10.9525
end	-10.9525
lu	-10.9528
妥善	-10.9532
开发区	-10.9532
到场	-10.9534
尴尬	-10.9536
周五	-10.9536
▁面对	-10.954
尸体	-10.9541
忽	-10.9543
抓好	-10.9544
占地	-10.9553
并与	-10.9553
新一代	-10.9554
sa	-10.956
和中国	-10.9563
的局面	-10.9565
的传统	-10.9565
一所	-10.9566
在其	-10.9567
月至	-10.9567
火爆	-10.9568
炳	-10.9568
家居	-10.9569
贯彻落实	-10.9569
▁五至六阵风八级	-10.9575
要做	-10.9577
法务部	-10.9578
质询	-10.9579
但因	-10.958
就是要	-10.9581
招待	-10.9582
的活动	-10.9584
温馨	-10.9584
惟	-10.9585
几次	-10.9585
服用	-10.9586
等到	-10.9589
剧院	-10.9597
奇迹	-10.9599
次数	-10.9601
卫生局	-10.9601
爱好者	-10.9606
差别	-10.9607
正规	-10.9608
巡视	-10.961
◆	-10.9612
关联	-10.9612
其他国家	-10.9614
精致	-10.9615
奖牌	-10.9616
uc	-10.9617
抱怨	-10.9618
代价	-10.9618
络	-10.9618
淋	-10.9619
辉煌	-10.962
风水	-10.962
热闹	-10.9621
比亚	-10.9622
本国	-10.9622
让她	-10.9628
浸	-10.9629
便是	-10.963
开业	-10.9634
但却	-10.9635
终身	-10.9636
住了	-10.9644
产权	-10.9645
数千	-10.9645
▁由	-10.9645
▁2003	-10.9646
防护	-10.9647
斩	-10.9648
检察	-10.9649
洽	-10.965
hu	-10.965
失望	-10.9652
腕	-10.9652
边缘	-10.9652
城市的	-10.9654
邹	-10.9655
在网上	-10.9656
无关	-10.9658
法令	-10.9661
羽毛球	-10.9663
新西兰	-10.9669
石家庄	-10.9669
阮	-10.967
新人	-10.9671
槽	-10.9673
民主进步党	-10.9674
痘	-10.9676
过去的	-10.9678
活动中	-10.9678
天使	-10.9678
增长率	-10.968
九百	-10.9681
殷	-10.9683
会被	-10.9684
生育	-10.9685
预约	-10.9686
仗	-10.9686
跨越	-10.9686
靠近	-10.9688
▁De	-10.9693
凸显	-10.9694
交叉	-10.9695
铸	-10.9696
高新技术	-10.9697
行车	-10.9697
开办	-10.9698
弹性	-10.97
价值观	-10.9701
的法律	-10.9702
外籍	-10.9703
赶到	-10.9705
十五日	-10.9707
大于	-10.9709
上映	-10.971
就职	-10.9711
出于	-10.9711
整改	-10.9716
在京	-10.9719
房贷	-10.9723
美国经济	-10.9726
介绍了	-10.9727
一句话	-10.9727
回教	-10.9728
开创	-10.973
新股	-10.9732
与此同时	-10.9733
确立	-10.9734
外国人	-10.9734
短短	-10.9735
体育场	-10.9735
依托	-10.9736
tor	-10.9738
李鹏	-10.9739
必须要	-10.9739
公开赛	-10.9739
可持续发展	-10.974
公布了	-10.974
送往	-10.9743
蕴	-10.9747
社保	-10.9747
那时	-10.9747
每个人	-10.9749
急救	-10.975
首发	-10.9753
祝福	-10.9755
事物	-10.9755
眼前	-10.9759
安定	-10.976
斐	-10.9762
1986	-10.9762
接获	-10.9763
▁人民网	-10.9764
惊喜	-10.9764
低迷	-10.9766
入侵	-10.9766
刊登	-10.9768
钙	-10.9774
储蓄	-10.9775
▁事实上	-10.9778
▁南	-10.978
暴露	-10.9783
还未	-10.9787
蛋白质	-10.979
CEO	-10.979
著作	-10.9791
总共	-10.9793
醇	-10.9794
县城	-10.9796
总计	-10.9798
何时	-10.98
阵雨	-10.9801
特性	-10.9802
建筑物	-10.9803
窑	-10.9805
非常重要	-10.9806
我说	-10.9808
仅为	-10.981
完整的	-10.981
二十二	-10.9817
起飞	-10.9818
克尔	-10.982
工作中	-10.9824
诉求	-10.9824
特色的	-10.9827
判处	-10.9828
新一轮	-10.9828
农场	-10.9833
的身份	-10.9835
PA	-10.9837
手动	-10.9837
中毒	-10.9838
眼镜	-10.9838
可在	-10.9838
101	-10.9838
月以来	-10.9843
推出了	-10.9843
握	-10.9844
大幅度	-10.9844
疼痛	-10.9845
立案	-10.9846
同行	-10.9847
既有	-10.9847
要素	-10.9852
彼	-10.9854
不受	-10.9854
170	-10.9856
联想	-10.9859
百分之四十	-10.9859
全球经济	-10.9861
面包	-10.9861
节省	-10.9863
全国政协	-10.9863
堪	-10.9864
条件下	-10.9867
阴局部阵雨	-10.9867
tw	-10.9868
共同努力	-10.9871
EN	-10.9873
局副局长	-10.9873
角逐	-10.9875
懒	-10.9876
布朗	-10.9877
了不少	-10.9878
卜	-10.9879
誓	-10.988
整顿	-10.9881
当晚	-10.9883
五点	-10.9885
视野	-10.9886
走访	-10.9887
淹	-10.9887
大致	-10.9888
均衡	-10.9888
雷斯	-10.9893
巴拉	-10.9894
在一个	-10.9895
一再	-10.9896
万元的	-10.9897
的行动	-10.9899
光明	-10.99
与台湾	-10.9901
为主的	-10.9902
DA	-10.9903
虚假	-10.9903
希拉里	-10.9906
细菌	-10.9908
比率	-10.9914
厨	-10.9914
北大	-10.9914
狄	-10.9917
全新的	-10.9918
澄清	-10.992
匪	-10.9921
气体	-10.9923
渐渐	-10.9923
窄	-10.9923
七日	-10.9924
麦克	-10.9925
三分	-10.9926
的那	-10.9927
的任务	-10.9928
炫	-10.9929
秉	-10.993
宝马	-10.9931
分公司	-10.9937
中信	-10.9938
进了	-10.9939
珍贵	-10.9946
借鉴	-10.9946
在台北	-10.9946
他希望	-10.9948
就没有	-10.9948
其次	-10.9955
▁近年来	-10.9956
制订	-10.9959
的意义	-10.9959
你就	-10.996
导向	-10.996
▁按照	-10.9961
宣言	-10.9963
供电	-10.9966
金融市场	-10.9967
重返	-10.9968
商会	-10.9971
经济体	-10.9972
上游	-10.9972
办案	-10.9975
ov	-10.9977
斯塔	-10.9978
л	-10.9979
族群	-10.9979
抗震救灾	-10.998
食品安全	-10.9982
秘鲁	-10.9984
指挥部	-10.9984
的各种	-10.9986
BO	-10.9989
▁多云时阴	-10.9992
公分	-10.9994
用电	-10.9994
软体	-10.9994
缠	-10.9995
社会保障	-11
崩	-11.0004
ク	-11.0005
的功能	-11.0008
则表示	-11.0011
的儿子	-11.0012
т	-11.0012
总人口	-11.0013
宾馆	-11.0014
ind	-11.0015
1984	-11.0015
▁良	-11.0019
外交部长	-11.002
外面	-11.0022
进去	-11.0025
SI	-11.0026
扎实	-11.0026
炒作	-11.0028
组委会	-11.0029
削减	-11.0029
秋季	-11.0029
哥哥	-11.0031
协同	-11.0036
你可以	-11.0037
弦	-11.0037
2.2	-11.0038
行政区划	-11.0039
俱	-11.0041
弥	-11.0042
塌	-11.0043
删除	-11.0046
大雨	-11.0046
军官	-11.0046
提问	-11.0046
附属	-11.0046
套房	-11.0048
货运	-11.005
条文	-11.005
ru	-11.0051
较高的	-11.0053
了自己的	-11.0058
基金合同	-11.0061
蔓延	-11.0063
Al	-11.0065
不清楚	-11.0068
▁Pro	-11.007
演说	-11.0072
▁Mo	-11.0074
委内瑞拉	-11.0075
省长	-11.0075
富豪	-11.0075
仍未	-11.0077
娟	-11.0077
▁t	-11.0079
杠杆	-11.0081
国会议员	-11.0083
公安部	-11.0084
蛮	-11.0086
▁↓	-11.0086
合成	-11.0092
发病	-11.0094
清洗	-11.0095
那就	-11.0097
19.	-11.01
冬天	-11.01
ast	-11.0105
间接	-11.0108
寮	-11.0109
九点	-11.0109
引起了	-11.011
受贿	-11.0111
别墅	-11.0115
的建议	-11.0115
耐心	-11.0115
筋	-11.0115
密码	-11.0116
办事	-11.0117
职棒	-11.0117
备案	-11.0118
下属	-11.012
立体	-11.013
LO	-11.0131
so	-11.0131
幽	-11.0134
涨停	-11.0135
到现在	-11.0137
我们在	-11.0138
评级	-11.0139
市中心	-11.014
场合	-11.0144
今年上半年	-11.0146
▁Y	-11.0146
身亡	-11.0149
月台	-11.0153
文献	-11.0154
伐	-11.0154
不止	-11.0156
下一步	-11.0156
和美国	-11.016
掉了	-11.0162
▁2011	-11.0163
亚运会	-11.0163
祝贺	-11.0164
绩效	-11.0166
国军	-11.0166
电气	-11.0167
的思想	-11.0168
官员说	-11.017
日子	-11.017
神奇	-11.0171
开辟	-11.0172
器官	-11.0174
ib	-11.0175
淡水	-11.0175
呵	-11.0175
演练	-11.0176
用了	-11.0176
▁德国	-11.0178
当今	-11.0179
笔试	-11.0179
大火	-11.018
六点	-11.0184
水域	-11.0185
价位	-11.0186
过剩	-11.0187
桐	-11.0188
傻	-11.0188
沙特	-11.0189
躲	-11.019
1200	-11.019
商人	-11.0191
▲	-11.0191
当你	-11.0194
又称	-11.0203
投放	-11.0209
联手	-11.0214
抄	-11.0216
稳健	-11.0217
总投资	-11.0219
重庆市	-11.0221
350	-11.0222
总统大选	-11.0222
本报记者	-11.0223
雷达	-11.0223
完毕	-11.0223
出炉	-11.0226
随之	-11.0226
安徽省	-11.0228
三级	-11.0231
取缔	-11.0235
捧	-11.0237
处在	-11.0238
燃烧	-11.0239
乌鲁木齐	-11.0239
度过	-11.0241
我省	-11.0242
赤字	-11.0243
喻	-11.0245
主办单位	-11.0245
使馆	-11.0247
省委	-11.0249
攀升	-11.025
央视	-11.0251
侵权	-11.0257
将被	-11.0258
平民	-11.026
互利	-11.0261
一贯	-11.0262
概率	-11.0263
模范	-11.0265
供应商	-11.0266
使其	-11.027
枣	-11.027
奠定	-11.0272
牛奶	-11.0278
2.3	-11.028
亲子	-11.028
遏制	-11.028
画家	-11.0281
受访者	-11.0283
橘	-11.0285
是否会	-11.0286
传闻	-11.0288
4.5	-11.029
发票	-11.029
灾情	-11.0291
大厅	-11.0292
证监会	-11.0294
灾民	-11.0294
太太	-11.0298
摩托车	-11.0298
公交车	-11.0299
台独	-11.031
草原	-11.031
:3	-11.0311
选择了	-11.0312
庸	-11.0313
公示	-11.0313
mon	-11.0316
NO	-11.0316
三分之一	-11.0318
遵循	-11.0319
励	-11.0321
来临	-11.0323
br	-11.0324
▁5.	-11.0326
奔驰	-11.0326
▁Ar	-11.0329
为其	-11.0332
-7	-11.0336
上学	-11.0338
会不会	-11.034
谷歌	-11.034
视察	-11.0344
对美国	-11.0345
云南省	-11.0348
叛	-11.0349
内饰	-11.0349
ISBN	-11.0349
穿越	-11.0349
成立于	-11.0351
出席了	-11.0351
下令	-11.0351
逛	-11.0352
放大	-11.0353
看似	-11.0353
较强	-11.0356
pp	-11.0357
的女人	-11.0359
前夕	-11.0362
先进的	-11.0363
厘	-11.0369
疯	-11.0372
银行业	-11.0373
而被	-11.0373
每股	-11.0376
日军	-11.0376
欧巴马	-11.0378
进军	-11.0379
▁最近	-11.0384
旧金山	-11.0386
经济社会发展	-11.0386
妹妹	-11.0386
男生	-11.0387
骏	-11.0388
主办的	-11.0388
做为	-11.039
找到了	-11.039
全线	-11.0392
的食物	-11.0395
老年	-11.0396
酿	-11.0396
应邀	-11.0396
客家	-11.0397
宝贝	-11.0398
厕所	-11.0398
孕妇	-11.04
塞尔维亚	-11.04
原理	-11.04
大胆	-11.0401
累积	-11.0402
长度	-11.0406
椅	-11.0407
▁如	-11.0408
淘	-11.0409
合理的	-11.0409
的成功	-11.041
百分之五十	-11.0411
注意到	-11.0415
砲	-11.0417
外来	-11.0422
制约	-11.0423
体育馆	-11.0423
渣	-11.0423
登录	-11.0426
芽	-11.0427
斯克	-11.0429
进士	-11.0433
抵抗	-11.0434
脸上	-11.0435
排队	-11.0437
其实是	-11.0445
在场	-11.0445
骨干	-11.0445
分泌	-11.0445
代替	-11.0447
公立	-11.0447
沧	-11.0449
天堂	-11.0449
电动车	-11.0451
战绩	-11.0451
的贡献	-11.0452
按摩	-11.0452
师范大学	-11.0453
致使	-11.0455
si	-11.0457
莹	-11.0459
参议院	-11.0459
大城市	-11.046
荣获	-11.0465
近年	-11.047
提起	-11.047
处长	-11.0472
不安	-11.0477
数位	-11.0478
ga	-11.048
婉	-11.0487
首尔	-11.0489
拘留	-11.0492
绣	-11.0494
不符合	-11.0495
书中	-11.0495
拦	-11.0497
庞	-11.0499
路边	-11.0501
自身的	-11.0502
书画	-11.0503
安理会	-11.0509
不高	-11.051
北京时间	-11.0512
毫不	-11.0514
ial	-11.0515
福特	-11.0519
排行榜	-11.052
9%。	-11.052
NA	-11.0523
HO	-11.0524
进驻	-11.0527
ide	-11.0529
前总统	-11.0534
上任	-11.0536
han	-11.0536
我市	-11.0536
杀害	-11.0537
清水	-11.0538
芯片	-11.0539
七点	-11.054
全长	-11.0544
仑	-11.0544
演奏	-11.0546
监督管理	-11.0547
青睐	-11.0551
天地	-11.0552
大阪	-11.0555
殊	-11.0555
湖北省	-11.0555
像是	-11.0556
意识到	-11.0557
签名	-11.0558
ke	-11.056
匠	-11.0563
生态环境	-11.0564
桩	-11.0567
起步	-11.0569
男友	-11.0572
等因素	-11.0572
机动	-11.0574
想法	-11.0575
给人	-11.0576
全县	-11.0577
茫	-11.0577
聚焦	-11.0579
均价	-11.0579
台南县	-11.0584
的最新	-11.0584
全国各地	-11.0589
佛山	-11.0589
投机	-11.059
━	-11.059
痕	-11.0591
出生于	-11.0591
所有人	-11.0594
风情	-11.0594
国营	-11.0597
租金	-11.0601
实习	-11.0601
菱	-11.0603
所在地	-11.0603
圣诞	-11.0609
ome	-11.061
人寿	-11.061
业内	-11.061
的土地	-11.0612
经由	-11.0612
蝶	-11.0613
倡导	-11.0616
匹配	-11.0617
大地震	-11.0618
解析	-11.062
藩	-11.0624
走到	-11.0624
民俗	-11.063
优雅	-11.063
亲切	-11.0631
出动	-11.0631
教训	-11.0632
台北市长	-11.0632
黑龙江	-11.0632
甄	-11.0633
潜艇	-11.0635
场馆	-11.0638
得主	-11.0638
普京	-11.0639
材质	-11.064
之地	-11.0646
欢乐	-11.0648
美丽的	-11.0655
RA	-11.0656
fe	-11.0656
ary	-11.066
记者采访时	-11.066
市镇	-11.066
渝	-11.0664
欺	-11.0665
办学	-11.0666
动漫	-11.0668
早餐	-11.067
除非	-11.0671
生于	-11.0671
撑	-11.0673
以内	-11.0675
院士	-11.0678
▁曾	-11.068
时期的	-11.0681
Cl	-11.0681
沿线	-11.0682
万亿	-11.0683
日内	-11.0684
坚强	-11.0686
▁朱	-11.0691
一向	-11.0691
如果不	-11.0694
参议员	-11.0695
愁	-11.07
吁	-11.07
剩余	-11.07
港股	-11.0703
国道	-11.0707
首付	-11.0707
扫描	-11.071
快速发展	-11.0713
移植	-11.0713
▁与此同时	-11.0714
恐怖主义	-11.0714
尼克	-11.0716
意图	-11.0717
收录	-11.0718
巫	-11.0718
调动	-11.0719
胞	-11.072
烦	-11.072
南极	-11.0721
头部	-11.0722
兑换	-11.0723
恶劣	-11.0724
浑	-11.0725
就被	-11.0726
导师	-11.0729
负面	-11.0731
惑	-11.0731
火山	-11.0734
▁大陆	-11.0736
先前	-11.0736
渔民	-11.074
两市	-11.074
邻居	-11.074
乐园	-11.074
等方式	-11.0741
远离	-11.0741
的心理	-11.0742
不行	-11.0743
了许多	-11.0745
世界各地	-11.0746
万个	-11.0746
▁参考	-11.0748
し	-11.075
赐	-11.0751
阻力	-11.0752
ae	-11.0752
抢险	-11.0754
ッ	-11.0758
广阔	-11.0759
很强	-11.076
矩	-11.076
环保局	-11.0761
讯息	-11.0762
个交易日	-11.0765
下车	-11.0766
咽	-11.0766
来访	-11.0767
截至目前	-11.0767
自称	-11.0768
are	-11.0768
暑	-11.077
四名	-11.077
尽速	-11.0772
布鲁	-11.0774
中央政府	-11.0774
这里的	-11.0775
护士	-11.0775
MP	-11.0775
汇报	-11.0775
SE	-11.0777
两侧	-11.0778
山西省	-11.0779
肢	-11.0781
独家	-11.0782
淫	-11.0783
幼儿	-11.0783
垦	-11.0784
教室	-11.0785
副秘书长	-11.0786
二十一	-11.0788
贼	-11.0788
双重	-11.0789
预案	-11.0793
▁罗	-11.0793
调解	-11.0796
▁他指出	-11.0796
都知道	-11.0797
畜	-11.0797
各部门	-11.08
代言	-11.0801
都没	-11.0801
天空	-11.0803
气象局	-11.0805
厉害	-11.0805
两周	-11.0805
个案	-11.0807
———	-11.0808
磅	-11.0808
珠宝	-11.0808
运送	-11.0809
被人	-11.0809
八日	-11.0809
人力资源	-11.081
▁Z	-11.0811
睿	-11.0811
主任委员	-11.0812
跑步	-11.0814
送给	-11.0814
3.0	-11.0816
铅	-11.0817
表情	-11.0819
驾车	-11.0825
可惜	-11.0828
▁徐	-11.0829
表彰	-11.0829
陀	-11.083
允	-11.0834
惹	-11.0834
朝阳	-11.0835
与发展	-11.0836
历经	-11.0836
证件	-11.0838
升至	-11.084
台南市	-11.0841
遗体	-11.0842
募集资金	-11.0843
袖	-11.0846
纬	-11.0846
建交	-11.0847
太阳能	-11.085
芝加哥	-11.0854
二十三	-11.0854
翡翠	-11.0857
坦克	-11.0857
基金份额	-11.0858
躁	-11.0858
新城	-11.0858
不仅仅是	-11.0858
姐姐	-11.0859
的股票	-11.0862
的时代	-11.0862
▁通过	-11.0864
猪肉	-11.0864
剖	-11.0865
强烈的	-11.0867
健康发展	-11.0871
存储	-11.0877
吸烟	-11.0879
纤	-11.0879
漠	-11.088
日本政府	-11.0883
相关负责人	-11.0885
巨额	-11.0887
激素	-11.0889
集成	-11.0892
傲	-11.0895
105	-11.0898
挣	-11.09
没有什么	-11.0901
ens	-11.0905
TE	-11.0909
录音	-11.0909
澜	-11.0914
大涨	-11.0914
初选	-11.0916
一举	-11.0918
战斗机	-11.0919
bi	-11.0922
有一种	-11.0923
持平	-11.0926
增至	-11.0926
清华大学	-11.0927
频频	-11.0929
姐妹	-11.0929
演艺	-11.093
海地	-11.093
饶	-11.0933
委副书记	-11.0933
沙漠	-11.0934
工地	-11.0937
让自己	-11.094
家企业	-11.0941
召回	-11.0944
▁经	-11.0947
▁外部链接	-11.0947
▁IBM	-11.0949
我们将	-11.0951
改制	-11.0952
1982	-11.0954
作为一个	-11.0956
合作伙伴	-11.0956
原子	-11.0957
马尔	-11.0957
众议院	-11.096
越野	-11.096
体操	-11.0961
奶奶	-11.0962
灵魂	-11.0962
绘画	-11.0963
发掘	-11.0963
为自己	-11.0965
频率	-11.0965
里亚	-11.0965
轻易	-11.0967
印刷	-11.0968
1.9	-11.0968
人质	-11.0968
盲目	-11.0971
导航	-11.0972
在大陆	-11.0973
车内	-11.0975
税率	-11.0977
贵阳	-11.0978
ah	-11.0979
▁阴天	-11.0981
性别	-11.0982
厢	-11.0986
▁X	-11.0987
一组	-11.099
全球化	-11.099
预备	-11.0994
ace	-11.0994
舒服	-11.0994
三项	-11.0996
亿美元的	-11.0997
绩	-11.1
新华社记者	-11.1
做得	-11.1001
弘扬	-11.1002
接见	-11.1004
清除	-11.1004
瓦尔	-11.1004
少量	-11.1005
复习	-11.1005
化妆	-11.1008
RE	-11.1008
杉	-11.1009
个多月	-11.101
iz	-11.1011
事先	-11.1011
难道	-11.1013
谢谢	-11.1013
洽谈	-11.1014
愤	-11.1014
一个中国	-11.1015
阴局部雨	-11.1017
收于	-11.1017
供水	-11.102
要么	-11.102
债权	-11.1021
丧失	-11.1024
现车	-11.1024
su	-11.1027
你要	-11.1028
不合格	-11.1028
的议案	-11.1033
必将	-11.1033
巴格达	-11.1034
仕	-11.1038
的观点	-11.1039
芒	-11.1039
缺陷	-11.1042
▁台	-11.1043
▁20%	-11.1043
便捷	-11.1044
此案	-11.1045
多头	-11.1045
毕业后	-11.1046
虐	-11.1049
豹	-11.1049
商机	-11.105
交付	-11.105
平常	-11.1052
庚	-11.1056
瘾	-11.1058
图案	-11.1059
国旗	-11.106
不适	-11.1062
阿拉	-11.1066
清朝	-11.1068
春季	-11.107
作出了	-11.107
▁而在	-11.107
高管	-11.1072
回购	-11.1074
九日	-11.1076
太平	-11.108
网页	-11.108
详情	-11.1081
深深	-11.1082
受到了	-11.1082
=1	-11.1082
陕西省	-11.1085
俄国	-11.1088
运营商	-11.1096
为由	-11.1097
▁于是	-11.1099
不妨	-11.11
小镇	-11.1106
口号	-11.1109
运转	-11.111
不管是	-11.111
龚	-11.1113
较快	-11.1113
宗旨	-11.1114
高压	-11.1119
商品房	-11.1119
原来的	-11.112
上来	-11.112
寿命	-11.1121
钢琴	-11.1123
不便	-11.1123
结果显示	-11.1129
的各项	-11.113
船只	-11.1131
克里斯	-11.1133
超过了	-11.1133
▁Ro	-11.1135
孔子	-11.1138
▁中华民国	-11.1139
ance	-11.1141
万亿元	-11.1142
概	-11.1142
复杂的	-11.1145
小学生	-11.1148
万户	-11.1148
二十六	-11.1149
辱	-11.115
流传	-11.1151
交通事故	-11.1152
橙	-11.1152
市场化	-11.1156
乒乓球	-11.1159
扩建	-11.116
报告期内	-11.1162
二号	-11.1162
姚明	-11.1164
旦	-11.1164
入围	-11.1165
得多	-11.1165
年纪	-11.1165
科学发展观	-11.1169
▁国际	-11.1171
华南	-11.1173
是一位	-11.1174
彻	-11.1176
姑	-11.1178
弥补	-11.1179
瞻	-11.1179
碱	-11.118
新三板	-11.1181
分布于	-11.1182
谎	-11.1182
双手	-11.1183
慢性	-11.1184
械	-11.1184
硅	-11.1185
中国特色社会主义	-11.1185
尽可能	-11.1185
殖民	-11.1185
船员	-11.1185
纠正	-11.1186
前途	-11.1186
循	-11.1186
为基础	-11.1187
0%	-11.1188
内外	-11.1188
创业者	-11.119
销售额	-11.1191
资质	-11.1191
被视为	-11.1192
一律	-11.1194
框	-11.1196
其中有	-11.1197
庞大	-11.1197
委员会主席	-11.1198
祸	-11.1199
访华	-11.1202
湛	-11.121
line	-11.1212
掀起	-11.1215
飞行员	-11.1217
扣除	-11.122
和解	-11.1222
钓	-11.1224
宝贵	-11.1226
恐惧	-11.1228
看待	-11.1228
子弹	-11.1231
昏	-11.1231
霖	-11.1232
罗马尼亚	-11.1232
上级	-11.1233
住宿	-11.1233
加重	-11.1233
物种	-11.1234
综	-11.1235
旗舰	-11.1235
颂	-11.1235
荆	-11.1235
杭	-11.1236
比去年	-11.1238
硫	-11.1242
基督教	-11.1244
指南	-11.1246
地域	-11.1247
六个	-11.1249
莱斯	-11.125
追踪	-11.125
总统选举	-11.1251
拉动	-11.1251
的主题	-11.1252
给自己	-11.1253
音乐会	-11.1253
煎	-11.1254
宠	-11.1255
到处	-11.1256
校友	-11.1259
有多少	-11.126
收回	-11.1261
占有	-11.1262
低调	-11.1264
风光	-11.1267
ki	-11.1271
7000	-11.1273
跟随	-11.1273
达成协议	-11.1277
登山	-11.1277
有过	-11.128
les	-11.1281
会议室	-11.1285
台北市政府	-11.1287
世界纪录	-11.1288
枯	-11.1288
的母亲	-11.1289
▁多云局部雨	-11.1291
语音	-11.1292
▁后来	-11.1293
北京大学	-11.1297
花莲县	-11.1299
农委会	-11.13
的根本	-11.1301
nc	-11.1302
客场	-11.1302
影响到	-11.1304
醋	-11.1304
喉	-11.1306
汶川	-11.1307
2.8	-11.1312
▁小浪至中浪	-11.1312
校区	-11.1313
в	-11.1314
we	-11.1316
正好	-11.1317
解散	-11.1317
茶叶	-11.1321
崖	-11.1322
减弱	-11.1323
冒险	-11.1325
对策	-11.1326
髓	-11.1326
天文	-11.1326
全国人大	-11.1327
下列	-11.1329
国民经济	-11.133
宣告	-11.1333
翰	-11.1334
十八日	-11.1335
钻石	-11.1337
希尔	-11.1338
前锋	-11.1342
1983	-11.1343
社会各界	-11.1344
新能源汽车	-11.1346
处理器	-11.1347
甫	-11.1347
2021	-11.1349
侍	-11.1349
108	-11.1352
华府	-11.1353
纱	-11.1353
▁Al	-11.1357
注射	-11.1358
一百五十	-11.136
召集	-11.1362
假如	-11.1362
历程	-11.1365
葡萄酒	-11.1365
▁An	-11.1365
歹徒	-11.1367
被认为是	-11.1369
嫌疑人	-11.1373
去做	-11.1374
奶粉	-11.1375
一枚	-11.1376
有限责任公司	-11.1376
给孩子	-11.1376
朋友们	-11.138
救护	-11.1384
Ma	-11.1384
武术	-11.1387
有钱	-11.1388
巴尔	-11.1391
SP	-11.1394
就已经	-11.1395
遣	-11.1398
这笔	-11.1398
好评	-11.1399
冰箱	-11.1402
租房	-11.1402
▁ga	-11.1406
肤	-11.1407
党主席	-11.1408
今天报导	-11.1409
那么多	-11.1413
绒	-11.1413
制定了	-11.1414
集合	-11.1416
席位	-11.1419
浦东	-11.1419
明朝	-11.1422
十一日	-11.1424
ey	-11.1425
会见了	-11.1428
NG	-11.1428
辟	-11.1428
析	-11.143
合适的	-11.1431
正如	-11.1432
副总裁	-11.1432
枫	-11.1432
标志着	-11.1432
忽略	-11.1434
终场	-11.1436
显现	-11.1441
被害人	-11.1444
出演	-11.1446
党派	-11.1446
下发	-11.1447
高点	-11.1447
修宪	-11.1448
古典	-11.1451
篮板	-11.1456
店铺	-11.1457
新政府	-11.1457
武力	-11.1458
鲜明	-11.1459
port	-11.1461
乐视	-11.1461
签署了	-11.1463
位居	-11.1463
专科	-11.1464
警惕	-11.1466
ん	-11.1466
增值	-11.1466
水源	-11.1467
适度	-11.1468
会导致	-11.1473
SS	-11.1473
宏观	-11.1474
是一名	-11.1477
十九日	-11.1477
曝	-11.1479
落户	-11.148
魁	-11.1481
冶	-11.1484
四季	-11.1484
向记者	-11.1486
擅长	-11.1486
付款	-11.1487
可以看到	-11.1491
MO	-11.1492
人民日报	-11.1495
措	-11.1495
所致	-11.1496
生动	-11.1497
路面	-11.15
1978	-11.1502
核查	-11.1504
各省	-11.1505
天津市	-11.151
向下	-11.1513
集团公司	-11.1513
ka	-11.1514
脱贫	-11.1515
仪器	-11.1515
位于该国	-11.1516
无需	-11.1517
对台	-11.1517
扔	-11.1517
か	-11.1517
冻结	-11.1517
微笑	-11.1519
NE	-11.152
塞尔	-11.1521
属性	-11.1521
地带	-11.1524
刘翔	-11.1524
中俄	-11.1529
吸引力	-11.1529
目光	-11.153
借此	-11.1532
多达	-11.1536
な	-11.1537
这种情况	-11.1538
规格	-11.154
结构调整	-11.1541
萎缩	-11.1541
私立	-11.1542
瑶	-11.1542
某个	-11.1544
世锦赛	-11.1544
雯	-11.1546
违法行为	-11.1546
告别	-11.1547
资产管理	-11.1547
针对性	-11.1547
的话说	-11.1548
在那里	-11.1549
精选	-11.1549
氢	-11.1551
等国	-11.1551
仿佛	-11.1557
ys	-11.1558
千年	-11.1565
薪酬	-11.1565
半导体	-11.1566
佑	-11.1567
开展了	-11.1567
红包	-11.1568
深夜	-11.1571
某某	-11.1572
深受	-11.1572
实业	-11.1573
极其	-11.1576
主教	-11.1579
中国证监会	-11.158
工作会议	-11.1582
放缓	-11.1585
除此之外	-11.1586
养成	-11.1587
栖	-11.1587
河流	-11.1591
致富	-11.1592
摄氏	-11.1593
2.7	-11.1593
化石	-11.1594
露出	-11.1596
股指	-11.1599
解决了	-11.1599
立足	-11.16
世界各国	-11.1601
气息	-11.1601
细则	-11.1603
引用	-11.1604
密度	-11.1605
清新	-11.1605
安全生产	-11.1606
四人	-11.1608
契机	-11.1608
粥	-11.161
吵	-11.1612
米尔	-11.1612
土壤	-11.1614
元首	-11.1616
岁以上	-11.1618
步行	-11.162
失去了	-11.162
珍惜	-11.1622
II	-11.1623
暗示	-11.1626
已经开始	-11.1629
时起至	-11.1635
器材	-11.1635
并向	-11.1635
阿布	-11.1636
land	-11.1637
意向	-11.1638
玫瑰	-11.1638
增加到	-11.1638
参见	-11.1639
降温	-11.1639
余名	-11.1641
Note	-11.1642
是谁	-11.1643
2.1	-11.1646
王朝	-11.1646
sc	-11.1649
的真实	-11.1649
不一定	-11.1653
第一届	-11.1654
怎么样	-11.1654
▁n	-11.1654
相处	-11.1657
许可证	-11.1659
公务	-11.1663
个城市	-11.1663
沪深	-11.1666
Par	-11.1669
老虎	-11.1669
阻碍	-11.167
信念	-11.167
一看	-11.1673
勇气	-11.1676
PE	-11.1679
og	-11.1679
搏	-11.1681
移交	-11.1682
学费	-11.1683
担当	-11.1686
违纪	-11.1686
第三届	-11.1687
一股	-11.1688
我们就	-11.1691
膀	-11.1692
CPI	-11.1693
般的	-11.1694
总署	-11.1695
稳步	-11.1697
额外	-11.1698
办公厅	-11.1699
-15	-11.1701
亚太地区	-11.1702
vo	-11.1703
水质	-11.1704
隐患	-11.1709
传统文化	-11.1712
た	-11.1715
行走	-11.1715
郝	-11.1716
飙	-11.1717
ain	-11.1719
之道	-11.1721
战后	-11.1722
的比赛中	-11.1722
台东	-11.1724
这样一个	-11.1727
撕	-11.1729
讲解	-11.1731
封锁	-11.1734
谣	-11.1734
图像	-11.1734
如果没有	-11.1735
总队	-11.1736
反馈	-11.1738
ock	-11.1739
压缩	-11.174
政府部门	-11.1742
平面	-11.1744
英寸	-11.1745
业余	-11.1747
检察院	-11.175
相较	-11.175
浏览	-11.1755
标签	-11.1756
吕秀莲	-11.1756
樱	-11.1757
狮子	-11.1758
在当地	-11.1759
岁以下	-11.1759
科学技术	-11.1761
二十日	-11.1761
ron	-11.1762
嘉义县	-11.1763
救治	-11.1764
政法	-11.1764
Car	-11.1765
用心	-11.1765
辽宁省	-11.1766
高手	-11.1766
小麦	-11.1767
生理	-11.1767
唐山	-11.1767
25%	-11.1767
十六日	-11.1767
撰	-11.1767
平静	-11.1769
In	-11.1769
▁Le	-11.1771
顺序	-11.1771
自愿	-11.1772
歧视	-11.1773
无力	-11.1773
职员	-11.1774
走过	-11.1774
十四日	-11.1774
0.00	-11.178
分手	-11.178
服务器	-11.1782
匿	-11.1783
之上	-11.1786
骚	-11.1786
Wi	-11.1788
募集	-11.1788
出具	-11.1789
调查局	-11.1789
记住	-11.1789
中药	-11.179
str	-11.179
周二	-11.179
召集人	-11.1793
马德里	-11.1795
还说	-11.1795
终点	-11.1797
合适	-11.1797
的形象	-11.1799
受害者	-11.1802
十万	-11.1813
理事长	-11.1813
包机	-11.1814
款项	-11.1814
僵	-11.1816
个省	-11.1818
副市长	-11.1819
迫使	-11.1819
埃尔	-11.1822
南投县	-11.1822
富士	-11.1823
有效时间	-11.1824
十二日	-11.1824
二十七	-11.1828
扯	-11.1828
号召	-11.183
为准	-11.183
台电	-11.1832
蜡	-11.1833
九龙	-11.1835
出面	-11.1836
上行	-11.1836
移送	-11.1836
上台	-11.1837
纪念馆	-11.1837
结束了	-11.1838
德尔	-11.1838
缴费	-11.1838
有一定的	-11.1838
疲	-11.1839
诺夫	-11.1839
申办	-11.1844
有益	-11.1844
秋天	-11.1845
不顾	-11.1846
副总经理	-11.1846
找不到	-11.1846
消毒	-11.1847
宠物	-11.1851
锤	-11.1852
女王	-11.1852
邻近	-11.1856
还包括	-11.1856
造成了	-11.1858
马祖	-11.186
万科	-11.1862
长久	-11.1866
会面	-11.1867
5.5	-11.1867
苗栗	-11.1868
震惊	-11.187
南斯拉夫	-11.187
Re	-11.1871
ica	-11.1873
时速	-11.1873
─	-11.1873
尼尔	-11.1876
将进一步	-11.1876
中原	-11.1881
新闻局	-11.1881
ick	-11.1882
旗帜	-11.1883
颁	-11.1885
海啸	-11.1886
iv	-11.1888
游览	-11.1892
DI	-11.1893
肚	-11.1894
相同的	-11.1894
半决赛	-11.1897
领导小组	-11.1898
不怕	-11.19
约旦	-11.1901
跌破	-11.1902
报案	-11.1905
月下旬	-11.1906
礁	-11.1906
自来水	-11.1909
有哪些	-11.1909
侨胞	-11.191
1979	-11.1911
之战	-11.1912
一轮	-11.1913
邮件	-11.1913
▁据报道	-11.1916
该校	-11.1919
曼联	-11.192
二十八	-11.192
不动	-11.1921
票价	-11.1923
魔法	-11.1923
沃尔	-11.1923
行列	-11.1923
ence	-11.1924
高出	-11.1925
三十五	-11.1925
防汛	-11.1926
诈	-11.1928
出手	-11.1929
投资组合	-11.193
可怕	-11.1931
所得税	-11.1931
有一定	-11.1938
突击	-11.1939
保卫	-11.1941
缅	-11.1942
来自于	-11.1942
ata	-11.1943
第一批	-11.1943
;2、	-11.1944
缉	-11.1944
采集	-11.1947
陪伴	-11.195
贬	-11.1952
と	-11.1954
直辖市	-11.1957
警戒	-11.1958
BC	-11.1963
枢纽	-11.1964
闻名	-11.1965
模特	-11.1965
敞	-11.1966
-18	-11.1966
元左右	-11.1967
毕业于	-11.1968
每个人都	-11.1974
当作	-11.1976
org	-11.1978
侃	-11.1978
红利	-11.1978
经贸合作	-11.1978
霉	-11.1978
犹	-11.1979
抑	-11.1981
十七日	-11.1981
赌博	-11.1983
难免	-11.1986
隆重	-11.1988
高潮	-11.1988
羞	-11.1991
炭	-11.1994
也希望	-11.1998
聘请	-11.2002
过高	-11.2006
就可	-11.2006
鲸	-11.2007
本赛季	-11.2007
遇难	-11.2009
损伤	-11.2009
▁偏南风	-11.2009
乏	-11.201
彰	-11.2012
敷	-11.2012
温和	-11.2014
十日	-11.2017
任意	-11.2017
宵	-11.2019
ich	-11.2019
设法	-11.202
新技术	-11.2022
伪造	-11.2022
过敏	-11.2025
的巨大	-11.2026
如有	-11.203
均有	-11.203
倪	-11.2032
mb	-11.2035
取决于	-11.2037
相关规定	-11.2037
TI	-11.2038
十时	-11.204
地方法院	-11.2041
的意思	-11.2044
基金经理	-11.2047
通讯社	-11.2048
衫	-11.2048
惯	-11.2049
诗人	-11.205
有些人	-11.2051
石头	-11.2051
边防	-11.2054
格拉	-11.2055
out	-11.2057
▁30%	-11.2057
得出	-11.2058
专线	-11.206
全区	-11.2062
疑问	-11.2065
钉	-11.2066
卑	-11.2066
身心	-11.2066
ug	-11.2067
上限	-11.2069
水电	-11.207
门店	-11.2071
旅馆	-11.2076
复合	-11.2076
惜	-11.2077
抢劫	-11.2077
演绎	-11.2078
第二季	-11.2079
▁多云短暂阵雨	-11.208
订阅	-11.2082
名誉	-11.2083
编剧	-11.2086
势必	-11.2087
最强	-11.2089
国泰	-11.2089
资料显示	-11.209
眷	-11.209
飞船	-11.2091
-16	-11.2093
铜牌	-11.2093
科威特	-11.2094
px	-11.2094
他指出	-11.2094
手指	-11.2095
有两个	-11.2095
书店	-11.2097
基本面	-11.2098
鹅	-11.2101
副总理	-11.2101
典型的	-11.2102
阶级	-11.2103
民事	-11.2104
回去	-11.2105
拨打	-11.2107
哨	-11.2108
早晨	-11.2109
汉城	-11.2109
全国人大常委会	-11.211
DR	-11.211
裁定	-11.2112
新闻网	-11.2113
沛	-11.2115
缸	-11.2116
ei	-11.212
一艘	-11.2126
非常好	-11.2127
蔡英文	-11.2128
1949	-11.213
报道称	-11.2133
短暂阵雨	-11.2134
市议员	-11.2134
远程	-11.2135
功率	-11.2135
辣椒	-11.2137
东南部	-11.2137
行李	-11.214
总决赛	-11.2141
交通运输	-11.2143
▁Me	-11.2144
保育	-11.2146
中油	-11.2149
特种	-11.2149
掏	-11.2152
彩票	-11.2155
花钱	-11.2155
宰	-11.2155
拉开	-11.2155
不算	-11.2158
一次性	-11.2158
厦	-11.2158
文化交流	-11.2159
十三日	-11.2165
渴望	-11.2165
AS	-11.2165
党组织	-11.2169
座谈	-11.217
总统候选人	-11.2171
随便	-11.2173
趟	-11.2174
次长	-11.2175
之家	-11.2176
宏观经济	-11.218
拿着	-11.2181
我会	-11.2182
警局	-11.2182
ana	-11.2185
藉	-11.2187
称赞	-11.2187
将使	-11.2189
这样做	-11.219
智能手机	-11.2192
遗传	-11.2192
2.6	-11.2194
降幅	-11.22
震撼	-11.2201
预告	-11.2202
全社会	-11.2203
约合	-11.2203
伙伴关系	-11.2205
就医	-11.2205
纠	-11.2207
揭幕	-11.2209
他曾	-11.2209
叫做	-11.2214
两条	-11.2215
高档	-11.2217
ps	-11.2218
储存	-11.2218
卓越	-11.2219
观望	-11.2219
app	-11.222
棍	-11.2223
排水	-11.2226
车展	-11.2231
银牌	-11.2231
消息人士	-11.2233
厌	-11.2234
CH	-11.2235
给我们	-11.2236
▁其次	-11.2237
后勤	-11.2238
答应	-11.2242
ES	-11.2245
中国企业	-11.2246
的前提下	-11.2247
不堪	-11.2249
偏南风	-11.2249
口味	-11.2252
职权	-11.2252
珀	-11.2252
二手房	-11.2253
掌声	-11.2254
剧本	-11.2256
国际市场	-11.2257
104	-11.2258
清单	-11.2258
专注	-11.2259
东路	-11.226
本市	-11.2261
新闻发布会上	-11.2261
-17	-11.2262
奥迪	-11.2266
岁时	-11.2268
生成	-11.2272
定居	-11.2274
逝	-11.2275
兼任	-11.2277
MS	-11.2278
制成	-11.2278
因为他	-11.2279
周三	-11.2284
合一	-11.2288
SO	-11.2289
周四	-11.2291
达尔	-11.2291
基础设施建设	-11.2293
新浪	-11.2293
理财产品	-11.2294
减产	-11.2294
价格上涨	-11.2297
▁Sh	-11.2298
赢得了	-11.2301
抓紧	-11.2302
精华	-11.2304
海湾	-11.2305
签字	-11.2306
加深	-11.2308
海基会	-11.2308
随机	-11.2308
燃油	-11.231
海内外	-11.2311
低收入	-11.2315
野生动物	-11.2315
ook	-11.2316
接任	-11.2316
买家	-11.2316
尼斯	-11.2317
min	-11.232
ner	-11.2321
半数	-11.2322
蚊	-11.2324
军团	-11.2325
一百二十	-11.2325
想起	-11.2325
呈现出	-11.2329
见过	-11.2331
钧	-11.2334
外科	-11.2338
了大量	-11.2338
公允价值	-11.2339
中兴	-11.234
几百	-11.2341
目前正在	-11.2342
时间内	-11.2346
等方面的	-11.2347
滤	-11.2347
农户	-11.2347
▁■	-11.2347
仲裁	-11.2347
门诊	-11.2348
色情	-11.235
日正式	-11.2351
耶夫	-11.2351
两党	-11.2351
ach	-11.2357
路径	-11.2358
逐年	-11.2361
靓	-11.2362
我们可以	-11.2363
隐藏	-11.2364
皇后	-11.2365
被动	-11.2365
棵	-11.2366
来看看	-11.2367
推迟	-11.2368
长期以来	-11.2368
公共服务	-11.2369
火锅	-11.2369
有信心	-11.237
滑雪	-11.2372
清明	-11.2372
nn	-11.2372
翅	-11.2373
将持续	-11.2374
标准化	-11.2375
屿	-11.2375
眠	-11.2377
绪	-11.238
好事	-11.2381
较小	-11.2381
古城	-11.2383
晃	-11.2385
碰撞	-11.2388
海拔高度	-11.2389
ern	-11.2389
攻坚	-11.239
组图	-11.239
一亿	-11.2391
蛋糕	-11.2392
接种	-11.2392
日内瓦	-11.2393
科普	-11.2396
走高	-11.2396
ust	-11.2397
有害	-11.2398
寓	-11.2399
促成	-11.2399
这批	-11.2401
带头	-11.2402
渠	-11.2402
总公司	-11.2404
发表了	-11.2405
发扬	-11.2406
冷静	-11.2407
紧紧	-11.2407
风雨	-11.241
49.	-11.2413
姿态	-11.2413
适用于	-11.2415
带给	-11.2416
感恩	-11.2417
变速箱	-11.2419
小行星	-11.2419
后卫	-11.2424
苏贞昌	-11.2425
的样子	-11.2428
重伤	-11.2428
第二轮	-11.2429
装甲	-11.2435
有效地	-11.2437
期盼	-11.2442
枪击	-11.2442
这意味着	-11.2442
岁月	-11.2444
痴	-11.2447
用车	-11.2447
愤怒	-11.2448
现时	-11.2448
依次	-11.245
合法权益	-11.245
报复	-11.245
征求	-11.2456
经济效益	-11.2457
中心主任	-11.2459
不然	-11.246
悔	-11.246
死于	-11.246
km	-11.2461
CI	-11.2462
亲属	-11.2462
现年	-11.2463
航运	-11.2464
核定	-11.2467
提高到	-11.2467
钥匙	-11.2467
现已	-11.2468
不动产	-11.2469
反对党	-11.2469
对外开放	-11.2471
把它	-11.2473
跨境	-11.2473
单打	-11.2474
分钟后	-11.2474
借由	-11.2479
俞	-11.2482
谜	-11.2483
cm	-11.2485
耕地	-11.2488
堪称	-11.2489
往返	-11.2489
监视	-11.249
名叫	-11.2498
逗	-11.25
首府	-11.2502
罪名	-11.2502
搬迁	-11.2504
地处	-11.2506
赛车	-11.2507
res	-11.2508
芯	-11.2514
份子	-11.2514
烫	-11.2514
国际金融	-11.2515
AB	-11.2515
远东	-11.2517
体质	-11.2517
电源	-11.2518
纲要	-11.2521
WTO	-11.2525
善于	-11.2525
悉尼	-11.2525
地块	-11.2525
电机	-11.2526
lan	-11.2529
欧元区	-11.2532
甸	-11.2534
悉	-11.2535
第二大	-11.2535
金价	-11.2536
不合理	-11.2537
华夏	-11.2538
司令部	-11.2541
脚步	-11.2541
吉利	-11.2542
瓦斯	-11.2543
盯	-11.2543
俘	-11.2543
人大常委会	-11.2547
类别	-11.2549
灿	-11.255
一九七	-11.255
好莱坞	-11.2551
江西省	-11.2553
伟大的	-11.2553
轻微	-11.2554
养老金	-11.2555
费率	-11.2556
工作室	-11.2557
能不能	-11.2559
慰	-11.256
多么	-11.256
进出	-11.2562
Vi	-11.2562
增添	-11.2562
或者是	-11.2563
台海	-11.2569
不清	-11.2571
竣工	-11.2571
OR	-11.2574
诸如	-11.2577
1970	-11.2577
Mo	-11.2577
肃	-11.2578
my	-11.258
还是要	-11.2581
外部链接	-11.2581
政变	-11.2581
征集	-11.2582
亲人	-11.2586
区分	-11.2587
爆料	-11.2588
好奇	-11.2588
ll	-11.2588
cl	-11.2589
喜剧	-11.2591
客服	-11.2591
半小时	-11.2591
彰化县	-11.2591
火星	-11.2594
中央军委	-11.2595
一间	-11.2596
豆腐	-11.2597
传输	-11.2598
辑	-11.26
安全性	-11.2602
村庄	-11.2608
等多种	-11.2611
肚子	-11.2613
机票	-11.2619
百分之五	-11.2621
银行卡	-11.2624
芦	-11.2626
指令	-11.2628
榴	-11.2629
无锡	-11.2629
ric	-11.263
奇怪	-11.2631
理事	-11.2631
浙	-11.2632
修正案	-11.2633
导购	-11.2633
干燥	-11.2634
LA	-11.2634
尼泊尔	-11.2636
航天员	-11.264
最大阵风	-11.2642
愚	-11.2642
至此	-11.2642
经营者	-11.2644
生活方式	-11.2645
鞭	-11.2647
屠杀	-11.2647
桃园县	-11.2648
美味	-11.2649
摄像头	-11.2651
原定	-11.2652
乐队	-11.2652
蔽	-11.2653
往年	-11.2655
单身	-11.2659
异议	-11.2661
塑造	-11.2661
一阵	-11.2662
捡	-11.2662
pa	-11.2662
und	-11.2662
1981	-11.2663
入场	-11.2664
int	-11.2664
购置	-11.2665
制造商	-11.2666
医学院	-11.2666
现身	-11.2667
公积金	-11.2669
工程建设	-11.2672
不喜欢	-11.2673
假日	-11.2673
シ	-11.2675
飓风	-11.2676
黛	-11.2677
吉林省	-11.268
aw	-11.2682
验收	-11.2683
栖息	-11.2683
ft	-11.2684
为大家	-11.2684
Ex	-11.2685
确诊	-11.2687
剥	-11.2689
废除	-11.2691
骄傲	-11.2692
重要作用	-11.2693
四十五	-11.2693
没什么	-11.27
应付	-11.2701
渗透	-11.2703
罢工	-11.2703
曰	-11.2703
工业区	-11.2704
日常生活	-11.2704
阵雨或雷雨	-11.2705
use	-11.2708
团伙	-11.2708
奕	-11.2708
分工	-11.2708
搜集	-11.2713
2500	-11.2714
有期徒刑	-11.2715
一根	-11.2717
填写	-11.2718
眼中	-11.272
诱惑	-11.272
庞大的	-11.2722
分成	-11.2723
门前	-11.2723
溜	-11.2725
较少	-11.2725
27.	-11.2731
招募	-11.2732
ans	-11.2734
津贴	-11.2735
所长	-11.2737
gu	-11.2738
临近	-11.2739
双向	-11.2742
找出	-11.2742
同学们	-11.2743
一身	-11.2744
在纽约	-11.2746
雷阵雨	-11.2748
也门	-11.2751
山水	-11.2751
竞争对手	-11.2755
决赛中	-11.2755
高等教育	-11.2757
一审	-11.2757
制止	-11.2758
芭	-11.2761
竭	-11.2762
衡量	-11.2762
关键词	-11.2764
垂直	-11.2764
不少人	-11.2767
在哪里	-11.2768
车厢	-11.2768
不应该	-11.2774
湿地	-11.2774
大跌	-11.2776
线条	-11.2776
服饰	-11.2776
分红	-11.2781
做出了	-11.2785
经济复苏	-11.2785
che	-11.2786
可以说是	-11.2788
裴	-11.2791
出血	-11.2793
赞赏	-11.2793
多方	-11.2793
无疑是	-11.2798
进来	-11.2799
愉快	-11.2804
一夜	-11.2806
型号	-11.2809
う	-11.281
一带一路	-11.281
人工智能	-11.2812
行政长官	-11.2813
奥尔	-11.2813
购车	-11.2813
接连	-11.2814
合作关系	-11.2815
主播	-11.2817
电影节	-11.2819
块钱	-11.282
悬挂	-11.2821
Windows	-11.2823
3.3	-11.2823
目的地	-11.2831
什么时候	-11.2833
比上年	-11.2834
爸	-11.2836
跳水	-11.2836
虞	-11.2837
聚会	-11.2837
1950	-11.2839
ame	-11.284
入市	-11.284
被告人	-11.2842
个国家和地区	-11.2844
疲劳	-11.2846
从去年	-11.2849
克莱	-11.285
屏东县	-11.2851
生肖	-11.2851
环境下	-11.2852
兴起	-11.2852
均匀	-11.2852
马云	-11.2855
圣火	-11.2855
夷	-11.2855
net	-11.2856
包围	-11.286
☆	-11.2863
被誉为	-11.2863
记者王	-11.2865
加班	-11.287
蔚	-11.287
薯	-11.2871
优异	-11.2872
棉花	-11.2872
ress	-11.2874
约占	-11.2876
医疗机构	-11.2876
水资源	-11.2879
仓库	-11.288
扮	-11.2881
MV	-11.2882
星座	-11.2883
剧中	-11.2884
三亚	-11.2885
委员长	-11.2887
即时	-11.2887
牟	-11.2888
乡亲	-11.2888
AL	-11.2889
适时	-11.2892
波音	-11.2892
停火	-11.2893
贿选	-11.2895
▁新华社快讯	-11.2898
人间	-11.2898
az	-11.2902
淀	-11.2902
偶尔	-11.2903
脾	-11.2905
对阵	-11.2909
丑闻	-11.2914
程式	-11.2914
华文	-11.2915
分开	-11.2916
去年底	-11.2917
防疫	-11.2917
足球队	-11.2917
模仿	-11.2919
反映了	-11.2919
华商	-11.292
桂林	-11.2921
这个时候	-11.2923
同盟	-11.2925
检察机关	-11.2926
十余	-11.2929
传达	-11.2929
形状	-11.2933
肇事	-11.2933
立法会	-11.2934
收支	-11.2934
PP	-11.2937
同业	-11.2938
步入	-11.2943
分割	-11.2944
歌舞	-11.2944
布置	-11.2948
ny	-11.2949
ok	-11.295
有一天	-11.295
椎	-11.295
几位	-11.2952
自动化	-11.2953
屏东	-11.2955
3.2	-11.2956
接著	-11.2956
折扣	-11.2957
展会	-11.2961
指引	-11.2965
表扬	-11.2965
沦	-11.2966
等相关	-11.2967
主教练	-11.2968
荐	-11.2968
假设	-11.2969
订定	-11.2971
赃	-11.2975
海盗	-11.2976
云林县	-11.2976
输送	-11.2976
尊严	-11.2978
农田	-11.2978
中华队	-11.2979
7.5	-11.2981
詹姆斯	-11.2983
第三名	-11.2984
28.	-11.2985
▁La	-11.2986
GA	-11.2986
增设	-11.2991
6.5	-11.2991
诚意	-11.2993
有关负责人	-11.2993
优点	-11.2993
强力	-11.2993
这篇	-11.2994
疑虑	-11.2994
▁西南风	-11.2995
雇	-11.2996
可以看出	-11.2999
不准	-11.3
没能	-11.3004
ME	-11.3005
下台	-11.3005
page	-11.3006
矮	-11.3006
世界贸易组织	-11.3013
浓度	-11.3016
降落	-11.3017
参谋长	-11.3019
手里	-11.302
报道说	-11.3021
世博	-11.3022
专家认为	-11.3023
开采	-11.3024
亲密	-11.3028
25.	-11.303
ster	-11.303
分级	-11.3031
职场	-11.3032
底部	-11.3035
苏格兰	-11.3042
立院	-11.3043
▁现车充足	-11.3043
简化	-11.3044
爷爷	-11.3044
数码	-11.3045
计量	-11.3047
店内	-11.3047
悲剧	-11.3047
南路	-11.3049
薪资	-11.305
着手	-11.3051
此项	-11.3052
藏族	-11.3052
中国人民解放军	-11.3056
构想	-11.3057
尉	-11.3057
22.	-11.306
shi	-11.3066
OPEC	-11.3066
摧毁	-11.3067
时卅分	-11.3069
26.	-11.3072
官员表示	-11.3073
踪	-11.3074
稍早	-11.3075
积极参与	-11.3076
檀	-11.3077
克林顿	-11.3077
焦虑	-11.3078
平米	-11.308
淳	-11.3081
lin	-11.3082
注明	-11.3083
维也纳	-11.3084
咏	-11.3084
营业收入	-11.3085
源头	-11.3085
瑜	-11.3086
农会	-11.3086
电路	-11.3087
体力	-11.3088
高峰会	-11.3089
看得	-11.3089
看上去	-11.3089
红十字会	-11.3091
支付宝	-11.3092
召开记者会	-11.3092
事迹	-11.3093
研讨	-11.3096
恶性	-11.3097
布里	-11.31
周六	-11.3101
侵害	-11.3103
将达到	-11.3105
太子	-11.3106
保加利亚	-11.3107
实际情况	-11.3107
り	-11.3107
央	-11.3108
全家	-11.3112
中国人民银行	-11.3113
烈士	-11.3117
棕	-11.3119
鞍	-11.3122
国籍	-11.3123
科技大学	-11.3129
黏	-11.3129
爱好	-11.313
党籍立委	-11.3132
心脏病	-11.3136
致电	-11.3139
日晚间	-11.314
精确	-11.3141
模糊	-11.3142
一辈子	-11.3142
3.6	-11.3144
化妆品	-11.3147
终结	-11.3153
纳税	-11.3155
历任	-11.3156
对记者说	-11.3157
缺点	-11.3157
仅次于	-11.3158
净化	-11.3158
实战	-11.3158
清华	-11.3159
到目前为止	-11.3159
ond	-11.316
动物园	-11.316
管局	-11.3161
????	-11.3161
医保	-11.3162
三十日	-11.3162
华北	-11.3162
惩罚	-11.3163
性价比	-11.3166
自民党	-11.3167
历时	-11.3167
幽默	-11.3168
琦	-11.3168
搜狐汽车	-11.3168
雷雨区阵风	-11.3174
提取	-11.3175
被判	-11.318
格外	-11.3181
高价	-11.3181
助力	-11.3183
购房者	-11.3184
栽	-11.3184
‧	-11.3184
ture	-11.3184
手枪	-11.3185
敦促	-11.3186
肥胖	-11.3187
讲究	-11.3188
新世纪	-11.319
CE	-11.3192
民用	-11.3192
字母	-11.3194
直航	-11.3195
不稳定	-11.3198
撰写	-11.3198
广播公司	-11.3198
不断提高	-11.3199
报酬	-11.3199
照明	-11.3201
晖	-11.3202
这套	-11.3203
政府官员	-11.3203
多云局部阵雨	-11.3203
光明日报	-11.3204
数额	-11.3205
黑龙江省	-11.3206
马路	-11.3211
ris	-11.3211
金融服务	-11.3211
光荣	-11.3212
警示	-11.3215
沾	-11.3216
禧	-11.3217
操控	-11.322
公开发行	-11.3222
督促	-11.3223
模块	-11.3227
但如果	-11.3229
巡天	-11.323
En	-11.3231
诵	-11.3231
核实	-11.3234
账号	-11.3235
座位	-11.3236
神话	-11.3237
县级	-11.3239
Jo	-11.3239
参数	-11.3239
看过	-11.3241
时任	-11.3242
选战	-11.3242
牛市	-11.3243
先锋	-11.3244
蜀	-11.3244
谓	-11.3244
阿里巴巴	-11.3245
哈哈	-11.3247
为了让	-11.3248
持久	-11.3249
高清	-11.325
交会	-11.325
●	-11.3256
平均风力	-11.3259
民兵	-11.3262
民政	-11.3264
山脉	-11.3266
有人说	-11.3266
会员国	-11.3266
豫	-11.3269
得奖	-11.3273
浓厚	-11.3273
名牌	-11.3278
该项目	-11.3279
离子	-11.3282
金刚	-11.3282
蒙特	-11.3285
强硬	-11.3285
old	-11.3289
等部门	-11.3289
矿业	-11.3292
搜狐	-11.3293
レ	-11.3294
农业部	-11.3297
早盘	-11.3298
猜测	-11.3299
调降	-11.3299
村落	-11.3301
兼顾	-11.3303
参照	-11.3304
告诉你	-11.3306
富裕	-11.3306
备注	-11.3309
肇	-11.331
看完	-11.3311
UN	-11.3314
事儿	-11.3315
占用	-11.3315
真诚	-11.3318
act	-11.3319
投产	-11.3322
隙	-11.3326
iss	-11.3326
监察院	-11.3327
▁7.4.	-11.3329
So	-11.3331
援引	-11.3334
改建	-11.3337
下班	-11.3341
IV	-11.3341
被困	-11.3343
乐趣	-11.3343
刷新	-11.3345
published	-11.3345
ical	-11.3346
网点	-11.3347
酒精	-11.3348
变形	-11.3349
拱	-11.3352
劳动者	-11.3353
▁本报讯	-11.3353
汀	-11.3355
样本	-11.3358
短缺	-11.3359
动用	-11.336
喘	-11.3361
来源于	-11.3364
ung	-11.3366
带回	-11.3368
年末	-11.3369
膝	-11.337
迅	-11.337
搁	-11.3372
倡议	-11.3373
る	-11.3374
侵略	-11.3374
迫切	-11.3375
要加强	-11.3375
不含	-11.3377
患有	-11.3378
省府	-11.3378
两国人民	-11.338
旬	-11.3381
深厚	-11.3382
违约	-11.3389
上百	-11.3389
章程	-11.3389
最高法院	-11.339
TO	-11.339
连胜	-11.3392
友人	-11.3392
扳	-11.3392
洛阳	-11.3393
牌照	-11.3393
国情	-11.3393
考研	-11.3396
现阶段	-11.3401
说服	-11.3401
热潮	-11.3403
商城	-11.3405
西部地区	-11.3405
饮水	-11.3407
至少有	-11.3408
侦察	-11.3408
新产品	-11.341
契约	-11.3416
报告显示	-11.3416
跑道	-11.3416
一声	-11.3417
ish	-11.3419
社会发展	-11.342
放置	-11.342
近百	-11.3421
降水	-11.3421
意味	-11.3422
ood	-11.3428
环保署	-11.3433
高血压	-11.3434
枕	-11.3438
880	-11.3441
颠覆	-11.3441
斋	-11.3443
ik	-11.3444
管理部门	-11.3445
氯	-11.3445
给她	-11.3445
慌	-11.3445
页面	-11.3448
unt	-11.345
年同期	-11.3451
回避	-11.3452
关爱	-11.3453
投标	-11.3454
拾	-11.3457
心理学	-11.346
茵	-11.3461
赎回	-11.3461
每桶	-11.3461
利比亚	-11.3462
北纬	-11.3462
做事	-11.3463
起火	-11.3464
Fi	-11.3465
经济建设	-11.3466
就不会	-11.3468
飞往	-11.3468
这块	-11.3469
借贷	-11.3471
副会长	-11.3471
GO	-11.3473
再生	-11.3474
乾隆	-11.3475
信息披露	-11.3476
不予	-11.3476
碰到	-11.3479
$	-11.3479
包裹	-11.3481
展示了	-11.3482
坦言	-11.3484
雁	-11.3485
接力	-11.3485
多伦多	-11.3486
传染	-11.3487
改装	-11.3489
form	-11.349
联动	-11.3491
走低	-11.3495
亚运	-11.3495
抵制	-11.3499
阴影	-11.3499
当成	-11.3502
优惠政策	-11.3502
头条	-11.3503
陆委会	-11.3503
抨击	-11.3504
吸毒	-11.351
勇士	-11.3512
肯尼亚	-11.3513
市委书记	-11.3516
吉祥	-11.3519
王金平	-11.3521
颜值	-11.3522
芙	-11.3524
du	-11.3524
4.0	-11.3525
ジ	-11.3526
二期	-11.3527
专属	-11.3529
捉	-11.3529
穗	-11.353
1960	-11.353
会会长	-11.3531
派员	-11.3531
灯光	-11.3532
卅	-11.3534
致命	-11.3534
倾斜	-11.3535
陶瓷	-11.3536
互补	-11.3537
1945	-11.3539
产业化	-11.3544
社论	-11.3547
下挫	-11.3548
组长	-11.3549
反击	-11.3549
IPO	-11.355
黑暗	-11.3551
女排	-11.3552
银河	-11.3555
预订	-11.3557
在野党	-11.3557
ま	-11.356
焰	-11.3562
LE	-11.3563
动工	-11.3564
漏洞	-11.3564
瘤	-11.3567
胡志强	-11.3571
默默	-11.3572
oo	-11.3572
了一系列	-11.3574
爱滋病	-11.3578
缺口	-11.3578
一幅	-11.3582
安保	-11.3582
军事行动	-11.3584
救济	-11.3585
会产生	-11.3586
拯救	-11.3589
市场需求	-11.3591
警报	-11.3591
本报告期	-11.3591
保费	-11.3592
偿还	-11.3593
住户	-11.3593
百分之三	-11.3594
而且还	-11.3595
挨	-11.3598
逆转	-11.3598
马力	-11.3598
记者李	-11.36
娅	-11.36
贿赂	-11.36
汇价	-11.3604
gra	-11.3606
宣导	-11.3606
三十二	-11.3609
不久前	-11.3609
杀死	-11.361
二十九	-11.3613
媛	-11.3616
破获	-11.3616
矢	-11.3617
未必	-11.3617
抗战	-11.3621
EIA	-11.3621
吴敦义	-11.3622
变迁	-11.3624
勇敢	-11.3631
太郎	-11.3631
і	-11.3631
罕	-11.3632
手表	-11.3633
杠	-11.3633
或雷雨	-11.3635
葵	-11.3638
ath	-11.3639
埠	-11.364
基金托管人	-11.3643
更容易	-11.3643
国际金融危机	-11.3645
颁奖典礼	-11.3645
均线	-11.3647
报告指出	-11.3649
尽力	-11.3651
函数	-11.3653
贫穷	-11.3656
交接	-11.3658
岛屿	-11.3659
攻势	-11.366
合作协议	-11.3662
互联	-11.3663
测验	-11.3664
3.8	-11.3665
滥用	-11.3665
マ	-11.3666
入住	-11.3666
疫	-11.3668
制度改革	-11.3669
维权	-11.3671
不低于	-11.3672
受影响	-11.3672
多久	-11.3675
主打	-11.3676
240	-11.3677
条规定	-11.368
科夫	-11.3681
▁雨天	-11.3681
制药	-11.3684
ド	-11.3685
年底前	-11.3685
世贸组织	-11.3687
调度	-11.3687
斯顿	-11.3688
最爱	-11.3688
主帅	-11.3688
8.5	-11.3689
Le	-11.3689
合作社	-11.3689
动荡	-11.3691
上海世博会	-11.3691
丧生	-11.3691
III	-11.3692
搜寻	-11.3692
私营	-11.3692
到底是	-11.3695
录像	-11.3695
稍微	-11.3699
the	-11.3699
马克思主义	-11.3704
ice	-11.3705
辆车	-11.3708
嵌	-11.3709
娶	-11.3709
认识到	-11.3711
推介	-11.3712
鼓舞	-11.3712
加大对	-11.3713
京都	-11.3716
油田	-11.3716
[4,175,19]	-11.3716
生产力	-11.3719
畅通	-11.372
值班	-11.372
格尔	-11.3721
女星	-11.3723
媒体报导	-11.3725
栗	-11.3727
调查结果	-11.3729
胎儿	-11.3733
DS	-11.3733
减持	-11.3737
政协委员	-11.3739
Ar	-11.374
第一季	-11.3741
损坏	-11.3743
所说的	-11.3743
贩卖	-11.3744
磷	-11.3748
牙齿	-11.3749
朝鲜半岛	-11.375
年度报告	-11.375
高尔夫	-11.3752
信义	-11.3756
Ad	-11.3756
タ	-11.3759
为您	-11.3764
拉美	-11.3765
支柱	-11.3767
二世	-11.3775
第二名	-11.3775
▁Ho	-11.3777
坦承	-11.3778
原材料	-11.378
汝	-11.3782
或其他	-11.3783
财政部长	-11.3785
金门县	-11.3786
手工	-11.3786
作文	-11.3788
成品油	-11.3794
人丧生	-11.3796
巴拉圭	-11.3797
安静	-11.3797
全文	-11.3798
书写	-11.3804
4.2	-11.3805
ロ	-11.3805
空袭	-11.3807
动机	-11.3807
卫冕	-11.3808
付费	-11.3809
风云	-11.3809
面临着	-11.381
标识	-11.381
就任	-11.381
暑假	-11.3811
狭	-11.3811
坚守	-11.3815
贵族	-11.3818
凑	-11.3818
一汽	-11.3818
午餐	-11.3819
男篮	-11.3819
触及	-11.382
守护	-11.3822
首选	-11.3825
忠诚	-11.3826
女主角	-11.3826
文化产业	-11.3826
科学院	-11.3828
ao	-11.383
澄	-11.3831
暴跌	-11.3835
拓宽	-11.3835
雕塑	-11.3839
论证	-11.384
否决	-11.3841
简报	-11.3841
24.	-11.3842
恤	-11.3844
做空	-11.3847
450	-11.3847
激光	-11.3852
金融业	-11.3854
已完成	-11.3855
面板	-11.3855
演变	-11.3859
养老保险	-11.3859
枢	-11.386
气象台	-11.386
热量	-11.386
大会上	-11.3861
之意	-11.3862
▁Di	-11.3862
基隆市	-11.3864
这些问题	-11.3865
不懈	-11.3866
众人	-11.3866
十个	-11.3867
合影	-11.3868
受访	-11.387
ree	-11.3871
尽早	-11.3871
想想	-11.3877
国际奥委会	-11.3877
护肤	-11.3878
相关单位	-11.3878
兑美元	-11.3884
日电据	-11.3886
寡	-11.3887
壮大	-11.3887
索马里	-11.3889
忧虑	-11.389
踊跃	-11.389
相对于	-11.3894
众筹	-11.3895
动脉	-11.3898
独自	-11.3898
作词	-11.3898
无人机	-11.3903
准备好	-11.3904
强行	-11.3905
适宜	-11.3906
义务教育	-11.3908
口碑	-11.3908
阿拉法特	-11.3909
▁据台湾	-11.3911
AI	-11.3912
直属	-11.3914
▁you	-11.3915
星级	-11.3916
缺失	-11.3917
烦恼	-11.3917
议程	-11.3917
六方会谈	-11.3918
酬	-11.3918
衔接	-11.3919
咖	-11.3919
咱们	-11.392
床上	-11.3922
学生们	-11.3923
执行长	-11.3924
4.8	-11.3924
编列	-11.3925
运河	-11.3926
John	-11.3926
回调	-11.3927
腻	-11.3927
感慨	-11.3928
二十年	-11.3931
护航	-11.3933
6.7	-11.3933
毯	-11.3934
口腔	-11.3934
还有一个	-11.3935
揭晓	-11.3937
▁报导说	-11.3938
可供	-11.3939
源自	-11.3943
量化	-11.3945
薄弱	-11.3945
园林	-11.395
高低	-11.3955
通往	-11.3955
倒塌	-11.3956
今天公布	-11.3957
一遍	-11.3957
机密	-11.3961
科技创新	-11.3963
常识	-11.3963
联系电话	-11.3964
全军	-11.3964
滨海	-11.3964
二十五日	-11.3966
师范	-11.3966
阜	-11.397
世界上最	-11.3971
必需	-11.3971
外围	-11.3973
表达了	-11.3973
该地区	-11.3974
玛丽	-11.3974
激进	-11.3976
布莱尔	-11.3976
几十年	-11.3976
党委书记	-11.3978
市场份额	-11.3979
求职	-11.3979
子宫	-11.398
三季度	-11.3981
丨	-11.3982
房地产开发	-11.3983
满满	-11.3986
桃花	-11.3987
Google	-11.3993
以致	-11.3993
荣耀	-11.3994
弓	-11.3995
喝酒	-11.4001
札	-11.4001
放开	-11.4005
顶尖	-11.4007
作案	-11.4009
很快就	-11.401
百分之六十	-11.4012
加热	-11.4017
餐馆	-11.4018
亲戚	-11.4019
国家统计局	-11.4021
昭和	-11.4021
煌	-11.4022
雅加达	-11.4025
卡车	-11.4027
传染病	-11.4028
本田	-11.4031
争论	-11.4035
知名度	-11.4037
代表性	-11.4037
自助	-11.4039
点作收	-11.4039
蒋介石	-11.4039
ji	-11.4043
宣誓	-11.4044
致辞	-11.4044
美术馆	-11.4045
盗窃	-11.4046
人民币汇率	-11.4047
降到	-11.4048
同时也是	-11.405
很简单	-11.4051
盈余	-11.4054
交代	-11.4054
更重要的是	-11.4055
放下	-11.4056
大股东	-11.4057
苯	-11.4057
孜	-11.4059
全案	-11.4063
关口	-11.4064
甘肃省	-11.4066
预赛	-11.407
建立起	-11.407
无意	-11.4072
前沿	-11.4073
竖	-11.4073
出访	-11.4073
mer	-11.4075
食材	-11.4076
就这样	-11.4076
宜兰	-11.4076
排查	-11.4078
百余	-11.4081
摘要	-11.4083
风波	-11.4084
石油公司	-11.4084
发稿	-11.4085
只不过	-11.4086
做过	-11.4086
瓣	-11.4088
尼日利亚	-11.4089
万元人民币	-11.4097
更快	-11.4098
写道	-11.41
有关方面	-11.4102
四分之一	-11.4109
备战	-11.4109
台联	-11.411
第一步	-11.4111
艺术品	-11.4114
cc	-11.4117
致力	-11.4118
轻轻	-11.4119
投保	-11.4121
伤者	-11.4123
代表处	-11.4128
纪录片	-11.4128
国际贸易	-11.413
个性化	-11.4131
刹车	-11.4131
值得一提的是	-11.4135
如期	-11.4135
拨款	-11.4136
彰显	-11.4136
备忘录	-11.4139
百分之九十	-11.4141
转播	-11.4141
穆斯林	-11.4146
配件	-11.4147
符号	-11.4149
客厅	-11.415
打压	-11.4152
对付	-11.4155
▁Bo	-11.4157
亿欧元	-11.4157
委员会委员	-11.416
帐篷	-11.416
干线	-11.4161
多边	-11.4162
抱着	-11.4164
韧	-11.4165
纺	-11.4166
歪	-11.4169
数据库	-11.4169
人民检察院	-11.4169
提倡	-11.4171
核武器	-11.4171
电讯	-11.4171
小时候	-11.4174
国代	-11.4174
删	-11.4174
▁Tr	-11.4175
建筑面积	-11.4177
亿港元	-11.4177
饿	-11.418
开户	-11.4181
交换意见	-11.4181
日趋	-11.4182
极限	-11.4182
财物	-11.4184
口感	-11.4188
民营企业	-11.4188
分组	-11.4194
辩护	-11.4194
彼得	-11.4194
盛会	-11.4196
海底	-11.4196
市场价格	-11.4197
停电	-11.4199
中医药	-11.4201
罩	-11.4202
夺取	-11.4202
襄	-11.4203
浇	-11.4204
长途	-11.4206
农药	-11.4207
转发	-11.4207
孩	-11.4208
博客	-11.4212
彩色	-11.4214
古迹	-11.4215
鄂	-11.4218
此行	-11.4218
雅典	-11.422
世界卫生组织	-11.422
类股	-11.422
擅自	-11.4224
代表队	-11.4226
二十八日	-11.4229
李某	-11.423
嘱	-11.4232
致词	-11.4233
刚果	-11.4235
双打	-11.424
同比下降	-11.4241
阐述	-11.4241
动能	-11.4245
回头	-11.4245
国际组织	-11.4246
非洲国家	-11.4248
2.9	-11.4248
发展战略	-11.4248
PPP	-11.4249
拜访	-11.425
by	-11.4253
历年	-11.4253
紧缩	-11.4253
爵士	-11.4254
迁移	-11.4257
严重影响	-11.4258
悠久	-11.426
内战	-11.426
酶	-11.4261
直径	-11.4262
员警	-11.4262
经建会	-11.4264
更具	-11.4264
琼斯	-11.4264
千里	-11.4267
细致	-11.4268
双边关系	-11.4268
基本法	-11.4269
不是很	-11.4269
落成	-11.427
轨道交通	-11.4273
参谋	-11.4274
郊区	-11.4274
土豆	-11.4274
离不开	-11.4275
都不会	-11.4279
级转	-11.428
赣	-11.4308
冤	-11.4315
钩	-11.4336
甩	-11.4363
滥	-11.4372
昊	-11.4386
•	-11.4404
俭	-11.4418
阀	-11.4424
衬	-11.4425
鸦	-11.444
泵	-11.4446
歉	-11.4452
栅	-11.446
馨	-11.4462
垮	-11.453
\	-11.4533
乒	-11.4539
俏	-11.4541
き	-11.4552
涩	-11.4558
稽	-11.4561
袜	-11.4568
耿	-11.4569
揆	-11.4594
窟	-11.4604
矫	-11.4612
冀	-11.4616
滕	-11.4618
菁	-11.4641
耻	-11.4642
乖	-11.4648
蛙	-11.4694
咨	-11.4706
藻	-11.4709
迭	-11.471
に	-11.4729
聂	-11.473
媚	-11.4741
衔	-11.4758
缆	-11.4759
爪	-11.4774
拌	-11.4788
坂	-11.4812
拢	-11.4823
尧	-11.483
颠	-11.4847
棘	-11.4857
恳	-11.486
沸	-11.4884
歼	-11.489
捏	-11.4924
魄	-11.4959
仆	-11.4962
胺	-11.4963
掷	-11.4986
怜	-11.5006
カ	-11.5023
雍	-11.5031
跪	-11.5038
祛	-11.5046
抖	-11.5048
茄	-11.5056
讳	-11.5082
狐	-11.5089
梓	-11.5091
脆	-11.5094
亟	-11.5097
铀	-11.5098
臀	-11.5105
咒	-11.5113
沼	-11.5118
陕	-11.5121
朋	-11.5128
蹲	-11.5134
萝	-11.5172
咪	-11.5173
悼	-11.5175
硝	-11.5219
祠	-11.522
氨	-11.5242
卒	-11.5243
镀	-11.5264
み	-11.5272
刃	-11.5289
削	-11.5292
渎	-11.5294
帘	-11.5305
勺	-11.532
惧	-11.5328
屁	-11.5329
楷	-11.5346
糕	-11.535
歧	-11.535
隋	-11.5364
フ	-11.538
雌	-11.5389
剔	-11.5401
丈	-11.5429
笋	-11.5442
玮	-11.5442
迦	-11.5449
嘿	-11.5485
忆	-11.5497
焚	-11.5513
锂	-11.5516
哄	-11.5522
霆	-11.5529
邢	-11.5534
衍	-11.5557
陨	-11.5562
谨	-11.5563
ら	-11.5564
兜	-11.5571
凹	-11.5604
さ	-11.5606
坟	-11.5625
鲤	-11.5629
奠	-11.5631
疹	-11.5631
鸽	-11.5657
妍	-11.566
灶	-11.567
崭	-11.5672
缔	-11.5672
禹	-11.5677
骆	-11.5688
皱	-11.5697
挚	-11.5711
〜	-11.5718
悍	-11.5727
茜	-11.5743
锌	-11.5748
梗	-11.5781
萃	-11.5782
痒	-11.5802
溺	-11.5808
掠	-11.583
骤	-11.5854
韶	-11.5858
俯	-11.5863
袍	-11.5866
蚀	-11.5874
笛	-11.5875
葡	-11.591
碍	-11.591
汛	-11.591
愧	-11.5936
凸	-11.5965
筛	-11.5986
幢	-11.599
煞	-11.5993
旨	-11.5999
戳	-11.6026
彤	-11.604
匀	-11.6041
壹	-11.6065
↓	-11.6075
荔	-11.6078
燥	-11.6094
д	-11.6129
厉	-11.6141
睦	-11.6159
倩	-11.6177
峡	-11.6194
刹	-11.6197
纾	-11.6207
柄	-11.6236
烘	-11.6259
锣	-11.6263
テ	-11.6265
庐	-11.6277
弧	-11.628
樊	-11.6291
犀	-11.6305
竿	-11.6315
奸	-11.6319
括	-11.6323
嘲	-11.6324
й	-11.6329
堰	-11.6414
铲	-11.6453
敛	-11.6463
く	-11.65
簿	-11.6502
噪	-11.6508
祺	-11.6509
胀	-11.6511
靴	-11.6558
赎	-11.6564
缀	-11.6581
浊	-11.6596
膳	-11.6605
妓	-11.6606
彪	-11.6611
荧	-11.6616
翘	-11.6621
は	-11.6631
挟	-11.6637
焊	-11.6647
觅	-11.667
乞	-11.6705
糟	-11.6706
靡	-11.671
潇	-11.6744
熏	-11.6749
昨	-11.6756
ち	-11.6779
黔	-11.6787
腥	-11.679
滇	-11.6792
禾	-11.6793
オ	-11.6795
渴	-11.6831
寂	-11.6831
氮	-11.6836
恼	-11.6839
沂	-11.688
栓	-11.6889
涡	-11.689
贱	-11.6894
酥	-11.6933
畔	-11.6936
榕	-11.694
渗	-11.6943
叮	-11.6967
}	-11.6968
掘	-11.697
邑	-11.6979
哇	-11.6985
廓	-11.6989
咱	-11.6995
ィ	-11.7032
镶	-11.7042
曙	-11.7049
妄	-11.7067
棠	-11.7081
蹄	-11.7093
陋	-11.7094
豚	-11.7108
牠	-11.7128
泼	-11.7129
淤	-11.7142
あ	-11.7143
疮	-11.7146
お	-11.7148
寅	-11.717
キ	-11.7181
娄	-11.7183
у	-11.7186
て	-11.7189
岐	-11.719
爹	-11.7204
嚣	-11.7217
堕	-11.7227
こ	-11.7245
á	-11.7254
顽	-11.7264
阎	-11.7268
哑	-11.7287
ь	-11.7295
倦	-11.7296
蠢	-11.7299
腊	-11.7301
籽	-11.7307
朔	-11.7324
蝉	-11.7327
桦	-11.733
苛	-11.7332
亥	-11.7357
笃	-11.7374
幂	-11.7386
筝	-11.7396
褐	-11.7398
皓	-11.7415
琐	-11.7417
粪	-11.7425
绰	-11.7436
捣	-11.745
豁	-11.7452
笨	-11.7463
烛	-11.7475
洼	-11.7497
柚	-11.7497
钰	-11.7502
耍	-11.7518
靶	-11.7525
梭	-11.7541
沁	-11.7548
囚	-11.7556
芮	-11.7575
祐	-11.7575
コ	-11.7614
驼	-11.7617
骸	-11.7634
鳍	-11.7636
绅	-11.7648
邨	-11.7651
峻	-11.7657
璐	-11.7662
※	-11.7667
岂	-11.7693
芹	-11.7709
赦	-11.7719
驴	-11.7722
栈	-11.7739
僚	-11.7761
冢	-11.7763
梵	-11.7772
猩	-11.7783
ナ	-11.7787
怎	-11.7791
乍	-11.7803
鳄	-11.7809
伽	-11.781
冥	-11.7819
揉	-11.7826
扛	-11.785
炖	-11.7856
熄	-11.7859
馅	-11.7868
樟	-11.788
墩	-11.7897
溃	-11.7906
揣	-11.7924
窜	-11.7933
榆	-11.7947
咋	-11.7953
エ	-11.796
梧	-11.7966
扒	-11.7984
祈	-11.7991
伺	-11.8002
沐	-11.8004
闵	-11.8011
が	-11.8033
璋	-11.8037
娱	-11.8056
柬	-11.8059
佬	-11.8062
嫂	-11.8072
寝	-11.809
椰	-11.8103
桓	-11.8108
茹	-11.8116
宛	-11.8126
窦	-11.8129
钾	-11.8138
糯	-11.8167
厕	-11.8176
釜	-11.8179
诫	-11.8184
舜	-11.8199
〕	-11.8233
绽	-11.8239
饥	-11.8254
睁	-11.8254
芸	-11.8283
隶	-11.8287
荫	-11.8294
バ	-11.832
醛	-11.8332
酮	-11.8333
圭	-11.8339
蔬	-11.8347
〔	-11.8348
痰	-11.8362
晏	-11.8386
贿	-11.8388
畸	-11.8394
鳞	-11.8402
泣	-11.8409
婿	-11.8422
巍	-11.843
吏	-11.8463
皂	-11.8473
岚	-11.8501
寇	-11.8508
吟	-11.8511
饺	-11.8527
咳	-11.8534
{	-11.8538
蚕	-11.8541
匙	-11.8547
菠	-11.856
哟	-11.856
暇	-11.8571
ム	-11.8583
鲨	-11.8592
ü	-11.8594
艰	-11.8596
琉	-11.8613
蝎	-11.8622
プ	-11.8625
汐	-11.8653
鸠	-11.8661
恺	-11.8668
翟	-11.8679
绥	-11.8681
棱	-11.8699
淇	-11.8705
м	-11.8709
轿	-11.8723
灸	-11.8727
昼	-11.8729
攒	-11.8738
屑	-11.8738
琅	-11.8777
ャ	-11.8801
秤	-11.8812
遏	-11.8823
ミ	-11.8825
釉	-11.883
嘎	-11.885
渭	-11.886
嚼	-11.886
芜	-11.8873
烷	-11.8874
茎	-11.8874
萤	-11.8883
钠	-11.8888
酌	-11.8899
倘	-11.8906
喧	-11.891
耽	-11.8922
グ	-11.8939
泸	-11.8942
サ	-11.8944
糙	-11.8948
翌	-11.8961
讷	-11.8979
熔	-11.8987
囤	-11.8988
麒	-11.902
嗣	-11.9022
氟	-11.9025
挪	-11.904
□	-11.9056
稚	-11.9063
昧	-11.907
洱	-11.9072
橡	-11.9095
锯	-11.9098
笙	-11.9103
峙	-11.9104
璧	-11.9108
斧	-11.9118
凳	-11.9121
汶	-11.9122
铬	-11.9122
趴	-11.9122
蝠	-11.9137
雏	-11.9138
っ	-11.9139
剿	-11.915
窘	-11.916
デ	-11.9163
酯	-11.9164
で	-11.9167
肋	-11.9168
棺	-11.9197
▽	-11.9235
陡	-11.9256
壤	-11.9258
腌	-11.9259
寥	-11.9259
姊	-11.9274
舅	-11.928
屠	-11.9286
凿	-11.9314
れ	-11.9328
秽	-11.9333
涝	-11.9342
俪	-11.9362
汾	-11.9385
吋	-11.9385
绞	-11.9391
ニ	-11.9392
ブ	-11.9411
橱	-11.9415
陇	-11.943
祯	-11.9447
玺	-11.9454
灼	-11.9474
颅	-11.949
汹	-11.9504
呐	-11.9505
妨	-11.9523
戚	-11.954
霾	-11.9549
ウ	-11.9553
す	-11.9578
丞	-11.9584
垣	-11.9592
诞	-11.9598
琢	-11.9603
麓	-11.9617
昕	-11.9618
哒	-11.9621
慑	-11.9623
筷	-11.9625
阐	-11.9627
я	-11.9657
柿	-11.9676
卤	-11.9688
挽	-11.9688
沽	-11.9699
偕	-11.97
旷	-11.9714
匈	-11.975
梳	-11.9752
臻	-11.9755
瑛	-11.9757
诏	-11.9758
咎	-11.9773
谐	-11.9784
肘	-11.98
窍	-11.9824
颐	-11.9834
峨	-11.9837
盔	-11.984
ズ	-11.9861
厝	-11.9879
哗	-11.9885
烹	-11.9896
裹	-11.99
孚	-11.9901
玻	-11.9928
佣	-11.9943
抒	-11.9947
榨	-11.9948
搅	-11.9969
敖	-12.0015
炜	-12.0015
も	-12.0016
聋	-12.0023
姨	-12.0056
汕	-12.0069
チ	-12.0072
搓	-12.0088
虑	-12.0092
濑	-12.0096
溯	-12.0104
祁	-12.0119
颤	-12.0124
攸	-12.0129
冉	-12.0129
溥	-12.014
辙	-12.0142
荟	-12.0144
瞎	-12.0155
■	-12.0156
を	-12.0184
怠	-12.0219
蕃	-12.0224
脐	-12.0241
萱	-12.0242
昔	-12.0244
闫	-12.0244
メ	-12.025
曦	-12.0251
缮	-12.0253
菇	-12.0266
柑	-12.0269
毓	-12.0273
蜗	-12.0282
绚	-12.0332
卯	-12.0358
煽	-12.037
瑙	-12.0391
蔗	-12.0397
煲	-12.0398
骁	-12.0417
睹	-12.043
戎	-12.0434
蚁	-12.0437
莆	-12.0446
铎	-12.0456
稠	-12.0482
徙	-12.0492
跋	-12.0496
娩	-12.0523
∶	-12.0527
厥	-12.0529
掀	-12.0531
鳌	-12.0544
矣	-12.0547
粽	-12.0559
蝇	-12.0563
絮	-12.0567
芋	-12.0585
涯	-12.0589
撩	-12.0602
擒	-12.062
泻	-12.0621
ュ	-12.0641
皖	-12.0649
嗅	-12.0651
氓	-12.0661
¥	-12.0667
パ	-12.067
佼	-12.0673
嵩	-12.0687
§	-12.0688
驿	-12.069
绷	-12.07
倚	-12.0709
贮	-12.071
咀	-12.0711
葆	-12.0728
辄	-12.0752
澈	-12.0763
酪	-12.0765
沫	-12.0772
狙	-12.0777
涤	-12.0778
鞠	-12.0778
恪	-12.0784
饵	-12.0785
肴	-12.0809
捂	-12.0819
紊	-12.082
铨	-12.0843
躯	-12.0848
つ	-12.0848
窥	-12.0851
霄	-12.0862
烯	-12.088
瀚	-12.0893
骄	-12.0897
毙	-12.0906
殴	-12.091
彝	-12.0934
憩	-12.0935
ビ	-12.0935
匡	-12.0954
殉	-12.0954
戊	-12.0956
>	-12.0962
谍	-12.0972
哮	-12.0974
绸	-12.0979
п	-12.0988
羌	-12.099
娴	-12.1015
渍	-12.104
僻	-12.1059
莺	-12.107
镁	-12.1086
描	-12.1096
辗	-12.1105
缤	-12.1129
吼	-12.1148
г	-12.1148
潍	-12.1153
钊	-12.1164
啪	-12.1169
葩	-12.1177
荃	-12.1183
枉	-12.1183
汲	-12.119
鹭	-12.1196
佟	-12.1198
莓	-12.1221
夯	-12.1238
í	-12.124
↑	-12.1243
鸥	-12.1246
砌	-12.1246
烽	-12.1249
锈	-12.1261
轧	-12.1261
绮	-12.1273
骇	-12.1277
呎	-12.1285
苔	-12.1285
奢	-12.1288
姗	-12.1291
榻	-12.136
魅	-12.1367
匣	-12.1373
瞧	-12.1386
侄	-12.1387
拚	-12.1389
桔	-12.1425
碘	-12.1427
俨	-12.1428
濒	-12.144
斡	-12.1463
杖	-12.1469
趾	-12.1473
犁	-12.1481
诡	-12.1496
簇	-12.1502
槟	-12.1507
殖	-12.1517
狸	-12.1537
酉	-12.154
ダ	-12.1572
宕	-12.1597
岱	-12.1615
烨	-12.1624
躬	-12.1636
丫	-12.1646
嗜	-12.1649
虏	-12.1654
嗨	-12.1689
ó	-12.1696
△	-12.1701
苟	-12.1703
噶	-12.1706
兮	-12.1728
粟	-12.1742
铢	-12.1743
猝	-12.1743
睛	-12.1758
薰	-12.1762
蹭	-12.1769
│	-12.1794
韬	-12.1798
讽	-12.1801
喇	-12.1825
ö	-12.184
盏	-12.1846
咯	-12.1866
菅	-12.1906
α	-12.1919
苓	-12.193
耸	-12.193
岑	-12.194
哉	-12.1947
庶	-12.1975
戌	-12.1975
诀	-12.1986
酵	-12.1993
襟	-12.1994
懈	-12.1994
嘘	-12.2015
锾	-12.2016
ガ	-12.2058
朽	-12.206
矛	-12.2074
猿	-12.2079
蝙	-12.2085
б	-12.2104
娥	-12.2106
鹃	-12.2106
锥	-12.2106
镍	-12.2113
驹	-12.2116
踝	-12.213
呛	-12.2146
冕	-12.2164
庇	-12.2168
钜	-12.2183
曜	-12.2206
褒	-12.2208
钛	-12.2212
侥	-12.2217
懿	-12.2228
炙	-12.2265
沥	-12.2275
疤	-12.2299
癸	-12.2299
袱	-12.2306
滔	-12.2315
莽	-12.2356
禺	-12.2376
璇	-12.2392
晤	-12.2411
暮	-12.2425
噩	-12.244
媳	-12.2444
俑	-12.2445
绊	-12.2461
妒	-12.2478
辍	-12.2483
妞	-12.2494
幌	-12.25
嗓	-12.2516
铮	-12.2521
匾	-12.2533
瑾	-12.2555
瘫	-12.2555
噬	-12.2604
桨	-12.2617
窒	-12.2617
蕊	-12.2623
纂	-12.2624
锚	-12.2636
谬	-12.2643
巩	-12.2659
С	-12.2664
瞬	-12.2675
秧	-12.269
啸	-12.2696
铂	-12.2731
簧	-12.2733
蹦	-12.2757
祀	-12.2764
晾	-12.2794
姻	-12.2817
姥	-12.283
ハ	-12.2838
澎	-12.2852
ч	-12.2874
寰	-12.291
や	-12.2916
昱	-12.2921
扼	-12.2938
矽	-12.2956
娼	-12.2963
哩	-12.2971
焉	-12.2975
叨	-12.2979
弛	-12.3002
屎	-12.3015
坷	-12.3044
掺	-12.3058
壬	-12.3081
谕	-12.3092
镖	-12.3094
拭	-12.3102
ä	-12.311
庵	-12.3133
缪	-12.3151
逮	-12.316
垢	-12.3194
擂	-12.32
舆	-12.3214
嫣	-12.3227
漳	-12.3233
沮	-12.3245
蚌	-12.3252
胁	-12.3265
颊	-12.3284
淄	-12.3286
狩	-12.3298
懵	-12.3306
蛛	-12.3306
撇	-12.331
え	-12.3344
よ	-12.3346
侣	-12.3348
け	-12.3368
惶	-12.3368
澡	-12.337
泌	-12.3372
陌	-12.3377
秃	-12.3386
渺	-12.3388
洙	-12.3395
啃	-12.3403
羚	-12.3411
嫖	-12.3413
峪	-12.3415
缕	-12.3426
恕	-12.3428
亵	-12.3437
琛	-12.3439
兢	-12.3442
煜	-12.3442
彗	-12.3444
だ	-12.345
篷	-12.3451
伶	-12.3474
虔	-12.3474
颓	-12.3476
瞒	-12.3524
磕	-12.3524
癫	-12.3526
翩	-12.3538
亢	-12.3551
羡	-12.3554
鲶	-12.3579
じ	-12.3632
憋	-12.3646
疟	-12.3654
镐	-12.3665
蜕	-12.3671
藕	-12.3714
肛	-12.3721
岔	-12.3728
碾	-12.3729
睫	-12.3733
窖	-12.3741
刁	-12.3745
烁	-12.3753
璃	-12.3768
琥	-12.377
屹	-12.3774
嫉	-12.3776
逞	-12.3787
è	-12.3801
晟	-12.3818
嘻	-12.3843
劈	-12.3851
茉	-12.387
酚	-12.3872
泗	-12.3883
琵	-12.3887
忱	-12.3895
践	-12.3916
黯	-12.3961
ا	-12.3961
悖	-12.3967
撮	-12.3973
膨	-12.3975
汞	-12.3976
舵	-12.3984
栩	-12.4037
菩	-12.4037
鳗	-12.4043
憬	-12.4052
峭	-12.4076
懋	-12.408
耘	-12.4105
焙	-12.4112
眩	-12.4123
羯	-12.4144
迳	-12.4162
撬	-12.417
钝	-12.4183
ョ	-12.4205
ā	-12.4209
馒	-12.4213
ェ	-12.4218
夭	-12.4222
嬉	-12.4229
蕨	-12.4246
檐	-12.425
褪	-12.4252
驯	-12.4287
泾	-12.4294
憧	-12.4307
盎	-12.4326
唾	-12.4344
わ	-12.4371
韭	-12.4377
坜	-12.4386
з	-12.4393
瞳	-12.4417
鲈	-12.4433
槐	-12.445
羹	-12.445
纶	-12.4466
哎	-12.447
隅	-12.4473
胰	-12.4477
浚	-12.449
拎	-12.4493
淼	-12.4503
嘟	-12.4515
咕	-12.4524
逍	-12.4526
璨	-12.4528
泓	-12.4531
燮	-12.4548
榈	-12.4573
恍	-12.4602
轶	-12.4605
め	-12.4625
漓	-12.4634
芥	-12.4636
璀	-12.465
筱	-12.467
モ	-12.4677
酋	-12.4684
嗯	-12.4689
摒	-12.4693
椭	-12.47
膊	-12.47
椿	-12.4702
腓	-12.4723
巳	-12.4725
蹈	-12.4747
篆	-12.4759
颌	-12.4766
诟	-12.4766
胱	-12.4791
蛤	-12.4801
裘	-12.483
胳	-12.4844
掐	-12.4861
乾	-12.4866
剁	-12.4872
拙	-12.4872
挠	-12.4883
暧	-12.4888
蔑	-12.4895
炯	-12.4895
坞	-12.4907
舖	-12.4935
К	-12.4947
枭	-12.4958
呗	-12.4958
篡	-12.5005
喵	-12.5024
匝	-12.5043
炊	-12.5049
莅	-12.5054
凄	-12.5059
眶	-12.5061
阪	-12.5078
ノ	-12.508
棣	-12.5094
蕙	-12.5097
ひ	-12.5099
惬	-12.5107
笠	-12.5109
ゆ	-12.5109
拷	-12.5123
婕	-12.5144
剃	-12.5152
セ	-12.5173
俐	-12.5175
秆	-12.525
苇	-12.5252
谥	-12.5272
揪	-12.5279
磺	-12.528
卦	-12.5325
竺	-12.5327
ц	-12.5327
雳	-12.5349
媲	-12.5378
穹	-12.539
粹	-12.5391
汰	-12.5397
殆	-12.5422
炽	-12.5432
篱	-12.5432
悚	-12.5432
磐	-12.5439
慨	-12.5445
酰	-12.5452
擅	-12.5466
拂	-12.5466
蘸	-12.5466
俺	-12.5478
逅	-12.5491
霹	-12.5493
拽	-12.5498
萎	-12.5525
矶	-12.5528
蜥	-12.5533
漱	-12.5535
烙	-12.5595
镰	-12.5595
痊	-12.56
邂	-12.5607
袂	-12.5617
蠕	-12.5627
雹	-12.5652
坍	-12.5692
帛	-12.5715
猥	-12.5732
褶	-12.5733
赘	-12.5753
潢	-12.5768
毋	-12.5778
淌	-12.5781
ワ	-12.5806
孰	-12.5814
硒	-12.5821
锻	-12.5841
ろ	-12.5842
秸	-12.587
钵	-12.5877
丐	-12.5878
à	-12.5888
眺	-12.5893
瞰	-12.5919
绫	-12.5919
钮	-12.5922
掳	-12.5937
熠	-12.5939
戦	-12.5942
峥	-12.5991
恢	-12.5991
痔	-12.6006
濮	-12.6027
伎	-12.604
膺	-12.6045
诬	-12.6056
跷	-12.6061
鄙	-12.6087
鱿	-12.6092
摧	-12.61
毂	-12.6106
帧	-12.6111
瀛	-12.6124
楂	-12.6142
唁	-12.6148
珂	-12.6148
堀	-12.6155
瘟	-12.6161
孢	-12.6169
屌	-12.6174
冗	-12.6179
痫	-12.6187
捅	-12.619
^	-12.6195
鹦	-12.6198
坯	-12.6203
玖	-12.6222
ツ	-12.6227
宙	-12.6234
脓	-12.6245
粱	-12.6253
厮	-12.6285
В	-12.6299
稼	-12.6331
帷	-12.6341
憨	-12.6352
婪	-12.6395
羁	-12.6398
隘	-12.6433
涕	-12.6438
惰	-12.6447
П	-12.6447
迥	-12.6474
疚	-12.6515
缭	-12.6539
茸	-12.6547
砾	-12.6575
ネ	-12.658
遐	-12.6583
茧	-12.6589
郴	-12.6613
茱	-12.6616
湄	-12.6627
砺	-12.6636
蕉	-12.6639
辫	-12.6647
拧	-12.6652
潼	-12.6677
怯	-12.6688
拣	-12.6696
憾	-12.671
岌	-12.6716
诛	-12.6721
喔	-12.6727
胤	-12.6733
х	-12.6747
皋	-12.6752
衙	-12.6755
婧	-12.6766
瑰	-12.677
凛	-12.6772
褚	-12.6791
俾	-12.6794
焖	-12.6819
β	-12.6819
銮	-12.6825
骥	-12.6828
漾	-12.6842
ゃ	-12.6848
琶	-12.6856
奚	-12.6862
畿	-12.6862
痹	-12.6865
谛	-12.689
踵	-12.6924
珑	-12.6927
ã	-12.6927
粑	-12.693
侬	-12.6933
佰	-12.6938
唠	-12.6964
焯	-12.697
莘	-12.6993
宸	-12.7007
擎	-12.7009
砚	-12.703
′	-12.7038
钳	-12.7062
ァ	-12.7062
瞪	-12.7067
ボ	-12.707
鄱	-12.7085
←	-12.7093
疽	-12.7108
茗	-12.7114
腮	-12.7137
哆	-12.7146
粕	-12.7151
咐	-12.7154
衢	-12.7157
†	-12.7163
戮	-12.7186
М	-12.7213
撼	-12.7227
ケ	-12.7233
丕	-12.7233
蔷	-12.7248
蜿	-12.726
戟	-12.7263
妤	-12.7265
觑	-12.7268
贻	-12.7333
璞	-12.7339
甬	-12.7371
殃	-12.7372
咙	-12.7372
悸	-12.7375
莒	-12.7384
隽	-12.7393
瞿	-12.7393
圃	-12.7408
梢	-12.7411
戛	-12.742
捆	-12.7422
靳	-12.7428
蚝	-12.7429
镯	-12.7444
赡	-12.7447
峇	-12.7462
溅	-12.7471
晰	-12.7514
Р	-12.7522
鹊	-12.7531
瘀	-12.754
咧	-12.7549
闺	-12.7555
兀	-12.7558
せ	-12.7564
傍	-12.7568
鹉	-12.7585
哺	-12.7591
妾	-12.7595
μ	-12.7609
凋	-12.7613
饲	-12.7625
挹	-12.764
恬	-12.7653
伉	-12.7655
浒	-12.7662
膛	-12.7662
◎	-12.7671
弋	-12.7683
匆	-12.7686
玥	-12.7689
啼	-12.7692
峦	-12.7732
羲	-12.7754
蜒	-12.7757
螂	-12.7788
熹	-12.78
噱	-12.78
眸	-12.7816
攘	-12.7828
壕	-12.7838
谚	-12.7847
仟	-12.7853
蔓	-12.7855
鲷	-12.7866
忻	-12.7866
佘	-12.7884
圩	-12.7897
腑	-12.7903
迄	-12.7913
嚷	-12.7916
哼	-12.7931
涟	-12.7938
臧	-12.7944
芷	-12.795
遽	-12.7954
缄	-12.7954
掰	-12.7969
阙	-12.7985
骋	-12.7995
谟	-12.8001
玫	-12.8014
烃	-12.802
惋	-12.8055
酗	-12.8061
籁	-12.8065
擘	-12.8071
侗	-12.8081
锭	-12.809
蒿	-12.8099
胚	-12.8103
沱	-12.8115
罄	-12.8128
蓓	-12.8135
鲔	-12.8138
邸	-12.8143
咚	-12.8145
瑕	-12.8161
痣	-12.8164
咲	-12.8164
傣	-12.8177
蹊	-12.8183
ベ	-12.819
晦	-12.8206
挛	-12.8206
幡	-12.8209
昵	-12.8222
谏	-12.8244
桢	-12.8244
ど	-12.8254
ょ	-12.8261
吝	-12.8267
瞄	-12.8276
銝	-12.8291
覃	-12.8319
莞	-12.8347
祷	-12.8362
嫡	-12.8375
晗	-12.8392
忏	-12.8395
圳	-12.8409
狡	-12.8422
筐	-12.8425
癖	-12.8431
喆	-12.8432
霓	-12.8438
そ	-12.8471
濂	-12.8484
唆	-12.8488
栾	-12.8488
宦	-12.8504
苷	-12.8514
戍	-12.8534
愣	-12.8541
曳	-12.8544
ل	-12.8551
沓	-12.8581
矗	-12.8588
恙	-12.8588
筠	-12.8591
辕	-12.8592
俸	-12.8601
诅	-12.8605
睾	-12.8608
刨	-12.8639
碌	-12.866
蛾	-12.8666
斓	-12.8689
隍	-12.873
泷	-12.8754
ы	-12.8792
弼	-12.8798
√	-12.8836
埼	-12.8836
贰	-12.885
昙	-12.8864
喃	-12.8888
叩	-12.8926
ザ	-12.8933
噜	-12.8947
焱	-12.8947
弩	-12.895
痉	-12.8975
踞	-12.8978
屉	-12.8989
噢	-12.8989
瓮	-12.8992
槌	-12.9006
辐	-12.9009
叱	-12.9048
〇	-12.9052
抠	-12.9059
淞	-12.9059
黜	-12.9073
锰	-12.9077
簸	-12.908
涧	-12.9101
铐	-12.9101
潟	-12.9101
茬	-12.9101
漩	-12.9105
薏	-12.9112
ば	-12.9116
耆	-12.9126
碁	-12.9144
ず	-12.9155
腱	-12.9176
祇	-12.9183
浏	-12.9187
臼	-12.9219
ポ	-12.9226
钥	-12.9312
涮	-12.9316
酣	-12.9323
暹	-12.9326
铿	-12.9337
妳	-12.9356
铠	-12.9385
咤	-12.9421
昀	-12.9439
砷	-12.9443
嫔	-12.9447
禀	-12.9461
塾	-12.9465
滢	-12.9494
遁	-12.955
眨	-12.955
嬷	-12.9564
镂	-12.9583
邝	-12.9587
鸳	-12.9598
÷	-12.962
龈	-12.9624
谧	-12.9628
呜	-12.965
ゴ	-12.9654
Б	-12.9658
牒	-12.9661
鲫	-12.9665
擢	-12.9676
觐	-12.9683
蛟	-12.9691
â	-12.9714
ソ	-12.9717
舔	-12.9721
袒	-12.9732
蹴	-12.9751
炷	-12.9778
琨	-12.9778
诣	-12.9793
»	-12.9793
裳	-12.9808
蹬	-12.9835
锵	-12.9857
▌	-12.9858
镛	-12.9861
剌	-12.9866
ピ	-12.9869
娓	-12.988
囧	-12.9892
瑯	-12.9896
岷	-12.9907
肽	-12.9907
奄	-12.9923
绢	-12.9923
亘	-12.9927
磋	-12.9934
啧	-12.9969
虱	-12.9969
摹	-12.9976
蔻	-12.9988
臆	-12.9992
砥	-13.0019
箔	-13.0027
墟	-13.0033
衞	-13.005
−	-13.0089
顷	-13.0101
孳	-13.0105
帜	-13.0119
胥	-13.0136
馍	-13.014
喱	-13.0144
漪	-13.0152
嚗	-13.0165
蓟	-13.0167
玟	-13.0167
迺	-13.0183
瀑	-13.0188
鸯	-13.0203
拮	-13.0203
骅	-13.0214
谒	-13.0215
浜	-13.0226
皿	-13.023
昶	-13.0246
祎	-13.025
谙	-13.0254
荀	-13.0258
沌	-13.0274
ヤ	-13.0282
朦	-13.0294
蝗	-13.0302
痢	-13.0302
掖	-13.0318
唔	-13.0322
轼	-13.0342
濠	-13.0346
迸	-13.035
讹	-13.037
А	-13.0378
郅	-13.0394
瓯	-13.0394
氰	-13.0394
扈	-13.0406
饬	-13.0414
隼	-13.043
涪	-13.0434
诃	-13.0462
哽	-13.0471
筏	-13.0471
埕	-13.0475
罔	-13.0479
舷	-13.052
墅	-13.0525
侏	-13.0528
ホ	-13.0532
饽	-13.054
胧	-13.0573
瓢	-13.0589
妩	-13.0605
邬	-13.061
婶	-13.0614
苞	-13.0626
蟾	-13.0626
缜	-13.0663
巽	-13.0667
惮	-13.0688
楞	-13.0701
歆	-13.0701
搂	-13.0738
Д	-13.0755
寐	-13.0771
飨	-13.0775
貂	-13.0792
滦	-13.0796
趸	-13.0796
翊	-13.08
颚	-13.0809
嘅	-13.0809
杞	-13.0817
箍	-13.0817
缎	-13.0834
搀	-13.0838
邃	-13.0859
斟	-13.0876
讥	-13.0906
愉	-13.0917
沅	-13.0923
囱	-13.0927
珞	-13.0927
笈	-13.0948
蟑	-13.0953
扉	-13.0961
掣	-13.0961
濬	-13.0974
憎	-13.0974
癣	-13.0978
鲑	-13.0995
渚	-13.1008
ギ	-13.1038
ш	-13.1038
巅	-13.1038
ヒ	-13.1042
咄	-13.1064
ç	-13.1064
豌	-13.1068
ї	-13.1072
▍	-13.1077
於	-13.1081
碉	-13.1085
燎	-13.1085
疱	-13.1085
啤	-13.1088
ж	-13.1103
甥	-13.1107
谳	-13.1116
Н	-13.1116
箕	-13.115
讼	-13.115
硼	-13.1155
懦	-13.1159
麾	-13.1168
岖	-13.1194
婺	-13.1198
丶	-13.1198
馋	-13.1198
О	-13.1207
缇	-13.1207
埤	-13.1211
蟒	-13.122
艮	-13.1224
晔	-13.1238
皙	-13.1242
渥	-13.1246
倭	-13.1251
荤	-13.1255
馏	-13.1259
歹	-13.1272
ú	-13.1272
羔	-13.1286
罂	-13.1307
蚤	-13.1312
诧	-13.1317
黍	-13.1321
鲟	-13.133
牡	-13.1342
懊	-13.1352
瘙	-13.1361
轲	-13.1365
ペ	-13.141
乓	-13.1423
呱	-13.1427
鹫	-13.1432
茁	-13.1436
讪	-13.1468
ね	-13.1481
啰	-13.1485
猷	-13.1508
镳	-13.1517
兖	-13.1526
ふ	-13.1526
馥	-13.153
褫	-13.1553
瞅	-13.1567
腋	-13.1571
瞭	-13.158
樵	-13.158
赈	-13.1584
弭	-13.1585
崂	-13.1616
钨	-13.162
蹿	-13.1621
潺	-13.163
瑄	-13.1639
祟	-13.1648
挞	-13.1671
遛	-13.1689
褥	-13.1703
唉	-13.1703
溴	-13.1717
藓	-13.1717
帼	-13.1726
琏	-13.1735
灏	-13.1735
饷	-13.1736
榷	-13.174
睽	-13.174
礴	-13.1745
诿	-13.1772
菏	-13.1786
阂	-13.1791
炬	-13.1791
祚	-13.1795
`	-13.1819
Г	-13.1837
踹	-13.1852
呦	-13.1884
飒	-13.1889
鞘	-13.1889
颍	-13.1902
旻	-13.1903
ヴ	-13.1931
脖	-13.1931
蛀	-13.1955
翎	-13.1968
讴	-13.1973
铉	-13.1982
ο	-13.1997
馈	-13.2014
濡	-13.202
毗	-13.2039
溧	-13.2058
弈	-13.2061
ゲ	-13.2072
傀	-13.2082
孺	-13.2091
鳕	-13.2106
闰	-13.2144
陂	-13.2153
恃	-13.2163
箴	-13.2192
汴	-13.2206
ほ	-13.2235
煸	-13.2236
诲	-13.224
腩	-13.2245
糜	-13.2255
殡	-13.2259
桧	-13.2264
儡	-13.2269
É	-13.2274
唏	-13.2294
ر	-13.2299
倔	-13.2328
疙	-13.2337
冼	-13.2352
徕	-13.2362
悯	-13.2377
牦	-13.2377
瘩	-13.2396
ぎ	-13.2401
珈	-13.2406
迂	-13.2411
卞	-13.2411
磡	-13.2421
蛎	-13.2431
锄	-13.2436
ɛ	-13.2475
奂	-13.2485
绛	-13.2486
铵	-13.25
聆	-13.2505
孽	-13.252
ي	-13.2525
奘	-13.2535
倡	-13.2535
ご	-13.2575
稷	-13.26
惦	-13.2605
怂	-13.2605
慵	-13.261
羟	-13.2615
纭	-13.262
萦	-13.2625
愕	-13.263
荞	-13.2645
隧	-13.2649
亳	-13.2655
啬	-13.2655
漯	-13.2681
彷	-13.2696
迢	-13.2701
嵘	-13.2716
泞	-13.2736
佯	-13.2746
吆	-13.2752
م	-13.2752
ō	-13.2772
氙	-13.2792
喽	-13.2798
蔼	-13.2802
呕	-13.2818
崁	-13.2818
馄	-13.2823
枋	-13.2834
漕	-13.2838
壑	-13.2838
胭	-13.2838
睑	-13.2849
이	-13.2854
袅	-13.2854
湍	-13.2859
粳	-13.2874
饨	-13.2874
榄	-13.288
涸	-13.29
镉	-13.2906
淖	-13.2911
±	-13.2921
涓	-13.2931
榭	-13.2947
撸	-13.2952
馁	-13.2957
舫	-13.2963
璜	-13.2967
庾	-13.2973
皑	-13.3004
焜	-13.3004
勐	-13.3014
́	-13.3015
孀	-13.3015
≤	-13.3024
瀬	-13.303
Л	-13.3031
陛	-13.3035
鄞	-13.3051
滁	-13.3072
涎	-13.3072
ぶ	-13.3078
痺	-13.3078
嘶	-13.3088
嗦	-13.3093
飚	-13.3109
龛	-13.3125
嶋	-13.3125
钗	-13.313
惭	-13.3131
鹈	-13.3136
堃	-13.3141
沢	-13.3141
髋	-13.3157
鏖	-13.3157
炅	-13.3178
蛊	-13.3184
痞	-13.3184
焘	-13.321
煦	-13.321
鳅	-13.3221
<	-13.3237
潞	-13.3242
喙	-13.3242
嬛	-13.3253
ゅ	-13.3258
郜	-13.3269
珩	-13.3269
谩	-13.3274
豉	-13.3274
苹	-13.3289
拴	-13.3291
ə	-13.3296
驭	-13.3306
伝	-13.3333
珮	-13.3339
嘀	-13.335
缨	-13.335
敕	-13.3355
镌	-13.3382
‰	-13.3388
拗	-13.3431
ن	-13.3431
绶	-13.3437
ぐ	-13.3453
浬	-13.3464
≥	-13.3469
诙	-13.3469
壅	-13.3469
喋	-13.3486
髅	-13.3486
匕	-13.3502
饕	-13.3513
眈	-13.353
惚	-13.3541
Т	-13.3552
咫	-13.3568
筿	-13.3568
む	-13.3579
毡	-13.3601
霁	-13.3601
鈭	-13.3645
崴	-13.3646
琰	-13.3652
ʁ	-13.3657
耦	-13.3657
捺	-13.368
钴	-13.368
惺	-13.3702
嚏	-13.3702
朕	-13.3719
蜓	-13.373
ν	-13.3747
咆	-13.3752
琊	-13.3769
阑	-13.377
铤	-13.3775
嗡	-13.3787
骐	-13.3803
脍	-13.3803
鳃	-13.3826
暄	-13.3831
鉄	-13.3832
殇	-13.3843
犷	-13.3849
陲	-13.3854
燊	-13.3854
垩	-13.3871
◇	-13.3872
莠	-13.3873
霏	-13.3877
咔	-13.3877
璟	-13.3888
剽	-13.3889
唑	-13.3906
骷	-13.3911
诋	-13.3923
闱	-13.3934
珐	-13.3946
畑	-13.3952
胫	-13.3957
纫	-13.3974
岬	-13.4009
姣	-13.4015
唬	-13.4015
锟	-13.402
鸾	-13.4038
徇	-13.4061
娣	-13.4061
戡	-13.4072
鲲	-13.4079
黒	-13.4084
渤	-13.4085
ô	-13.409
暱	-13.4102
斛	-13.4125
眯	-13.4137
诩	-13.4137
蛰	-13.4138
冽	-13.4144
淅	-13.4148
锹	-13.4149
箫	-13.4154
ī	-13.416
皈	-13.4178
铛	-13.4184
邺	-13.4189
ユ	-13.4207
槃	-13.4231
柩	-13.4237
鳖	-13.4237
へ	-13.4237
搐	-13.4243
熨	-13.4272
恫	-13.4302
锜	-13.4302
楣	-13.4308
擀	-13.4314
珉	-13.4314
锏	-13.4338
荥	-13.435
翱	-13.435
魇	-13.4362
蔺	-13.4368
蜻	-13.4374
浣	-13.4398
桅	-13.441
涣	-13.4416
脯	-13.4416
肮	-13.4428
吱	-13.4434
裨	-13.4446
偃	-13.4452
荠	-13.4464
猾	-13.4464
悴	-13.447
怵	-13.4482
妲	-13.4524
烬	-13.4524
嘈	-13.4525
镑	-13.4528
ォ	-13.4555
恣	-13.4568
ρ	-13.4573
雉	-13.4592
烩	-13.4603
龋	-13.4604
忐	-13.461
π	-13.4616
笺	-13.4622
忑	-13.4622
莴	-13.4628
戸	-13.4641
藜	-13.4641
び	-13.4641
炕	-13.4647
秩	-13.4653
骞	-13.4653
迩	-13.4666
県	-13.4684
珺	-13.469
坨	-13.469
発	-13.4702
醚	-13.4708
揍	-13.474
珲	-13.477
®	-13.4777
糠	-13.4789
ñ	-13.4821
憔	-13.4833
崽	-13.4833
苣	-13.484
稔	-13.4865
λ	-13.4865
掸	-13.4872
吮	-13.4883
垠	-13.489
鹜	-13.489
邕	-13.489
烊	-13.4915
觊	-13.4922
γ	-13.4922
宥	-13.4934
挎	-13.496
盂	-13.4985
荻	-13.501
嚎	-13.501
姝	-13.501
琮	-13.5011
茯	-13.5017
幺	-13.5017
睢	-13.5024
诘	-13.5029
ß	-13.503
橇	-13.503
鹕	-13.5036
蹂	-13.5062
袤	-13.5081
澧	-13.5087
藐	-13.51
犊	-13.5113
栉	-13.5119
ê	-13.5126
τ	-13.5126
裱	-13.5132
ι	-13.5133
ς	-13.5133
楽	-13.5145
牲	-13.5158
淦	-13.5159
摰	-13.516
蟠	-13.5171
袄	-13.5177
绯	-13.5203
و	-13.5204
觎	-13.5204
螨	-13.5217
鳉	-13.5223
猕	-13.5236
臃	-13.5289
哔	-13.5295
麝	-13.5295
骊	-13.5308
夙	-13.5322
睬	-13.5322
钼	-13.5322
阖	-13.5328
邡	-13.5348
叻	-13.5375
吡	-13.5408
锢	-13.5414
腆	-13.5441
啄	-13.5441
樽	-13.5448
埗	-13.5454
搪	-13.5461
⊙	-13.5461
杷	-13.5481
堇	-13.5508
蚵	-13.5521
碇	-13.5535
驮	-13.5541
忒	-13.5548
砰	-13.5548
ε	-13.5548
骡	-13.5549
孵	-13.5556
埂	-13.5568
吠	-13.5582
躏	-13.5595
钏	-13.5602
瘠	-13.5609
啡	-13.5622
桀	-13.5624
蜴	-13.563
霈	-13.5645
枇	-13.5649
関	-13.5663
撂	-13.567
罹	-13.567
鸵	-13.5683
衅	-13.5704
湮	-13.5711
塭	-13.5725
撷	-13.5737
瑀	-13.5738
า	-13.5745
锲	-13.5752
徨	-13.5766
ư	-13.5766
谌	-13.578
霰	-13.578
贲	-13.5807
∣	-13.5815
æ	-13.5828
赓	-13.5849
痿	-13.5877
蜈	-13.5878
缚	-13.5882
د	-13.5905
萼	-13.5919
楔	-13.5932
邯	-13.5933
̄	-13.5933
堑	-13.5953
腼	-13.5953
疸	-13.5961
祂	-13.5968
氦	-13.5989
潦	-13.6031
佚	-13.6073
垭	-13.6095
逵	-13.6095
ب	-13.6102
拈	-13.6116
窿	-13.6131
巻	-13.6152
颧	-13.6159
蜚	-13.6181
気	-13.6181
徳	-13.6202
歳	-13.6209
铆	-13.6224
ร	-13.6224
赊	-13.6224
萸	-13.6238
帚	-13.6245
歴	-13.6253
寞	-13.6254
镭	-13.626
姫	-13.6274
帑	-13.6296
儋	-13.6296
髻	-13.6296
卉	-13.6298
涿	-13.6332
遑	-13.6333
­	-13.634
尻	-13.6355
黝	-13.6362
捶	-13.6362
坳	-13.6369
撃	-13.6384
谘	-13.6398
芪	-13.6413
婵	-13.642
癜	-13.6428
蛱	-13.6428
郫	-13.6428
掂	-13.6442
苻	-13.6443
洵	-13.6472
阆	-13.6478
崧	-13.6487
枷	-13.6487
圜	-13.6493
蹶	-13.6509
ɔ	-13.6509
旌	-13.6524
蜷	-13.6532
孪	-13.6561
猬	-13.6576
荚	-13.6583
讶	-13.6605
У	-13.6606
皎	-13.6621
々	-13.6621
洮	-13.6635
徉	-13.6651
湟	-13.6651
σ	-13.6651
泯	-13.6658
芡	-13.6673
徜	-13.6673
浔	-13.6674
俟	-13.6681
炀	-13.6696
鞑	-13.6711
ゼ	-13.678
恿	-13.6787
𫚥	-13.6787
獒	-13.6802
阡	-13.681
ω	-13.6818
ф	-13.6818
鬓	-13.6825
狈	-13.6825
泱	-13.6848
鼬	-13.6871
蚓	-13.6879
缙	-13.6879
捻	-13.6887
楹	-13.6894
娆	-13.6894
嗷	-13.691
З	-13.6925
榛	-13.6949
荪	-13.6949
蚬	-13.6964
偌	-13.6964
蹒	-13.6987
遨	-13.7011
«	-13.7011
诰	-13.7019
茴	-13.7034
叽	-13.7089
沣	-13.7097
瞠	-13.7105
湳	-13.7105
鳝	-13.7113
璩	-13.7113
辘	-13.712
珏	-13.7128
唧	-13.716
跚	-13.7168
鼾	-13.7168
実	-13.7168
š	-13.7176
瞌	-13.7208
闾	-13.7216
̃	-13.7231
蛹	-13.7233
摁	-13.7263
佥	-13.728
尕	-13.7288
駅	-13.7295
矜	-13.7295
稞	-13.7303
餮	-13.7328
砝	-13.7328
锺	-13.7328
吭	-13.7352
叡	-13.7368
ū	-13.7368
蠡	-13.7384
褂	-13.74
畲	-13.7417
垄	-13.7424
聿	-13.7441
疝	-13.7449
愫	-13.7457
鸢	-13.7457
呤	-13.7457
竣	-13.7461
巿	-13.7465
窈	-13.7466
骰	-13.7474
ざ	-13.7523
绌	-13.7555
拯	-13.7586
鲇	-13.7605
捎	-13.7605
鹑	-13.7605
げ	-13.763
怅	-13.7655
恵	-13.7655
垛	-13.7663
痤	-13.7688
忿	-13.7696
篝	-13.7713
悄	-13.7719
跤	-13.773
ì	-13.773
佃	-13.773
И	-13.7738
鲉	-13.7747
邛	-13.7755
纣	-13.7755
婊	-13.7764
舀	-13.7764
谆	-13.7789
瞥	-13.7789
偎	-13.7797
骛	-13.7814
灞	-13.7822
澍	-13.7848
瘁	-13.7856
碚	-13.7865
沭	-13.7865
跛	-13.7865
蚂	-13.7873
芊	-13.7882
ć	-13.789
叼	-13.7916
瘪	-13.7916
鲀	-13.7933
遢	-13.7942
伫	-13.7959
ヨ	-13.7967
ă	-13.7967
∩	-13.7968
靼	-13.7993
佗	-13.7993
嗑	-13.801
姪	-13.8028
噗	-13.8045
旖	-13.8053
総	-13.8054
粼	-13.8054
瞩	-13.8054
胯	-13.808
艋	-13.8088
矾	-13.8088
ː	-13.8106
耙	-13.8106
漉	-13.8114
螳	-13.8151
鄢	-13.8166
ø	-13.8167
遶	-13.8176
梆	-13.8202
糸	-13.8202
牍	-13.821
攫	-13.8237
坻	-13.8245
琬	-13.8254
芃	-13.8263
娑	-13.8272
鞣	-13.8272
坵	-13.8281
惘	-13.8299
歙	-13.8308
邳	-13.8316
団	-13.8317
苋	-13.8334
钒	-13.8334
་	-13.8352
嗝	-13.8352
墒	-13.8361
吩	-13.837
綦	-13.8388
谑	-13.8388
摞	-13.8397
吒	-13.8397
舶	-13.8412
咩	-13.8415
笆	-13.8415
阉	-13.8424
鍙	-13.8433
胄	-13.8459
遴	-13.8467
叁	-13.8478
弑	-13.8487
赝	-13.8542
噎	-13.855
ē	-13.855
蚯	-13.8559
ヽ	-13.856
筵	-13.8569
岘	-13.8578
啶	-13.8596
颉	-13.8623
焗	-13.8632
滘	-13.8633
瑠	-13.8642
旎	-13.8669
玑	-13.8679
瓩	-13.8697
舺	-13.8697
圻	-13.8697
殓	-13.8697
嘹	-13.8706
隞	-13.8712
讧	-13.8715
芍	-13.8715
べ	-13.8725
喳	-13.8753
ぼ	-13.8762
ˈ	-13.8762
醴	-13.8771
篓	-13.878
葺	-13.878
嘌	-13.878
佤	-13.8809
夔	-13.8836
囿	-13.8836
躇	-13.8836
琇	-13.8845
淬	-13.8855
岫	-13.8864
拄	-13.8902
琍	-13.8921
鎏	-13.8959
κ	-13.8978
瓒	-13.8987
仄	-13.8997
麂	-13.9006
箩	-13.9035
嗒	-13.9044
杵	-13.9045
鹳	-13.9054
毘	-13.9063
芈	-13.9064
疣	-13.9073
戾	-13.9082
▎	-13.9083
搔	-13.9083
翡	-13.9102
婀	-13.9102
谯	-13.9102
邋	-13.9102
驸	-13.9131
蛳	-13.9141
煊	-13.915
様	-13.916
窕	-13.9179
祜	-13.9189
腭	-13.9198
婢	-13.9198
踌	-13.9208
衮	-13.9237
娲	-13.9247
柘	-13.9257
椁	-13.9266
س	-13.9276
窨	-13.9286
น	-13.9296
柠	-13.9315
纮	-13.9315
麋	-13.9365
嗤	-13.9375
铣	-13.9384
づ	-13.9384
攥	-13.9385
≈	-13.9394
嬴	-13.9404
砧	-13.9404
η	-13.9434
鬃	-13.9454
洄	-13.9504
犒	-13.9524
肱	-13.9534
荼	-13.9564
悌	-13.9594
啮	-13.9594
嬅	-13.9594
蚩	-13.9604
盱	-13.9614
嵊	-13.9614
凰	-13.9624
擞	-13.9625
僖	-13.9625
粿	-13.9634
柒	-13.9655
睇	-13.9665
泠	-13.9675
ю	-13.9696
晁	-13.9696
赟	-13.9706
啻	-13.9706
蹋	-13.9716
莪	-13.9726
▊	-13.9737
掬	-13.9737
δ	-13.9747
桁	-13.9747
畴	-13.9748
缰	-13.9757
垸	-13.9767
侑	-13.9767
篑	-13.9777
赳	-13.9788
鳚	-13.9809
敝	-13.9829
鹌	-13.9829
钚	-13.985
桜	-13.9871
Ч	-13.9871
荖	-13.9892
蜱	-13.9892
抡	-13.9902
蚣	-13.9985
ù	-13.9986
菖	-13.9996
衩	-13.9996
倬	-14.0007
菈	-14.0017
幔	-14.0027
舸	-14.0028
獭	-14.0028
罡	-14.0038
氹	-14.0038
螯	-14.0049
芎	-14.007
呻	-14.007
祗	-14.0101
泮	-14.0112
葳	-14.0133
瘸	-14.0134
钸	-14.0155
咛	-14.0176
幄	-14.0177
豊	-14.0187
栎	-14.0208
猖	-14.0209
饯	-14.0241
θ	-14.0241
阚	-14.0241
劭	-14.0251
ŋ	-14.0262
毽	-14.0262
骧	-14.0284
盅	-14.0284
醺	-14.0295
驷	-14.0306
蜇	-14.0316
嗖	-14.0327
讦	-14.0349
谤	-14.0349
荳	-14.0355
ł	-14.0371
荨	-14.0392
І	-14.0393
郧	-14.0403
羿	-14.0404
侮	-14.0447
霭	-14.0447
Х	-14.0448
挢	-14.0452
膘	-14.0458
辻	-14.0458
糗	-14.0469
亜	-14.0469
裆	-14.048
钯	-14.0491
榉	-14.0492
사	-14.0492
£	-14.0524
恸	-14.0524
脇	-14.0525
耒	-14.0536
摃	-14.0536
铰	-14.0558
Đ	-14.0558
醮	-14.0581
氪	-14.0591
대	-14.0603
胛	-14.0614
萁	-14.0625
ò	-14.0636
č	-14.067
碣	-14.0681
镕	-14.0693
呃	-14.0703
缢	-14.0726
珅	-14.0737
蟆	-14.075
佢	-14.076
滂	-14.0782
璎	-14.0794
炔	-14.0794
谲	-14.0806
ë	-14.0817
ɑ	-14.0817
簪	-14.0828
蔵	-14.0829
痍	-14.0886
嗔	-14.0886
萩	-14.0886
噌	-14.0897
戕	-14.0909
咁	-14.0932
豇	-14.0943
ヘ	-14.0966
剐	-14.0967
隡	-14.0969
锑	-14.1024
砗	-14.1036
珪	-14.1048
钣	-14.1048
镒	-14.1071
煨	-14.1083
郦	-14.1083
玷	-14.1106
韫	-14.1106
щ	-14.1106
鞅	-14.1107
眙	-14.1118
Ф	-14.1118
磲	-14.1118
専	-14.113
惇	-14.1142
趵	-14.1153
盹	-14.1153
笹	-14.1154
仨	-14.1165
広	-14.1177
龃	-14.1177
跆	-14.1212
辺	-14.1213
誊	-14.1248
의	-14.126
蹼	-14.1284
龉	-14.1284
対	-14.1296
舛	-14.1356
籼	-14.1368
叟	-14.1392
리	-14.1405
峒	-14.1429
杼	-14.144
歩	-14.1441
膈	-14.1453
ɡ	-14.1453
诠	-14.1463
檬	-14.1465
刍	-14.1489
©	-14.1502
肄	-14.1513
ت	-14.1514
铳	-14.1514
嵇	-14.1538
ı	-14.1538
嶂	-14.1538
藿	-14.1538
ع	-14.1551
飕	-14.1563
镓	-14.1575
锆	-14.16
讫	-14.16
膦	-14.16
彧	-14.1612
搡	-14.1637
김	-14.1649
囡	-14.1649
鳟	-14.1661
榫	-14.1699
缥	-14.1699
糅	-14.1712
桎	-14.1737
鲢	-14.1749
痧	-14.1749
缈	-14.1749
憭	-14.1755
鲛	-14.1762
惆	-14.1774
侪	-14.1786
俳	-14.1787
旸	-14.1837
殒	-14.1837
惴	-14.1837
掮	-14.19
匍	-14.19
梏	-14.19
蕲	-14.1914
榔	-14.1939
汨	-14.1951
ة	-14.1964
褓	-14.199
怦	-14.199
诹	-14.2028
痂	-14.2041
痼	-14.2054
鹬	-14.2054
阈	-14.2054
穂	-14.2067
邰	-14.2068
俚	-14.208
墉	-14.2093
爻	-14.2093
秭	-14.2119
蚜	-14.2119
铼	-14.2158
碴	-14.2184
羧	-14.2184
י	-14.2197
嚓	-14.2237
唳	-14.2238
晞	-14.2277
葚	-14.2289
熵	-14.2303
ờ	-14.2316
咘	-14.2316
嗲	-14.2342
刈	-14.2356
桉	-14.2356
乩	-14.2357
膻	-14.2369
铄	-14.2382
्	-14.2382
厩	-14.2422
匐	-14.2422
呷	-14.2436
å	-14.2436
醍	-14.2437
弁	-14.2449
檄	-14.2462
逻	-14.2476
檎	-14.2492
宓	-14.2503
栃	-14.2503
麸	-14.2503
蜊	-14.2504
苒	-14.253
涞	-14.253
杳	-14.253
掴	-14.2544
φ	-14.2544
ǎ	-14.2571
薨	-14.2571
阗	-14.2584
岙	-14.2598
甭	-14.2612
ی	-14.2612
鲽	-14.2625
増	-14.2626
迤	-14.2627
郢	-14.2639
ぱ	-14.2639
昴	-14.2639
蛆	-14.2666
狒	-14.2708
茭	-14.2708
螈	-14.2735
砀	-14.2749
啜	-14.2749
燧	-14.2763
绀	-14.2777
狞	-14.2777
鸮	-14.2777
诤	-14.2777
锷	-14.2819
揖	-14.2819
荏	-14.2832
锶	-14.2833
蝌	-14.2847
≠	-14.2847
耄	-14.2861
骠	-14.2874
蜍	-14.2889
踮	-14.2903
υ	-14.2917
정	-14.2917
지	-14.2917
堺	-14.2917
鹘	-14.2944
钡	-14.2945
竜	-14.2945
薮	-14.2987
姉	-14.2988
塬	-14.3015
钺	-14.3016
儆	-14.303
栀	-14.303
畹	-14.303
鄯	-14.3044
萣	-14.3044
诶	-14.3044
図	-14.3044
茆	-14.3073
捋	-14.3073
炤	-14.3087
虢	-14.3115
崃	-14.313
Ω	-14.3144
寛	-14.3159
ก	-14.3159
枞	-14.3173
ぬ	-14.3188
鳢	-14.3188
绎	-14.3207
〖	-14.3218
霂	-14.3219
嫚	-14.3231
蓦	-14.3232
扪	-14.3246
箝	-14.3246
撙	-14.326
〗	-14.3262
钿	-14.329
馀	-14.329
蓼	-14.3304
毎	-14.3304
▏	-14.3304
鲱	-14.3319
ح	-14.3319
瓴	-14.3348
経	-14.3348
蚪	-14.3348
梶	-14.3348
胪	-14.3363
咦	-14.3363
啾	-14.3363
遒	-14.3363
동	-14.3407
苳	-14.3422
売	-14.3422
蜃	-14.3423
锗	-14.3436
蓁	-14.3437
讣	-14.3437
锴	-14.3437
ه	-14.3437
鲭	-14.3437
垅	-14.3467
唢	-14.3481
Ш	-14.3481
瑁	-14.3497
餈	-14.3518
酩	-14.3526
揄	-14.3526
谔	-14.3541
犍	-14.3556
捩	-14.3556
闳	-14.3571
糍	-14.3571
菡	-14.3586
抿	-14.3586
孛	-14.3586
铱	-14.3586
凪	-14.3601
墘	-14.3601
ม	-14.3616
芩	-14.3646
ั	-14.3662
스	-14.3662
↔	-14.3677
เ	-14.3722
蛭	-14.3738
砒	-14.3738
傩	-14.3752
殁	-14.3753
啖	-14.3753
薙	-14.3753
靛	-14.3768
耋	-14.3768
邈	-14.3799
苡	-14.3799
僳	-14.38
浃	-14.3814
庖	-14.3814
▂	-14.3829
陉	-14.383
醯	-14.3845
璠	-14.3845
Δ	-14.3845
偈	-14.386
藔	-14.386
한	-14.3876
颞	-14.3876
ิ	-14.3907
隈	-14.3907
盥	-14.3923
揶	-14.3938
仃	-14.3939
溏	-14.3939
蟀	-14.3954
槻	-14.3954
颢	-14.3969
菀	-14.397
蟋	-14.397
氛	-14.3994
鼐	-14.4001
啕	-14.4001
轭	-14.4001
♪	-14.4032
傈	-14.4033
俎	-14.4048
溱	-14.4048
狰	-14.4064
铟	-14.4079
鲅	-14.408
澹	-14.4095
鸫	-14.4095
劵	-14.4111
窠	-14.4127
俶	-14.4128
浐	-14.4143
俣	-14.4143
ゾ	-14.4159
아	-14.4175
ί	-14.4175
甾	-14.4191
镣	-14.4191
垚	-14.4207
痲	-14.4223
ぽ	-14.4223
ぞ	-14.4223
赉	-14.4223
鬣	-14.4239
哧	-14.4255
噼	-14.4255
跺	-14.4255
嵋	-14.4271
粲	-14.4271
荸	-14.4271
僭	-14.4271
璘	-14.4272
蝏	-14.4292
嘢	-14.4303
ा	-14.432
鹄	-14.4352
槎	-14.4368
腈	-14.4369
咗	-14.4385
崮	-14.4401
玳	-14.4401
╱	-14.4416
犸	-14.4417
撅	-14.4417
蕈	-14.4417
菓	-14.4417
槿	-14.4417
蹉	-14.4434
獾	-14.445
ヌ	-14.445
영	-14.445
∞	-14.445
蘑	-14.4466
痱	-14.4467
秣	-14.4499
苜	-14.4499
骜	-14.4499
跄	-14.4516
咿	-14.4516
觞	-14.4516
鹗	-14.4532
醐	-14.4532
踉	-14.4549
乂	-14.4549
舢	-14.4598
瑚	-14.4602
瘴	-14.4615
変	-14.4615
ệ	-14.4615
腴	-14.4632
惕	-14.4647
仝	-14.4649
圄	-14.4649
饴	-14.4649
钤	-14.4666
睪	-14.4666
ย	-14.4666
ו	-14.4683
恻	-14.4684
鳎	-14.4699
砭	-14.4699
鹞	-14.4699
孱	-14.4699
霎	-14.47
珙	-14.4716
覧	-14.4716
┃	-14.4716
浯	-14.4716
仮	-14.4733
潸	-14.4733
囹	-14.475
인	-14.4767
蓿	-14.4767
谪	-14.4767
赀	-14.4783
纰	-14.4784
阇	-14.48
ơ	-14.4801
悻	-14.4801
杓	-14.4818
筲	-14.4818
馗	-14.4834
础	-14.4849
蓥	-14.4868
絵	-14.4869
э	-14.4886
臬	-14.4906
羸	-14.492
甙	-14.492
î	-14.4937
ʃ	-14.4938
원	-14.4955
樾	-14.4972
闘	-14.4972
榊	-14.4975
瘘	-14.4989
邗	-14.4989
颦	-14.4989
濯	-14.4989
Е	-14.4989
Ø	-14.4989
豺	-14.5041
簷	-14.5076
畈	-14.5076
磬	-14.5076
噔	-14.5094
蒨	-14.5094
隗	-14.5095
悪	-14.5111
疵	-14.5112
ق	-14.5129
酐	-14.5129
馕	-14.5146
艏	-14.5146
锉	-14.5146
嶝	-14.5147
獠	-14.5147
噻	-14.5147
อ	-14.5182
氲	-14.5199
郯	-14.5217
氤	-14.5217
汆	-14.5234
瓤	-14.5235
轫	-14.5235
刽	-14.5252
辊	-14.5252
郷	-14.5253
ё	-14.527
်	-14.527
祢	-14.5288
剣	-14.5288
箸	-14.5291
涔	-14.5306
沔	-14.5306
魮	-14.5306
雒	-14.5324
ぜ	-14.5324
箐	-14.5341
芘	-14.536
가	-14.536
怼	-14.5378
摈	-14.5414
脘	-14.5414
嗪	-14.5414
亻	-14.5432
撵	-14.5432
牯	-14.545
叭	-14.545
円	-14.5486
ง	-14.5486
矍	-14.5504
茏	-14.5505
赅	-14.5505
恽	-14.5505
鬟	-14.5523
孑	-14.5541
기	-14.5541
‖	-14.5541
蘅	-14.5559
猗	-14.5596
Я	-14.5596
钕	-14.5633
沏	-14.5633
虬	-14.5651
ส	-14.5652
颔	-14.5652
啫	-14.5652
芗	-14.5652
汩	-14.567
瘢	-14.567
鲳	-14.567
戬	-14.567
膑	-14.5688
铩	-14.5707
铡	-14.5707
襁	-14.5726
羰	-14.5726
⋯	-14.5726
骶	-14.5726
주	-14.5744
爰	-14.5763
冇	-14.5763
凇	-14.5763
仞	-14.5782
揹	-14.5782
昉	-14.5782
埭	-14.5783
雿	-14.5806
観	-14.5838
偻	-14.5838
嘞	-14.5838
喰	-14.5838
裟	-14.5857
暐	-14.5914
莳	-14.5914
疃	-14.5931
र	-14.5933
ạ	-14.5933
踱	-14.5933
陟	-14.5951
苫	-14.5952
笕	-14.599
氡	-14.599
満	-14.599
수	-14.599
성	-14.599
ș	-14.599
姹	-14.6009
도	-14.6029
郗	-14.6048
赭	-14.6066
ï	-14.6067
殚	-14.6067
芾	-14.6069
囍	-14.6125
钍	-14.6144
畠	-14.6144
ό	-14.6145
铯	-14.6145
鮨	-14.6164
다	-14.6164
椪	-14.6164
訇	-14.6164
鹛	-14.6183
転	-14.6183
続	-14.6203
█	-14.6203
込	-14.6223
ぷ	-14.6223
ج	-14.6223
서	-14.6223
碛	-14.6242
馔	-14.6242
岿	-14.6242
庠	-14.6262
簋	-14.6262
淙	-14.6262
呋	-14.6262
자	-14.6281
轸	-14.6282
収	-14.6301
埸	-14.632
ị	-14.6341
捌	-14.636
嶙	-14.638
祉	-14.6399
瑗	-14.64
ว	-14.64
袈	-14.64
渑	-14.642
茛	-14.642
鹮	-14.642
라	-14.642
국	-14.644
臊	-14.644
诒	-14.6459
笞	-14.646
桡	-14.648
捜	-14.648
佝	-14.65
蝽	-14.6501
怔	-14.6521
ά	-14.6521
鼩	-14.6541
颛	-14.6541
ゥ	-14.6541
荦	-14.6545
陜	-14.6561
锒	-14.6561
砻	-14.6561
柞	-14.6582
钹	-14.6623
怆	-14.6642
杲	-14.6662
揩	-14.6663
나	-14.6684
萘	-14.6684
‐	-14.6684
豢	-14.6684
Ö	-14.6703
篁	-14.6724
嬗	-14.6724
ś	-14.6725
朐	-14.6745
嵯	-14.6745
匦	-14.6745
镝	-14.6745
脷	-14.6766
ˋ	-14.6787
ท	-14.6787
우	-14.6787
蜢	-14.6787
跎	-14.6828
蝰	-14.6828
啉	-14.6828
峋	-14.6828
掇	-14.6849
汊	-14.6849
霑	-14.685
逯	-14.687
芫	-14.687
晌	-14.687
蓑	-14.687
珣	-14.687
跖	-14.6912
槛	-14.6927
倌	-14.6932
奭	-14.6932
蠹	-14.6933
하	-14.6933
ա	-14.6933
愍	-14.6954
ف	-14.6954
睐	-14.6973
ð	-14.6975
佶	-14.6996
雎	-14.6997
Φ	-14.7016
骈	-14.7016
纥	-14.7037
馊	-14.706
読	-14.7081
撘	-14.7085
踊	-14.7102
溆	-14.7102
糌	-14.7102
Ж	-14.7102
ה	-14.7103
鲎	-14.7103
槭	-14.7124
晷	-14.7124
燿	-14.7124
痈	-14.7125
𫟼	-14.7145
獐	-14.7167
蔫	-14.7167
溟	-14.7167
捍	-14.7187
舎	-14.7188
⁄	-14.7208
Á	-14.7232
営	-14.7232
ヶ	-14.7232
仡	-14.7232
炘	-14.7253
洹	-14.7253
黟	-14.7253
茼	-14.7253
고	-14.7275
脲	-14.7275
镊	-14.7275
Σ	-14.7297
ɪ	-14.7297
劾	-14.7315
鳐	-14.7319
韐	-14.7319
ě	-14.734
ş	-14.7341
苕	-14.7341
樋	-14.7341
橹	-14.7341
肓	-14.7362
玆	-14.7362
怖	-14.7376
栢	-14.7385
拇	-14.74
険	-14.7406
翦	-14.7407
酊	-14.7429
鼹	-14.7429
ش	-14.7429
∠	-14.7449
鲡	-14.745
柊	-14.7451
谶	-14.7473
咂	-14.7473
檗	-14.7473
稲	-14.7495
↗	-14.7495
ㄧ	-14.7495
硖	-14.7495
郓	-14.7517
倜	-14.7517
匮	-14.754
𪸩	-14.754
掼	-14.7562
峤	-14.7562
薫	-14.7562
ר	-14.7562
咻	-14.7584
พ	-14.7584
筊	-14.7585
苎	-14.7585
贽	-14.7606
ǐ	-14.7607
榎	-14.7607
畦	-14.7607
ž	-14.7629
冴	-14.763
蛏	-14.7632
𫚉	-14.7652
杈	-14.7675
부	-14.7675
시	-14.7675
蹇	-14.7675
鎗	-14.7697
♥	-14.7697
𩾌	-14.7697
繇	-14.7698
菟	-14.772
蚱	-14.772
蚶	-14.7742
钋	-14.7743
銵	-14.7748
铍	-14.7766
砦	-14.7766
া	-14.7788
犟	-14.7789
螟	-14.7815
矸	-14.7834
罘	-14.7834
𩽾	-14.7835
橥	-14.7857
Ц	-14.7858
氩	-14.7882
辎	-14.7903
谗	-14.7903
佾	-14.7904
ล	-14.7904
藁	-14.7904
嘧	-14.7904
마	-14.7927
氐	-14.7927
楫	-14.795
珥	-14.795
鲵	-14.795
硚	-14.795
χ	-14.795
신	-14.795
慷	-14.795
玠	-14.7973
粧	-14.7974
翳	-14.802
庹	-14.8021
篙	-14.8043
庑	-14.8044
纨	-14.8044
钽	-14.8067
褛	-14.8067
摮	-14.8072
搽	-14.8091
笏	-14.8114
噙	-14.8115
辇	-14.8138
獣	-14.8138
嵬	-14.8138
礽	-14.8139
鹟	-14.8162
화	-14.8162
嘤	-14.8162
ý	-14.8185
忤	-14.8186
峠	-14.821
铊	-14.8233
학	-14.8233
龌	-14.8234
訾	-14.8235
痨	-14.8257
伢	-14.8257
ÿ	-14.8258
霊	-14.8282
耷	-14.8306
靥	-14.8306
鸨	-14.833
硐	-14.833
臾	-14.8354
碓	-14.8354
鸬	-14.8354
旮	-14.8354
舐	-14.8356
Э	-14.8378
민	-14.8378
蝮	-14.8378
어	-14.8378
悫	-14.8401
棂	-14.8402
菘	-14.8403
钎	-14.8427
噤	-14.8427
ี	-14.8427
ぴ	-14.8427
値	-14.8427
滓	-14.8428
ń	-14.8476
淝	-14.8501
貉	-14.8501
甑	-14.8525
ა	-14.8525
¤	-14.855
譬	-14.8561
喹	-14.8574
妪	-14.8574
葭	-14.8575
勖	-14.8599
鲆	-14.8599
榖	-14.8599
韪	-14.86
忾	-14.86
Ο	-14.8624
廪	-14.8649
聩	-14.8649
전	-14.8649
ʔ	-14.8674
蛔	-14.8675
囝	-14.8675
诳	-14.868
蒯	-14.8699
椽	-14.8699
楸	-14.8699
済	-14.8699
屐	-14.8699
乗	-14.87
Ü	-14.8724
ả	-14.8724
哌	-14.8725
湔	-14.8727
상	-14.875
顼	-14.875
𫖯	-14.875
	-14.8775
ز	-14.8775
苴	-14.8775
谴	-14.88
歛	-14.88
圯	-14.8826
孖	-14.8826
선	-14.8826
泫	-14.8851
懑	-14.8851
棻	-14.8875
媾	-14.8902
ʒ	-14.8902
舨	-14.8927
鲿	-14.8928
桠	-14.8928
恂	-14.8928
铋	-14.8928
蝾	-14.8929
鳜	-14.8953
楝	-14.8953
髯	-14.8955
谄	-14.8978
琚	-14.8979
ל	-14.8979
嗟	-14.9005
莿	-14.9005
鹚	-14.9005
경	-14.9031
绡	-14.9031
蹑	-14.9056
煖	-14.9056
𫚭	-14.9056
ช	-14.9057
嘭	-14.9057
교	-14.9083
癞	-14.9083
圪	-14.9109
蒴	-14.9109
稹	-14.9135
栄	-14.9135
胍	-14.9135
闿	-14.9136
湃	-14.916
钅	-14.9161
邙	-14.9161
稗	-14.9161
崆	-14.9161
일	-14.9162
崛	-14.9181
翀	-14.9188
籐	-14.9188
傥	-14.9214
ი	-14.9214
א	-14.9214
蹙	-14.924
嘚	-14.9241
韏	-14.9245
瞑	-14.9267
龊	-14.9267
荽	-14.9267
螭	-14.9294
燄	-14.9294
ุ	-14.9294
阋	-14.9294
勗	-14.9296
娉	-14.932
钖	-14.932
郤	-14.9321
미	-14.9347
謇	-14.9348
唛	-14.9374
谀	-14.9374
枥	-14.9374
疴	-14.9374
缛	-14.9374
犄	-14.9374
凼	-14.9401
구	-14.9401
褴	-14.9428
缶	-14.9428
沆	-14.9428
疡	-14.9455
ك	-14.9455
旯	-14.9455
舂	-14.9482
Š	-14.9482
囔	-14.9482
餽	-14.9509
은	-14.9509
椋	-14.9536
喺	-14.9564
조	-14.9564
谿	-14.9564
隣	-14.9564
唰	-14.9564
缧	-14.9574
髂	-14.9591
鸩	-14.9618
đ	-14.9619
ด	-14.9619
彞	-14.9619
郇	-14.9646
ต	-14.9646
장	-14.9674
	-14.9674
颙	-14.9674
爨	-14.97
绾	-14.9701
鲗	-14.9701
栌	-14.9702
洸	-14.9729
鸪	-14.9729
钇	-14.973
鲹	-14.973
濉	-14.973
瑭	-14.9757
伕	-14.9757
้	-14.9757
진	-14.9757
枳	-14.9784
镧	-14.9785
해	-14.9813
로	-14.9813
塩	-14.9813
铖	-14.9841
莜	-14.9841
ط	-14.9841
̇	-14.9841
유	-14.9869
銋	-14.9879
ะ	-14.9898
穰	-14.9898
咣	-14.9898
扦	-14.9926
蹩	-14.9926
╯	-14.9926
炝	-14.9954
叵	-14.9954
埙	-15.0011
墀	-15.0011
œ	-15.0011
្	-15.0011
郸	-15.0011
抜	-15.0012
吖	-15.004
撠	-15.0048
阕	-15.0068
Č	-15.0069
铌	-15.0069
鋆	-15.0069
艉	-15.0069
苌	-15.007
児	-15.0098
泺	-15.0126
竽	-15.0127
唷	-15.0155
庁	-15.0155
鹧	-15.0156
倏	-15.0184
氵	-15.0185
烜	-15.0185
峁	-15.0213
제	-15.0214
胝	-15.0214
潴	-15.0214
역	-15.0214
粄	-15.0243
湎	-15.0272
ˇ	-15.0272
่	-15.0272
骝	-15.0302
์	-15.0302
↙	-15.0302
산	-15.0302
㭴	-15.0302
ぃ	-15.0302
Α	-15.0302
郏	-15.0331
苁	-15.0331
刎	-15.0331
澂	-15.0332
姒	-15.0332
蠵	-15.036
暌	-15.0361
연	-15.0361
泔	-15.0361
蒡	-15.0361
椤	-15.039
螫	-15.039
氘	-15.0391
碲	-15.042
馑	-15.042
暸	-15.0421
邾	-15.0448
鹂	-15.045
薬	-15.045
鯓	-15.045
∕	-15.045
호	-15.045
尬	-15.0479
诂	-15.048
黠	-15.048
褔	-15.048
逶	-15.0482
旼	-15.054
锃	-15.054
検	-15.054
簌	-15.054
萋	-15.057
苄	-15.057
両	-15.057
현	-15.057
澪	-15.0601
瘗	-15.0603
璁	-15.0629
喏	-15.0631
桷	-15.0661
ṣ	-15.0661
보	-15.0662
弾	-15.0662
오	-15.0692
鲣	-15.0692
胗	-15.0692
佞	-15.0722
玨	-15.0722
聃	-15.0723
ộ	-15.0723
篾	-15.0723
绦	-15.0723
卍	-15.0753
蓖	-15.0753
嫦	-15.0754
妊	-15.0754
雫	-15.0754
砣	-15.0784
肼	-15.0784
ב	-15.0784
ㄚ	-15.0785
祆	-15.0786
乜	-15.0815
竑	-15.0815
呲	-15.0815
浠	-15.0815
枰	-15.0815
疥	-15.0816
滝	-15.0846
觥	-15.0847
≡	-15.0847
闩	-15.0877
〞	-15.0877
権	-15.0877
哏	-15.0878
僮	-15.0878
椹	-15.0908
ǔ	-15.0909
験	-15.0909
鮠	-15.0909
Π	-15.0909
ㄨ	-15.0909
垓	-15.0939
扺	-15.094
ấ	-15.094
剜	-15.0941
斎	-15.0971
铧	-15.0971
晩	-15.0972
ى	-15.0972
隷	-15.0972
旃	-15.0972
啣	-15.0976
亓	-15.1003
滟	-15.1003
哐	-15.1003
έ	-15.1003
蝓	-15.1005
瓘	-15.1034
崚	-15.1035
박	-15.1035
丼	-15.1035
缵	-15.1066
嚟	-15.1066
畬	-15.1067
摨	-15.1072
비	-15.1098
媞	-15.1098
绺	-15.1098
龢	-15.113
Å	-15.113
櫂	-15.113
欉	-15.113
篦	-15.1163
Κ	-15.1164
蒗	-15.1194
남	-15.1194
帰	-15.1195
璿	-15.1195
〓	-15.1195
渋	-15.1195
撌	-15.1205
髌	-15.1226
〝	-15.1227
ế	-15.1227
涠	-15.1227
埯	-15.1227
𫖮	-15.1228
哋	-15.1259
͡	-15.1259
จ	-15.1259
문	-15.1292
轱	-15.1292
ɕ	-15.1292
∨	-15.132
鸶	-15.1324
飏	-15.1324
砵	-15.1325
縻	-15.1325
瘜	-15.1327
瘿	-15.1357
鲂	-15.139
雑	-15.139
虻	-15.139
廍	-15.1422
臵	-15.1423
勅	-15.1423
劼	-15.1423
峄	-15.1455
隰	-15.1456
û	-15.1488
磴	-15.1489
砼	-15.1555
禛	-15.1622
胼	-15.1622
瑷	-15.1622
莼	-15.1656
糬	-15.1656
髪	-15.1656
醪	-15.1656
מ	-15.1656
樨	-15.1689
骢	-15.169
铈	-15.169
蟡	-15.169
罟	-15.1723
郃	-15.1724
ή	-15.1724
睨	-15.1758
筚	-15.1758
에	-15.1758
芨	-15.1758
镠	-15.1791
沄	-15.1792
玘	-15.1792
诨	-15.1827
▋	-15.186
潋	-15.186
梿	-15.186
偲	-15.186
ъ	-15.1895
囵	-15.1895
ת	-15.1895
呸	-15.1895
锝	-15.1895
渲	-15.1897
弢	-15.1929
Ю	-15.1929
氚	-15.193
铫	-15.1964
铷	-15.1964
谡	-15.1965
甈	-15.1968
薅	-15.1999
여	-15.1999
ồ	-15.1999
嶷	-15.2031
漥	-15.2034
镬	-15.2034
خ	-15.2034
甪	-15.2034
萜	-15.2069
滹	-15.2069
்	-15.2069
掾	-15.2069
颏	-15.2069
愠	-15.207
橐	-15.2104
啵	-15.2104
ț	-15.2104
蛞	-15.2139
湉	-15.2139
塱	-15.214
锨	-15.214
♂	-15.214
鮡	-15.2175
涙	-15.2175
锱	-15.2175
蘖	-15.221
洺	-15.2211
忖	-15.2211
鲮	-15.2246
є	-15.2246
ห	-15.2246
皴	-15.2246
บ	-15.2246
逄	-15.2246
㑩	-15.2247
소	-15.2282
嬿	-15.2282
湫	-15.2282
ố	-15.2318
薹	-15.2318
鸰	-15.2318
는	-15.2354
侈	-15.2355
喟	-15.2357
Λ	-15.239
訳	-15.2391
頼	-15.2391
撖	-15.2393
𫛭	-15.2427
̅	-15.2427
阯	-15.2427
镗	-15.2427
酆	-15.2463
琯	-15.2463
囫	-15.2463
그	-15.2463
드	-15.2463
⊥	-15.2468
嬢	-15.25
├	-15.25
윤	-15.25
ש	-15.25
ζ	-15.2536
驒	-15.2536
蝈	-15.2537
ễ	-15.2537
ि	-15.2537
苾	-15.2573
ས	-15.2573
蕤	-15.2574
挈	-15.2574
म	-15.2574
栞	-15.2574
揾	-15.2574
绉	-15.2611
蛐	-15.2612
妫	-15.2646
랑	-15.2648
囟	-15.2648
蝘	-15.2652
╭	-15.2685
蒽	-15.2685
न	-15.2685
魉	-15.2685
鄚	-15.2686
哙	-15.2721
徭	-15.2722
勰	-15.2722
안	-15.2723
茔	-15.2723
皲	-15.276
徵	-15.276
罍	-15.276
壸	-15.2764
駄	-15.2798
抻	-15.2798
أ	-15.2798
∧	-15.2832
ύ	-15.2836
ု	-15.2836
覚	-15.2836
희	-15.2836
강	-15.2836
鳏	-15.2836
泅	-15.2873
沺	-15.2873
⇒	-15.2874
ར	-15.2874
坭	-15.2874
鼋	-15.2874
胴	-15.2874
⇔	-15.2874
麿	-15.2874
ㄅ	-15.2912
傚	-15.2912
桫	-15.2912
惣	-15.2912
倣	-15.2912
공	-15.2912
詨	-15.2915
ն	-15.295
擤	-15.295
豸	-15.2951
銲	-15.2988
縄	-15.2989
凫	-15.3027
ậ	-15.3027
រ	-15.3027
楯	-15.3028
酢	-15.3028
鬻	-15.3066
槙	-15.3066
栱	-15.3069
魍	-15.3105
석	-15.3105
箬	-15.3105
敍	-15.3144
愎	-15.3144
逑	-15.3144
佻	-15.3144
鲻	-15.3144
醌	-15.3145
양	-15.3183
त	-15.3184
槲	-15.3184
隠	-15.3184
ོ	-15.3223
ា	-15.3223
↘	-15.3223
∈	-15.3223
방	-15.3223
铔	-15.3223
疖	-15.3223
亀	-15.3262
礡	-15.3262
哚	-15.3262
천	-15.3262
氽	-15.33
垌	-15.3301
└	-15.3302
彊	-15.3302
黩	-15.3302
燚	-15.3302
ř	-15.3302
辋	-15.3303
垡	-15.3342
阃	-15.3346
镞	-15.3381
貘	-15.3382
𫉄	-15.3382
茑	-15.3382
彘	-15.3422
း	-15.3422
ọ	-15.3422
宍	-15.3422
賸	-15.3462
菰	-15.3462
悭	-15.3462
瞟	-15.3462
嘣	-15.3462
吲	-15.3462
炱	-15.3462
鬲	-15.3502
狎	-15.3503
怏	-15.3503
氷	-15.3503
蝥	-15.351
蚋	-15.3543
嗳	-15.3543
니	-15.3543
မ	-15.3544
咭	-15.3544
怙	-15.3544
트	-15.3584
仫	-15.3585
捭	-15.3625
╰	-15.3625
ぺ	-15.3625
埇	-15.3625
沤	-15.3625
颀	-15.3626
靺	-15.3626
ṭ	-15.3666
蛸	-15.3666
饧	-15.3707
榧	-15.3708
ค	-15.3708
嵴	-15.3708
跬	-15.3708
姵	-15.3708
蛉	-15.3749
働	-15.3749
세	-15.3749
镫	-15.3749
钲	-15.375
鞨	-15.375
蚴	-15.3791
נ	-15.3791
岀	-15.3832
狍	-15.3833
야	-15.3833
恁	-15.3833
硷	-15.3833
匏	-15.3833
癀	-15.3833
堉	-15.3874
睥	-15.3875
Γ	-15.3875
瀣	-15.3875
埴	-15.3875
柁	-15.3916
勍	-15.3917
ɲ	-15.3917
	-15.3917
岜	-15.3917
ស	-15.3917
郄	-15.3917
倶	-15.3918
翥	-15.3958
砜	-15.3959
滏	-15.396
抟	-15.4001
斉	-15.4002
煅	-15.4002
缬	-15.4002
冏	-15.4003
茌	-15.4003
绂	-15.4044
锔	-15.4044
犇	-15.4044
椴	-15.4045
劢	-15.4045
浈	-15.4045
ő	-15.4045
玢	-15.4087
ص	-15.4087
õ	-15.4088
疍	-15.413
ˊ	-15.413
„	-15.4131
効	-15.4131
≧	-15.4131
蝢	-15.4135
葫	-15.4174
鳙	-15.4174
勲	-15.4174
靽	-15.4174
狷	-15.4174
汜	-15.4174
湜	-15.4215
缫	-15.4217
蛄	-15.4217
骺	-15.4217
玹	-15.4218
蝚	-15.4221
鲠	-15.4261
袪	-15.4261
क	-15.4261
ိ	-15.4261
衿	-15.4261
硌	-15.4261
幪	-15.4305
ד	-15.4305
阄	-15.4305
邠	-15.4309
帯	-15.4349
년	-15.4349
応	-15.4349
柢	-15.4349
蝞	-15.4351
ぁ	-15.4393
鄄	-15.4393
疋	-15.4437
郾	-15.4437
忪	-15.4438
缦	-15.4438
鳔	-15.4481
요	-15.4482
駆	-15.4482
ʊ	-15.4482
馐	-15.4483
橿	-15.4483
∪	-15.4488
渌	-15.4527
བ	-15.4527
轾	-15.4527
鯙	-15.4527
曽	-15.4527
র	-15.4527
釆	-15.4527
면	-15.4527
ე	-15.4527
ṇ	-15.4571
趺	-15.4572
垟	-15.4572
碜	-15.4572
ր	-15.4572
缂	-15.4572
圏	-15.4572
曷	-15.4573
莨	-15.4575
啁	-15.4575
髙	-15.4617
妏	-15.4617
叒	-15.4617
怿	-15.4618
萄	-15.4618
䶮	-15.4664
瘝	-15.4668
敉	-15.4709
楮	-15.4711
挲	-15.4753
寔	-15.4753
桕	-15.4754
橼	-15.4754
毖	-15.4754
ल	-15.4754
绻	-15.4755
佺	-15.4755
玎	-15.48
狛	-15.48
재	-15.48
孬	-15.4801
銆	-15.4846
鸲	-15.4847
棨	-15.4847
苖	-15.4847
ğ	-15.4847
ớ	-15.4847
牺	-15.4893
怛	-15.4893
ក	-15.4893
ầ	-15.4893
䜣	-15.4893
锕	-15.4894
跻	-15.4934
砟	-15.4939
ĩ	-15.494
≦	-15.494
𪨶	-15.494
♡	-15.494
墣	-15.494
阊	-15.4987
叕	-15.4987
鹡	-15.4987
송	-15.4987
င	-15.4987
蒟	-15.4987
镔	-15.4987
豕	-15.499
缟	-15.5034
戢	-15.5034
裾	-15.5034
葶	-15.5034
绔	-15.5034
圹	-15.5034
氖	-15.5036
ǒ	-15.5081
诓	-15.5081
ာ	-15.5082
嵙	-15.5129
ག	-15.5129
翕	-15.5129
鵙	-15.5129
缱	-15.5129
瓠	-15.5177
艹	-15.5177
薷	-15.5177
焼	-15.5177
昝	-15.5177
최	-15.5177
ศ	-15.5177
ḥ	-15.5177
炆	-15.5177
𪟝	-15.5225
眭	-15.5225
ک	-15.5225
ע	-15.5225
鹩	-15.5225
蚺	-15.5225
炁	-15.5225
枸	-15.5273
蹚	-15.5273
柝	-15.5273
眦	-15.5273
啷	-15.5273
舾	-15.5274
頧	-15.5278
劻	-15.5321
跶	-15.5322
喾	-15.5322
継	-15.537
赧	-15.5371
̯	-15.5371
逖	-15.5371
蝼	-15.5372
ང	-15.542
ę	-15.542
蜉	-15.5424
闼	-15.5469
単	-15.5469
毬	-15.5519
酞	-15.5519
ɐ	-15.5519
ㄟ	-15.5519
渕	-15.5519
铑	-15.5566
荩	-15.5568
ắ	-15.5568
प	-15.5568
橄	-15.5569
庥	-15.5618
菽	-15.5618
ј	-15.5618
鸻	-15.5618
ո	-15.5618
स	-15.5618
殄	-15.5619
瘚	-15.5619
沩	-15.5668
笫	-15.5668
啲	-15.5668
Ε	-15.5669
ئ	-15.5669
嗽	-15.5718
徬	-15.5719
窣	-15.5719
柽	-15.5719
怄	-15.572
鲥	-15.5769
珽	-15.577
冨	-15.577
壊	-15.577
용	-15.577
鳊	-15.577
聒	-15.577
蒻	-15.577
髦	-15.5852
태	-15.5872
회	-15.5872
ą	-15.5872
聡	-15.5872
戯	-15.5872
ㄒ	-15.5872
군	-15.5872
俅	-15.5872
扞	-15.5923
琤	-15.5924
潲	-15.5924
만	-15.5924
颡	-15.5924
蝵	-15.5925
ད	-15.5975
愔	-15.5975
ʼ	-15.5975
硏	-15.5976
내	-15.5976
ぇ	-15.6028
娈	-15.6028
圮	-15.6028
∟	-15.6029
徴	-15.608
暠	-15.6081
锛	-15.6132
暁	-15.6132
龅	-15.6132
을	-15.6133
觚	-15.6133
무	-15.6133
肟	-15.6133
甇	-15.6142
髹	-15.6185
্	-15.6185
钐	-15.6238
ी	-15.6239
笪	-15.6239
垕	-15.6239
錾	-15.6239
筮	-15.6292
𫊻	-15.6292
娌	-15.6292
ψ	-15.6292
Μ	-15.6292
耨	-15.6293
獢	-15.6294
囗	-15.6344
俵	-15.6346
呒	-15.6346
濞	-15.6346
蕹	-15.6346
ɣ	-15.6346
澶	-15.6346
嫘	-15.6347
Ä	-15.6399
ヲ	-15.64
髭	-15.64
울	-15.64
棹	-15.64
処	-15.64
尪	-15.64
铙	-15.6401
貊	-15.6401
န	-15.6454
ป	-15.6454
笭	-15.6454
檩	-15.6455
剡	-15.6455
砳	-15.6509
द	-15.6509
馓	-15.6509
垧	-15.6509
蒹	-15.6509
槊	-15.6509
悱	-15.6563
燐	-15.6564
塍	-15.6564
鳀	-15.6564
镨	-15.6564
帙	-15.6564
畀	-15.6564
仉	-15.6619
樯	-15.6619
檠	-15.6619
왕	-15.6619
覇	-15.6619
य	-15.6619
𪫺	-15.6627
箓	-15.6674
ㄇ	-15.6674
辂	-15.6675
挙	-15.6675
რ	-15.6675
钫	-15.6675
俋	-15.673
廨	-15.673
跹	-15.673
槁	-15.6731
纡	-15.6731
敺	-15.6737
व	-15.6787
腧	-15.6787
溉	-15.6842
箧	-15.6843
卐	-15.6843
孓	-15.6843
犰	-15.6843
阱	-15.6899
薜	-15.69
頔	-15.69
鸸	-15.69
黻	-15.69
淯	-15.69
병	-15.69
廸	-15.69
笳	-15.6901
Ι	-15.6902
妯	-15.6957
戆	-15.6957
呓	-15.6957
鹋	-15.6957
狳	-15.6957
淸	-15.7014
哞	-15.7015
鬘	-15.7015
╮	-15.7015
ေ	-15.7015
卟	-15.7015
缑	-15.707
赜	-15.7071
瞋	-15.7072
중	-15.7072
ུ	-15.7072
滉	-15.7072
ן	-15.7073
鳇	-15.713
̍	-15.713
ธ	-15.7131
钌	-15.7131
筼	-15.7131
溘	-15.7131
◤	-15.7134
瀞	-15.7189
猁	-15.7189
衽	-15.7189
แ	-15.7189
鼯	-15.7189
İ	-15.7189
斫	-15.7189
ề	-15.7189
旳	-15.7189
貍	-15.7191
菫	-15.7197
譛	-15.7201
脳	-15.7247
髑	-15.7248
坌	-15.7248
승	-15.7248
渉	-15.7248
拏	-15.7306
锠	-15.7307
ན	-15.7307
명	-15.7307
鹀	-15.7307
종	-15.7307
诜	-15.7307
浤	-15.7308
綝	-15.7365
ི	-15.7366
ξ	-15.7367
들	-15.7367
청	-15.7367
皝	-15.7368
亶	-15.7426
猞	-15.7426
岢	-15.7426
ლ	-15.7427
枱	-15.7427
傕	-15.7427
Ó	-15.7484
阏	-15.7485
མ	-15.7487
咝	-15.7487
鸱	-15.7487
戗	-15.7487
笄	-15.7487
魑	-15.7487
巯	-15.7487
禩	-15.7488
ʂ	-15.7547
揠	-15.7547
┘	-15.7547
ს	-15.7547
蠊	-15.7547
仵	-15.7548
珰	-15.7607
蒺	-15.7607
跸	-15.7608
홍	-15.7608
黢	-15.7608
䲢	-15.7608
َ	-15.7608
癔	-15.7609
暻	-15.7609
黥	-15.7669
袴	-15.7669
ြ	-15.767
Î	-15.773
趄	-15.7731
窳	-15.7731
鞮	-15.7731
藨	-15.7731
罅	-15.7731
従	-15.7732
邴	-15.7734
迨	-15.7736
侩	-15.7793
ុ	-15.7793
玦	-15.7793
☉	-15.7793
昺	-15.7794
踟	-15.7856
蔴	-15.7856
鹇	-15.7856
洳	-15.7857
禊	-15.7918
逦	-15.7919
Ž	-15.7919
蛲	-15.7921
翚	-15.7982
垃	-15.7982
鹱	-15.7982
鲃	-15.7982
姮	-15.7982
غ	-15.7982
ʻ	-15.7983
ṃ	-15.7983
단	-15.8046
˧	-15.8046
광	-15.8046
ɾ	-15.8046
鹎	-15.8046
獴	-15.8046
棪	-15.8046
逧	-15.806
簕	-15.811
터	-15.811
∑	-15.811
ė	-15.811
廻	-15.811
鮈	-15.811
哝	-15.811
铕	-15.811
渟	-15.811
憓	-15.8112
縁	-15.8174
과	-15.8174
က	-15.8175
幷	-15.8175
蕻	-15.8175
Ç	-15.8238
趔	-15.8239
壆	-15.8239
荘	-15.8239
ম	-15.8239
蹠	-15.8239
鋐	-15.8239
ณ	-15.8239
ի	-15.8239
曌	-15.824
憍	-15.824
轳	-15.824
憿	-15.824
軽	-15.8305
씨	-15.8305
暝	-15.8305
疳	-15.8305
瘥	-15.8312
倨	-15.837
労	-15.8371
Θ	-15.8371
嗥	-15.8378
禤	-15.8436
衾	-15.8437
柃	-15.8437
瑢	-15.8437
관	-15.8437
ח	-15.8437
晙	-15.8437
逋	-15.844
蝑	-15.8441
恚	-15.8502
曩	-15.8502
雠	-15.8503
窓	-15.8503
노	-15.8503
◢	-15.8503
ե	-15.8503
ż	-15.8503
嫱	-15.8504
弇	-15.8569
鑛	-15.857
龇	-15.857
˥	-15.857
雩	-15.8571
ु	-15.8571
ម	-15.8571
畋	-15.8637
帏	-15.8638
蒌	-15.8638
ไ	-15.8638
준	-15.8638
โ	-15.8638
치	-15.8638
箄	-15.8644
缗	-15.8706
沬	-15.8706
배	-15.8706
卬	-15.8706
ứ	-15.8706
타	-15.8706
箎	-15.8707
躄	-15.8774
楙	-15.8775
ল	-15.8775
Ν	-15.8775
欤	-15.8775
殛	-15.8843
衲	-15.8843
ợ	-15.8844
跗	-15.8844
ེ	-15.8844
蜑	-15.8847
栒	-15.8913
呪	-15.8913
게	-15.8913
菝	-15.8913
ង	-15.8913
ज	-15.8913
Β	-15.8913
တ	-15.8913
祓	-15.8913
僎	-15.8916
敶	-15.8924
毐	-15.8982
瘼	-15.8982
骉	-15.8983
衄	-15.8983
鏊	-15.8983
葜	-15.8983
蓣	-15.8983
백	-15.8983
浉	-15.8983
畚	-15.8983
嗉	-15.8991
擃	-15.8992
ţ	-15.9053
래	-15.9053
바	-15.9053
ន	-15.9053
耜	-15.9053
ข	-15.9054
㓥	-15.9054
¬	-15.9121
絜	-15.9122
禳	-15.9124
毌	-15.9124
曈	-15.9124
철	-15.9124
ู	-15.9124
ض	-15.9124
坩	-15.9124
ћ	-15.9124
𫚒	-15.9124
娭	-15.9124
파	-15.9125
髁	-15.9125
瞇	-15.9125
谠	-15.9125
纟	-15.9125
皞	-15.9127
熘	-15.9194
嘏	-15.9194
墬	-15.9196
钬	-15.9196
┌	-15.9196
焓	-15.9196
ह	-15.9196
炣	-15.9196
枧	-15.9196
毑	-15.9196
당	-15.9196
嵛	-15.9196
磘	-15.9267
蹰	-15.9267
皐	-15.9267
瓌	-15.9267
ন	-15.9268
כ	-15.9268
蓊	-15.9268
犽	-15.9268
涑	-15.9339
砬	-15.9339
鲧	-15.934
┼	-15.934
妁	-15.934
尙	-15.934
پ	-15.934
崀	-15.934
筜	-15.934
蝖	-15.9346
ө	-15.9413
蚧	-15.9413
骘	-15.9413
洌	-15.9413
蝻	-15.9415
倻	-15.9486
囓	-15.9486
㛤	-15.9486
埒	-15.9487
금	-15.9487
ရ	-15.9487
鲬	-15.9487
搧	-15.9487
镱	-15.9487
朊	-15.9487
菔	-15.9488
谵	-15.9492
赁	-15.956
寳	-15.9561
伥	-15.9561
踽	-15.9561
挿	-15.9561
∴	-15.9567
啗	-15.9568
鄜	-15.9635
诽	-15.9635
仏	-15.9635
埚	-15.9635
ە	-15.9635
艿	-15.9635
楢	-15.9636
柰	-15.9636
蟥	-15.9636
缳	-15.9636
僊	-15.9636
邽	-15.9709
跏	-15.971
饹	-15.971
蠲	-15.971
浍	-15.971
포	-15.971
े	-15.971
厐	-15.9711
운	-15.9711
إ	-15.9711
贠	-15.9711
騒	-15.9711
颟	-15.9711
牝	-15.9711
爿	-15.9786
黙	-15.9786
窸	-15.9786
喑	-15.9786
颕	-15.9786
ү	-15.9786
레	-15.9786
峣	-15.9786
거	-15.9786
ώ	-15.9787
畯	-15.9787
敹	-15.9794
侂	-15.9861
廃	-15.9863
蒾	-15.9863
ি	-15.9863
ּ	-15.9863
♀	-15.9863
ָ	-15.9863
苺	-15.9863
祼	-15.9863
妣	-15.9863
躅	-15.9863
Ś	-15.9939
ㄍ	-15.9939
腘	-15.9939
위	-15.994
饸	-15.994
식	-15.994
€	-15.994
모	-15.994
∀	-15.994
茍	-15.994
缣	-15.9942
ㄆ	-16.0016
妺	-16.0016
凃	-16.0017
ব	-16.0017
蝡	-16.0017
鹍	-16.0017
Ζ	-16.0017
䲗	-16.0017
ɯ	-16.0017
鱥	-16.0017
澔	-16.0017
燠	-16.0017
ო	-16.0017
ㄥ	-16.0018
蝔	-16.0018
𫚔	-16.0095
獬	-16.0095
苈	-16.0095
艶	-16.0095
임	-16.0095
˨	-16.0095
镚	-16.0096
嚯	-16.0096
舯	-16.0097
酃	-16.0173
煳	-16.0174
撺	-16.0174
ם	-16.0174
碶	-16.0174
荜	-16.0174
鬪	-16.0174
姘	-16.0175
驽	-16.0251
瓿	-16.0253
鹪	-16.0253
硗	-16.0253
斲	-16.0253
锽	-16.0253
즈	-16.0253
후	-16.0253
순	-16.0253
倮	-16.0254
瑊	-16.0254
顸	-16.0254
圉	-16.0333
牂	-16.0333
襦	-16.0333
齢	-16.0333
錞	-16.0409
栻	-16.0413
浄	-16.0413
黼	-16.0413
箪	-16.0414
দ	-16.0414
ヅ	-16.0414
辔	-16.0414
˩	-16.0414
舄	-16.0414
馦	-16.0414
鸷	-16.0414
憟	-16.0418
瘨	-16.0422
僰	-16.0493
淠	-16.0495
掲	-16.0495
踯	-16.0495
廔	-16.0495
篼	-16.0495
ぢ	-16.0495
俦	-16.0495
┳	-16.0495
̥	-16.0495
讵	-16.0496
䃅	-16.0496
迚	-16.0497
酔	-16.0499
芣	-16.05
Í	-16.0575
遹	-16.0577
鼱	-16.0577
狨	-16.0577
恹	-16.0577
鱀	-16.0577
﨑	-16.0577
埈	-16.0577
崤	-16.0577
钪	-16.0578
醅	-16.0578
璆	-16.0578
缯	-16.0659
剉	-16.066
埜	-16.066
〃	-16.066
媺	-16.066
翮	-16.066
豳	-16.066
谞	-16.0743
罴	-16.0743
吽	-16.0743
錬	-16.0743
暦	-16.0743
囯	-16.0743
嫲	-16.0744
葑	-16.0744
疠	-16.0746
¡	-16.0826
洧	-16.0827
聴	-16.0827
楦	-16.0827
嗞	-16.0827
壱	-16.0827
溲	-16.0827
樘	-16.0828
璈	-16.0828
榇	-16.0911
樗	-16.0912
ნ	-16.0912
프	-16.0912
郞	-16.0913
埵	-16.0913
繙	-16.0913
隹	-16.0913
搾	-16.0996
嗬	-16.0997
屾	-16.0997
厍	-16.0997
笤	-16.0997
縯	-16.0997
嫒	-16.0997
聍	-16.0997
ལ	-16.0998
너	-16.0998
鹣	-16.0998
훈	-16.0998
ק	-16.0998
翃	-16.0998
缡	-16.0998
腠	-16.0998
幛	-16.0998
苅	-16.0999
瑱	-16.1079
奁	-16.1083
傧	-16.1083
鲼	-16.1084
褙	-16.1084
평	-16.1084
Ş	-16.1084
髎	-16.1084
暾	-16.1084
逹	-16.1088
喨	-16.117
椟	-16.117
暎	-16.1171
鹨	-16.1171
디	-16.1171
褵	-16.1171
訚	-16.1171
耵	-16.1171
垴	-16.1171
瘖	-16.1171
钆	-16.1258
燹	-16.1258
녀	-16.1258
矬	-16.1258
	-16.1258
ւ	-16.1258
애	-16.1258
粢	-16.1258
崐	-16.1258
鄣	-16.1258
嗫	-16.1259
蠓	-16.1259
卣	-16.1259
穑	-16.1259
㹴	-16.1346
熜	-16.1347
衹	-16.1347
와	-16.1347
토	-16.1347
垵	-16.1347
镪	-16.1347
브	-16.1347
창	-16.1347
생	-16.1347
瘰	-16.1347
埝	-16.1347
ត	-16.1347
烺	-16.1347
ပ	-16.1347
형	-16.1347
廋	-16.1347
Æ	-16.1436
嗄	-16.1436
稃	-16.1436
황	-16.1436
ג	-16.1436
ɨ	-16.1436
간	-16.1436
鱚	-16.1436
韡	-16.1436
음	-16.1436
계	-16.1436
ㄤ	-16.1436
ְ	-16.1436
伋	-16.1526
昪	-16.1526
ํ	-16.1526
唵	-16.1526
ỹ	-16.1526
ɦ	-16.1526
க	-16.1526
〒	-16.1526
箜	-16.1526
汭	-16.1526
𫍯	-16.1527
郛	-16.1528
宀	-16.1528
寤	-16.1617
ྱ	-16.1617
缁	-16.1617
玏	-16.1617
ủ	-16.1617
‡	-16.1617
차	-16.1617
더	-16.1617
棰	-16.1617
棼	-16.1617
ᠠ	-16.1617
慜	-16.1617
颲	-16.1625
赍	-16.1708
韮	-16.1709
镏	-16.1709
焐	-16.1709
酦	-16.1709
鋕	-16.1709
람	-16.1709
მ	-16.1709
髡	-16.1712
頝	-16.1723
ṛ	-16.1801
嘬	-16.1801
踼	-16.1801
Ō	-16.1801
髀	-16.1801
འ	-16.1801
예	-16.1801
크	-16.1801
러	-16.1802
逡	-16.1802
锇	-16.1802
馃	-16.1802
玙	-16.1893
卮	-16.1894
屺	-16.1895
ग	-16.1895
ụ	-16.1895
煚	-16.1895
䌷	-16.1895
𫍽	-16.1989
啱	-16.1989
顕	-16.1989
행	-16.1989
伧	-16.1989
剀	-16.1989
့	-16.1989
狲	-16.1989
덕	-16.1989
戋	-16.1989
赂	-16.2084
铪	-16.2084
舣	-16.2084
복	-16.2084
פ	-16.2085
ภ	-16.2085
篌	-16.2085
루	-16.2085
桤	-16.2085
환	-16.2085
鲩	-16.2085
黉	-16.2085
禔	-16.2085
掟	-16.2085
愆	-16.2085
鼇	-16.2179
噫	-16.218
捯	-16.2181
齁	-16.2181
睺	-16.2277
帔	-16.2278
忝	-16.2278
籓	-16.2278
巣	-16.2278
권	-16.2278
를	-16.2278
┣	-16.2278
ं	-16.2278
ื	-16.2278
荇	-16.2278
蓍	-16.2278
哂	-16.2278
塙	-16.2278
Ú	-16.2375
竦	-16.2376
↖	-16.2376
Ł	-16.2376
극	-16.2376
彳	-16.2376
窰	-16.2473
䴘	-16.2475
𦈡	-16.2475
踫	-16.2475
별	-16.2475
茀	-16.2475
յ	-16.2475
삼	-16.2475
혜	-16.2475
گ	-16.2475
┻	-16.2475
螽	-16.2476
祏	-16.2476
泖	-16.2573
蚨	-16.2574
嚭	-16.2575
건	-16.2575
廾	-16.2575
郿	-16.2575
揸	-16.2575
鼷	-16.2575
𫓴	-16.2575
噘	-16.2575
肜	-16.2576
∝	-16.2582
镅	-16.2676
ो	-16.2676
آ	-16.2676
冫	-16.2676
Τ	-16.2676
ۇ	-16.2676
‵	-16.2676
癿	-16.2676
蕞	-16.2676
ʨ	-16.2676
蕖	-16.2676
泚	-16.2678
芰	-16.2684
媪	-16.2775
仳	-16.2778
湣	-16.2778
铒	-16.2778
ỳ	-16.2778
屣	-16.2778
蚡	-16.2778
날	-16.2778
扱	-16.2778
ษ	-16.2778
瞽	-16.2778
譌	-16.2788
嫪	-16.288
砹	-16.288
蕗	-16.288
愓	-16.2881
疔	-16.2881
श	-16.2881
ி	-16.2881
搥	-16.2881
螅	-16.2881
欸	-16.2881
撚	-16.2881
徂	-16.2984
槑	-16.2985
𠮶	-16.2985
镄	-16.2985
猊	-16.2985
개	-16.2985
ヂ	-16.2985
丿	-16.2985
觇	-16.309
脔	-16.309
腚	-16.309
咥	-16.309
鬬	-16.309
ㄉ	-16.309
涷	-16.309
袛	-16.309
ʿ	-16.309
물	-16.309
ث	-16.309
ס	-16.309
জ	-16.3091
婬	-16.3196
悝	-16.3196
杩	-16.3197
阝	-16.3197
呑	-16.3197
ũ	-16.3197
ữ	-16.3197
უ	-16.3197
‬	-16.3197
炟	-16.3197
譲	-16.3197
劬	-16.3197
鎓	-16.3197
遄	-16.3197
̚	-16.3197
筌	-16.3197
菪	-16.3198
抨	-16.3303
黾	-16.3303
♭	-16.3304
栲	-16.3304
灬	-16.3304
피	-16.3304
ַ	-16.3304
두	-16.3304
荑	-16.3304
畊	-16.3304
勦	-16.331
∽	-16.3311
琎	-16.3412
磔	-16.3413
þ	-16.3413
䴙	-16.3413
柾	-16.3413
네	-16.3413
ু	-16.3413
澁	-16.3413
镮	-16.3413
달	-16.3413
็	-16.3413
ט	-16.3413
嚅	-16.3413
劄	-16.3413
忡	-16.3413
Χ	-16.3413
唭	-16.3414
傉	-16.3414
頞	-16.3429
晸	-16.3521
̈	-16.3522
嫄	-16.3522
漈	-16.3523
糢	-16.3523
颎	-16.3523
媵	-16.3523
岈	-16.3523
ㄌ	-16.3523
등	-16.3523
ვ	-16.3523
말	-16.3523
兎	-16.3523
䇲	-16.3523
嬬	-16.3523
봉	-16.3523
匂	-16.3523
鱵	-16.3523
濶	-16.3523
鄠	-16.3524
圾	-16.3524
忞	-16.3633
玚	-16.3633
̪	-16.3634
旛	-16.3634
ŭ	-16.3634
诌	-16.3634
铽	-16.3634
림	-16.3634
Ā	-16.3634
ㄠ	-16.3634
ổ	-16.3634
ㄢ	-16.3634
ء	-16.3634
숙	-16.3634
陔	-16.3634
蘼	-16.3634
秾	-16.3634
橛	-16.3634
倓	-16.3634
璪	-16.3636
刿	-16.3746
殍	-16.3746
揺	-16.3746
尴	-16.3746
糁	-16.3746
ா	-16.3746
À	-16.3746
ে	-16.3746
玗	-16.3746
肫	-16.3747
牖	-16.3747
礐	-16.3747
蝣	-16.3747
陬	-16.3747
髫	-16.3748
侔	-16.3858
驺	-16.3859
伡	-16.386
ী	-16.386
Ż	-16.386
卺	-16.386
歃	-16.386
티	-16.386
纛	-16.386
厳	-16.386
ִ	-16.386
袢	-16.386
蝷	-16.3865
澥	-16.3974
摭	-16.3974
讐	-16.3974
谂	-16.3974
̩	-16.3975
ງ	-16.3975
Й	-16.3975
靑	-16.3975
薗	-16.3975
鞫	-16.3977
규	-16.4091
Ρ	-16.4091
┐	-16.4091
粝	-16.4091
‿	-16.4091
弐	-16.4091
漙	-16.4091
煕	-16.4091
蟌	-16.4091
옥	-16.4091
魣	-16.4091
鲦	-16.4091
袆	-16.4091
镎	-16.4092
瀍	-16.4092
晧	-16.4092
皜	-16.4102
𫓺	-16.4208
월	-16.4209
烔	-16.4209
த	-16.4209
┓	-16.4209
ゝ	-16.4209
통	-16.4209
祤	-16.4209
직	-16.4209
པ	-16.4209
尢	-16.4209
靬	-16.4324
悰	-16.4327
纴	-16.4327
稣	-16.4327
柙	-16.4328
ტ	-16.4328
沕	-16.4328
呔	-16.4328
塽	-16.4328
轺	-16.4328
ɒ	-16.4328
讃	-16.4328
초	-16.4328
ক	-16.4328
Є	-16.4328
집	-16.4328
疪	-16.4328
북	-16.4328
ἀ	-16.4328
镥	-16.4328
琹	-16.4328
骓	-16.4328
𨱇	-16.4329
燏	-16.4444
洨	-16.4446
杪	-16.4448
투	-16.4448
睚	-16.4448
瀹	-16.4448
ɥ	-16.4448
տ	-16.4448
拝	-16.4448
ญ	-16.4448
⟩	-16.4448
⟨	-16.4448
耧	-16.4449
ㄐ	-16.4449
戽	-16.4449
崞	-16.4449
罽	-16.4452
蟷	-16.446
夤	-16.4568
籴	-16.4568
།	-16.457
堞	-16.457
褡	-16.457
镤	-16.457
흥	-16.457
嵖	-16.457
酝	-16.457
舗	-16.457
च	-16.457
玕	-16.457
呉	-16.457
尓	-16.457
潾	-16.457
ʕ	-16.457
禑	-16.4571
撱	-16.4571
諲	-16.4571
愦	-16.4575
摀	-16.4693
𫛚	-16.4693
幵	-16.4693
欹	-16.4693
忸	-16.4694
ប	-16.4694
կ	-16.4694
ս	-16.4694
獏	-16.4694
镡	-16.4694
ә	-16.4694
လ	-16.4694
溁	-16.4694
禟	-16.4698
ḍ	-16.4817
虺	-16.4818
媗	-16.4818
矧	-16.4818
铗	-16.4819
呙	-16.4819
鮗	-16.4819
彅	-16.4819
蜞	-16.4819
심	-16.4819
ِ	-16.4819
胂	-16.4819
卲	-16.4819
驩	-16.4819
𤩽	-16.4819
Щ	-16.4819
槺	-16.4819
혁	-16.4819
猢	-16.4819
烝	-16.482
倥	-16.4821
愬	-16.4939
豨	-16.4942
膂	-16.4945
诔	-16.4945
瘆	-16.4945
স	-16.4945
襞	-16.4945
ट	-16.4945
赑	-16.4945
汧	-16.4945
圝	-16.4945
코	-16.4945
ہ	-16.4945
ใ	-16.4945
ể	-16.4945
버	-16.4945
鯻	-16.4945
ْ	-16.4945
불	-16.4945
梠	-16.4946
薤	-16.4946
荛	-16.5072
旄	-16.5073
煐	-16.5073
Υ	-16.5073
ự	-16.5073
າ	-16.5074
ນ	-16.5074
爌	-16.5074
♯	-16.5074
簃	-16.5074
름	-16.5074
洎	-16.5074
畛	-16.5074
ㄛ	-16.5074
菉	-16.5074
偬	-16.5074
昐	-16.5075
溽	-16.5076
禵	-16.5077
擧	-16.5201
丏	-16.5202
镲	-16.5203
箅	-16.5203
裥	-16.5203
গ	-16.5203
қ	-16.5203
카	-16.5203
礻	-16.5204
価	-16.5204
靘	-16.521
∫	-16.5213
瘣	-16.522
悛	-16.5334
囲	-16.5334
圀	-16.5335
偁	-16.5335
鈊	-16.5335
언	-16.5335
ّ	-16.5335
畷	-16.5335
ㄩ	-16.5335
亍	-16.5335
绗	-16.5335
殂	-16.5335
觋	-16.5335
데	-16.5335
茕	-16.5335
搆	-16.5335
晳	-16.5336
⊿	-16.5337
唎	-16.5463
笮	-16.5464
扌	-16.5467
镢	-16.5468
∥	-16.5468
埌	-16.5468
辏	-16.5468
妗	-16.5468
蟊	-16.5468
吿	-16.5468
寯	-16.5468
謢	-16.5468
ў	-16.5468
魃	-16.5468
𬬻	-16.5468
汚	-16.5468
령	-16.5468
យ	-16.5468
თ	-16.5468
゚	-16.5468
渼	-16.5468
ச	-16.5468
╳	-16.5469
鲘	-16.5469
霙	-16.5469
偓	-16.547
燔	-16.5603
兕	-16.5603
餍	-16.5603
합	-16.5603
巂	-16.5603
徊	-16.5603
ˌ	-16.5603
啭	-16.5603
ử	-16.5604
발	-16.5604
စ	-16.5604
처	-16.5604
爀	-16.5604
鵺	-16.5604
賛	-16.5604
憌	-16.5611
焢	-16.5739
胙	-16.574
蒉	-16.574
ㄞ	-16.574
凖	-16.574
寘	-16.574
黧	-16.574
枨	-16.5741
郕	-16.5741
ɤ	-16.5741
ப	-16.5741
厎	-16.5741
반	-16.5741
צ	-16.5741
ㄈ	-16.5741
𫚕	-16.5741
ŏ	-16.5741
霨	-16.5741
ʉ	-16.5741
憙	-16.5741
桴	-16.5741
槇	-16.5742
稙	-16.5742
嵜	-16.5748
晄	-16.5757
懐	-16.5878
笊	-16.5878
桄	-16.5879
沚	-16.5879
悩	-16.5879
𦛨	-16.5879
䴕	-16.5879
丌	-16.5879
硇	-16.5879
려	-16.5879
설	-16.5879
懔	-16.5879
목	-16.5879
ခ	-16.5879
艄	-16.5879
ז	-16.5879
⋅	-16.5879
ွ	-16.588
嫫	-16.588
翙	-16.588
鉏	-16.588
廆	-16.588
鋡	-16.5886
¿	-16.6018
庯	-16.6019
篪	-16.6019
焄	-16.602
綮	-16.602
독	-16.602
Η	-16.602
ㄕ	-16.602
臓	-16.602
粜	-16.602
악	-16.602
朿	-16.602
ம	-16.602
Ἀ	-16.602
길	-16.602
栊	-16.602
佉	-16.6021
浞	-16.6021
𫘜	-16.6021
鋹	-16.6162
椐	-16.6163
浥	-16.6163
缲	-16.6163
裢	-16.6163
鮀	-16.6163
犭	-16.6163
檫	-16.6163
鼍	-16.6163
ˀ	-16.6163
谝	-16.6163
┬	-16.6163
ƒ	-16.6163
ယ	-16.6163
祧	-16.6163
瘕	-16.6163
প	-16.6163
哖	-16.6163
ʦ	-16.6163
廙	-16.6163
ぅ	-16.6164
溷	-16.6173
蠎	-16.6178
蝛	-16.6182
𫓧	-16.6307
彀	-16.6308
觃	-16.6308
骎	-16.6308
栳	-16.6308
釈	-16.6308
铥	-16.6308
蜮	-16.6308
锫	-16.6308
워	-16.6308
揿	-16.6308
酽	-16.6308
鍏	-16.6308
凊	-16.6308
棐	-16.6308
艸	-16.6308
ῦ	-16.6308
杌	-16.6308
သ	-16.6308
작	-16.6308
筇	-16.6308
ᠨ	-16.6308
詧	-16.6309
屃	-16.6453
檨	-16.6454
堍	-16.6454
糨	-16.6455
肪	-16.6455
ྲ	-16.6455
ㄎ	-16.6455
熺	-16.6455
橦	-16.6455
়	-16.6455
˦	-16.6455
ष	-16.6455
ျ	-16.6455
ㄑ	-16.6455
↺	-16.6455
린	-16.6455
გ	-16.6455
銭	-16.6455
姶	-16.6455
ㄣ	-16.6455
琲	-16.6455
瑈	-16.6456
蘧	-16.6456
麺	-16.6456
梼	-16.6457
尅	-16.6458
殑	-16.6604
珧	-16.6604
ㄙ	-16.6604
琄	-16.6604
怩	-16.6604
酎	-16.6604
杣	-16.6604
昜	-16.6604
浼	-16.6604
ㄏ	-16.6604
徼	-16.6604
骕	-16.6604
감	-16.6604
ព	-16.6604
疬	-16.6604
있	-16.6604
䗛	-16.6604
跩	-16.6605
춘	-16.6605
惫	-16.6605
근	-16.6605
裒	-16.6605
	-16.6605
烎	-16.6755
祔	-16.6755
欷	-16.6756
氇	-16.6756
甴	-16.6756
圧	-16.6756
氆	-16.6756
盉	-16.6756
夆	-16.6756
抉	-16.6756
抔	-16.6756
	-16.6756
Ψ	-16.6756
盦	-16.6756
ُ	-16.6756
黐	-16.6756
ʈ	-16.6756
ত	-16.6756
ல	-16.6756
渫	-16.6756
ី	-16.6756
圌	-16.6756
ㄓ	-16.6757
憯	-16.6758
皛	-16.6759
È	-16.6905
袓	-16.6906
琋	-16.6907
麹	-16.6907
纻	-16.6909
손	-16.6909
伷	-16.6909
攞	-16.6909
埏	-16.6909
秫	-16.6909
嚞	-16.6909
ီ	-16.691
𫝭	-16.691
垆	-16.691
噏	-16.691
鳠	-16.691
채	-16.691
테	-16.691
缃	-16.691
鳯	-16.691
ण	-16.691
▕	-16.691
旿	-16.691
邉	-16.691
屦	-16.691
牤	-16.691
┈	-16.691
箨	-16.6911
罨	-16.7065
洇	-16.7065
ㄝ	-16.7065
曱	-16.7065
迓	-16.7066
塆	-16.7066
ถ	-16.7066
辶	-16.7066
倢	-16.7066
য	-16.7066
洐	-16.7066
〡	-16.7066
岽	-16.7066
ர	-16.7066
ཆ	-16.7066
嵚	-16.7066
蠃	-16.7066
谖	-16.7066
ㄜ	-16.7066
[...]
