<unk>	0
▁the	-3.39432
,	-3.39538
.	-3.4151
s	-3.58291
▁to	-4.05171
▁of	-4.07137
▁and	-4.13316
▁a	-4.15461
▁in	-4.36114
-	-4.97979
▁that	-4.98419
▁is	-5.02681
’	-5.12607
▁for	-5.13102
'	-5.16278
▁on	-5.27961
t	-5.29713
▁was	-5.32172
▁with	-5.41923
▁The	-5.4412
▁it	-5.45365
▁I	-5.47544
▁	-5.52885
▁"	-5.54866
▁as	-5.62059
▁be	-5.69747
ing	-5.74747
ed	-5.76401
:	-5.77289
▁at	-5.80162
▁by	-5.82508
▁from	-5.86183
▁are	-5.86389
▁he	-5.86739
▁you	-5.88894
▁(	-5.91288
▁“	-5.94364
d	-5.94405
▁have	-5.94992
▁his	-5.98328
▁an	-6.03385
▁this	-6.06623
▁not	-6.08704
)	-6.1344
▁has	-6.18398
e	-6.22572
▁or	-6.23772
er	-6.31209
▁said	-6.32158
▁but	-6.32276
▁they	-6.34913
a	-6.36166
▁we	-6.37
▁will	-6.39942
▁their	-6.42727
re	-6.43258
▁had	-6.4407
▁de	-6.44986
▁can	-6.45373
▁were	-6.48309
▁A	-6.50512
m	-6.50909
▁who	-6.51696
▁one	-6.52166
y	-6.52728
▁In	-6.5347
▁her	-6.53604
▁more	-6.54581
▁all	-6.5532
"	-6.55539
▁which	-6.56675
ly	-6.57682
▁about	-6.59559
▁out	-6.59996
▁up	-6.65567
▁been	-6.65792
▁He	-6.68244
n	-6.68423
▁would	-6.68671
▁It	-6.69131
o	-6.72279
▁so	-6.75728
?	-6.76481
▁also	-6.77394
▁do	-6.79627
i	-6.8043
▁she	-6.85318
▁time	-6.88155
▁your	-6.88593
r	-6.88748
."	-6.90207
▁like	-6.90256
▁when	-6.91619
es	-6.92045
▁no	-6.92722
▁into	-6.93139
/	-6.93315
S	-6.94109
▁over	-6.94908
▁what	-6.95041
al	-6.95272
▁people	-6.95405
▁other	-6.96517
▁my	-6.97554
▁there	-6.9823
I	-6.98346
▁me	-7.00497
▁than	-7.00599
▁its	-7.01096
▁first	-7.02331
in	-7.02469
”	-7.02729
▁if	-7.03398
▁just	-7.06466
▁them	-7.07278
▁some	-7.09707
▁him	-7.11186
▁our	-7.11466
▁after	-7.11882
▁new	-7.12092
▁two	-7.12438
.”	-7.13536
en	-7.16018
;	-7.17882
▁–	-7.18928
▁only	-7.20719
▁could	-7.21002
ve	-7.21297
▁This	-7.23875
,”	-7.27536
▁get	-7.29853
▁back	-7.31614
▁S	-7.31764
th	-7.32425
▁But	-7.33933
▁—	-7.34181
,"	-7.36228
▁re	-7.38127
▁now	-7.38248
g	-7.38844
c	-7.39121
▁most	-7.39136
▁how	-7.39205
▁years	-7.39513
▁We	-7.40386
ll	-7.42777
▁-	-7.43044
▁any	-7.43441
▁where	-7.43683
▁year	-7.44109
▁because	-7.46746
▁make	-7.47452
k	-7.48294
▁then	-7.49347
!	-7.49711
▁being	-7.4973
▁even	-7.50294
▁way	-7.5115
▁la	-7.51434
b	-7.53675
▁before	-7.53935
▁these	-7.54444
▁un	-7.54695
to	-7.55081
▁many	-7.56091
▁And	-7.56107
l	-7.57781
▁through	-7.57991
▁know	-7.5804
▁work	-7.58338
▁well	-7.58661
u	-7.58965
▁made	-7.59552
ers	-7.59777
▁last	-7.60005
an	-7.60163
▁don	-7.60266
▁U	-7.60481
or	-7.60644
▁down	-7.61198
▁1	-7.6132
A	-7.61641
▁see	-7.61903
▁She	-7.6194
▁much	-7.64123
▁those	-7.64661
▁very	-7.64771
h	-7.65825
▁us	-7.67933
▁such	-7.68153
▁Trump	-7.68231
p	-7.68263
▁against	-7.68827
▁en	-7.69838
The	-7.70058
ar	-7.70187
▁while	-7.71087
▁'	-7.72476
▁think	-7.72606
▁use	-7.72617
).	-7.72892
de	-7.73304
▁did	-7.73337
▁go	-7.73406
▁off	-7.73467
C	-7.73784
▁should	-7.74
▁going	-7.74424
z	-7.74674
on	-7.7469
▁may	-7.74936
▁C	-7.74986
▁own	-7.75207
▁2	-7.7526
▁still	-7.75265
▁e	-7.75724
▁between	-7.75798
▁right	-7.76064
▁New	-7.76301
),	-7.76792
▁part	-7.76996
▁take	-7.77637
▁under	-7.77698
man	-7.77963
le	-7.78423
▁E	-7.78666
▁They	-7.78738
▁three	-7.78992
▁around	-7.79024
▁want	-7.80202
▁world	-7.80322
_	-7.80815
▁As	-7.80898
▁B	-7.81272
▁need	-7.81304
f	-7.81867
▁good	-7.81928
▁que	-7.81929
▁same	-7.83482
te	-7.83661
]	-7.84118
▁D	-7.84284
x	-7.84436
B	-7.84866
▁If	-7.85429
▁You	-7.86022
▁government	-7.86118
▁team	-7.86179
▁during	-7.87087
▁used	-7.87097
▁game	-7.87463
▁here	-7.88042
▁P	-7.88424
▁long	-7.89704
▁day	-7.90268
▁state	-7.90623
▁both	-7.91507
▁So	-7.92395
▁3	-7.92459
T	-7.92638
▁For	-7.92675
▁man	-7.92916
▁say	-7.9353
▁says	-7.93903
it	-7.93906
▁M	-7.94079
▁T	-7.94221
▁O	-7.95161
able	-7.95203
—	-7.953
▁There	-7.95682
ation	-7.96037
D	-7.96276
▁18	-7.97008
▁[	-7.973
F	-7.97621
▁since	-7.98278
▁end	-7.9858
...	-7.98659
us	-7.98683
▁home	-7.99262
ic	-7.99567
▁That	-8.0049
▁life	-8.0071
▁per	-8.01099
na	-8.01177
com	-8.01513
▁told	-8.01527
▁R	-8.02771
▁really	-8.02852
▁G	-8.03589
K	-8.04027
▁10	-8.04191
▁F	-8.04708
▁found	-8.05429
ne	-8.0548
▁come	-8.05612
G	-8.05658
▁another	-8.06853
▁public	-8.07419
▁On	-8.0776
▁including	-8.08792
▁‘	-8.09298
の	-8.10159
▁To	-8.10176
▁place	-8.10386
▁each	-8.10442
▁help	-8.10698
▁K	-8.11198
2	-8.11978
▁season	-8.12125
▁best	-8.12138
▁number	-8.12991
▁too	-8.13122
▁i	-8.13212
1	-8.13232
▁next	-8.13351
▁few	-8.13389
▁something	-8.13424
W	-8.13719
P	-8.14055
▁never	-8.14177
il	-8.1428
▁4	-8.14315
▁high	-8.14418
▁se	-8.14508
ity	-8.14796
ra	-8.15026
la	-8.15075
▁set	-8.15279
ch	-8.16025
▁every	-8.16177
▁second	-8.16195
the	-8.16372
is	-8.17836
ma	-8.17918
▁system	-8.18047
▁N	-8.1825
ment	-8.18585
▁s	-8.18694
el	-8.19113
w	-8.19129
▁5	-8.19207
▁didn	-8.19211
▁con	-8.19299
▁different	-8.197
▁left	-8.19836
ta	-8.20125
▁called	-8.20355
、	-8.20456
and	-8.21254
▁look	-8.21313
N	-8.21654
▁American	-8.21707
▁might	-8.21714
▁things	-8.21893
?"	-8.21967
▁No	-8.22167
▁o	-8.22348
▁When	-8.22537
ist	-8.22626
▁country	-8.22945
co	-8.23056
We	-8.23304
▁later	-8.23391
▁group	-8.23408
▁million	-8.23549
M	-8.24024
▁support	-8.24334
▁Re	-8.24368
▁show	-8.24391
▁without	-8.24463
▁United	-8.24504
ia	-8.24677
▁find	-8.2552
▁got	-8.25556
▁L	-8.25629
E	-8.26694
▁play	-8.26751
ro	-8.27037
▁lot	-8.27193
ion	-8.27519
▁does	-8.2772
▁again	-8.28002
▁little	-8.28035
▁company	-8.28216
v	-8.28322
▁family	-8.28479
ton	-8.28504
3	-8.29164
▁case	-8.29835
▁until	-8.29996
as	-8.30022
▁week	-8.30149
▁US	-8.30251
▁point	-8.31092
▁At	-8.31274
▁put	-8.31371
un	-8.31455
no	-8.31665
▁away	-8.32524
▁four	-8.32591
▁better	-8.3279
ul	-8.33015
▁took	-8.33123
▁d	-8.3357
▁power	-8.33888
▁head	-8.34377
▁W	-8.34412
se	-8.34553
",	-8.34564
ter	-8.34896
▁came	-8.35546
▁data	-8.35805
▁De	-8.35943
▁co	-8.36005
▁di	-8.36007
▁city	-8.36182
▁great	-8.36306
▁top	-8.36671
▁After	-8.36802
(	-8.36915
▁What	-8.37083
▁men	-8.37267
▁name	-8.37634
▁change	-8.37656
▁far	-8.37762
▁using	-8.37929
H	-8.37981
▁won	-8.38333
▁l	-8.38438
me	-8.38698
ir	-8.38775
▁police	-8.38804
▁La	-8.39634
▁H	-8.39674
ge	-8.40077
▁school	-8.40077
▁women	-8.40257
at	-8.40506
▁pre	-8.41831
▁already	-8.42022
et	-8.42517
▁y	-8.42682
j	-8.42706
▁car	-8.42756
ty	-8.43327
V	-8.43454
▁must	-8.43483
▁known	-8.4354
It	-8.43542
4	-8.43755
▁information	-8.43762
R	-8.4379
▁side	-8.43967
ism	-8.44152
be	-8.44332
do	-8.44381
▁always	-8.44484
am	-8.44652
▁One	-8.44929
".	-8.45228
ry	-8.45234
▁University	-8.45516
▁why	-8.45761
up	-8.4579
▁able	-8.46003
▁J	-8.46431
▁6	-8.46652
。	-8.46935
▁law	-8.47081
▁President	-8.47159
▁former	-8.47548
▁real	-8.47623
▁thing	-8.47696
▁hand	-8.47828
▁All	-8.48272
▁run	-8.48711
▁p	-8.4876
▁small	-8.49012
▁le	-8.49258
▁several	-8.49273
▁percent	-8.49671
L	-8.49695
▁local	-8.49785
ce	-8.5006
▁al	-8.50124
▁days	-8.50244
▁20	-8.50289
▁though	-8.50435
▁free	-8.50453
li	-8.50582
▁line	-8.50783
▁money	-8.5079
▁el	-8.50852
▁making	-8.50866
ie	-8.50957
▁water	-8.51034
▁went	-8.51248
▁less	-8.51268
▁da	-8.51377
é	-8.51455
▁open	-8.52057
▁become	-8.52078
▁order	-8.52135
▁enough	-8.52246
▁least	-8.52319
▁early	-8.52482
os	-8.52486
▁big	-8.52555
▁His	-8.52653
▁&	-8.52705
O	-8.52821
▁asked	-8.52888
▁important	-8.52938
▁working	-8.5294
▁past	-8.53064
da	-8.53305
ness	-8.53418
▁start	-8.53461
▁fact	-8.53552
▁full	-8.54053
▁war	-8.54181
▁give	-8.54336
ive	-8.54767
▁person	-8.54836
ur	-8.55056
▁12	-8.55058
▁face	-8.55452
▁States	-8.55855
▁children	-8.55926
▁House	-8.55951
▁report	-8.55996
▁media	-8.56049
▁May	-8.56319
est	-8.56611
▁political	-8.56765
▁York	-8.56896
▁State	-8.57058
▁five	-8.57082
▁keep	-8.57293
▁V	-8.57294
▁die	-8.57352
▁pro	-8.57443
▁hard	-8.5765
▁thought	-8.57849
year	-8.57907
5	-8.58098
▁An	-8.58184
▁across	-8.58458
▁according	-8.58532
▁social	-8.58695
ci	-8.58768
▁ever	-8.5892
▁president	-8.59082
▁following	-8.59087
▁within	-8.59301
▁having	-8.59563
▁7	-8.59887
son	-8.60189
ate	-8.6021
▁doesn	-8.60346
▁am	-8.60565
▁St	-8.60604
▁area	-8.60647
ca	-8.60689
▁business	-8.60828
age	-8.60909
▁story	-8.61396
▁campaign	-8.61448
▁However	-8.61496
▁process	-8.61505
▁Mr	-8.61536
▁seen	-8.61539
▁night	-8.61539
ine	-8.61664
▁often	-8.62456
▁15	-8.63
▁8	-8.63065
go	-8.63208
▁film	-8.63377
▁Al	-8.63452
を	-8.63559
▁With	-8.63722
▁large	-8.6406
▁National	-8.64308
▁let	-8.64315
▁started	-8.64318
▁became	-8.64355
ten	-8.64377
▁non	-8.64739
▁feel	-8.651
lo	-8.65176
ting	-8.65446
▁old	-8.65667
▁community	-8.6593
▁series	-8.65974
ni	-8.66038
ian	-8.6607
▁video	-8.66123
▁Do	-8.66328
▁9	-8.66598
▁members	-8.66685
▁today	-8.66728
▁along	-8.66799
▁World	-8.66971
▁John	-8.67047
▁once	-8.67058
ad	-8.67078
▁post	-8.67213
ary	-8.67585
▁single	-8.67851
▁call	-8.68007
–	-8.6801
Y	-8.68166
▁doing	-8.68259
▁human	-8.68262
▁book	-8.6827
ner	-8.68348
▁Le	-8.6835
▁health	-8.68538
st	-8.68736
old	-8.68743
▁care	-8.68756
ling	-8.68891
▁done	-8.68931
▁sure	-8.68936
U	-8.69095
▁kind	-8.69111
▁--	-8.69504
ted	-8.70026
▁future	-8.70026
▁course	-8.70284
den	-8.70434
▁actually	-8.70442
▁deal	-8.70749
▁love	-8.70859
▁11	-8.7087
に	-8.70997
▁live	-8.71043
▁given	-8.71124
▁released	-8.71192
▁together	-8.71753
が	-8.71804
▁der	-8.7191
▁games	-8.72232
▁national	-8.72246
▁began	-8.72296
ck	-8.72423
▁believe	-8.72494
▁based	-8.72578
▁among	-8.73125
▁possible	-8.73157
mo	-8.73234
▁control	-8.73265
ke	-8.7343
ha	-8.73531
▁whether	-8.7398
▁level	-8.73982
▁North	-8.74018
id	-8.74108
ka	-8.74144
ak	-8.74152
▁yet	-8.74176
▁months	-8.74214
um	-8.74224
▁party	-8.74298
▁example	-8.743
▁project	-8.74718
▁17	-8.74722
ley	-8.75002
▁times	-8.75068
ti	-8.75204
▁While	-8.75264
▁market	-8.7529
▁March	-8.75354
▁due	-8.75429
X	-8.75544
▁behind	-8.75746
▁Co	-8.75982
7	-8.76091
J	-8.76143
▁likely	-8.76314
6	-8.76381
▁South	-8.76464
ated	-8.76738
▁major	-8.76762
▁City	-8.76844
▁body	-8.77071
▁short	-8.77352
▁final	-8.77467
▁move	-8.77608
▁service	-8.77782
▁players	-8.7779
▁added	-8.77884
▁Na	-8.77984
va	-8.78118
▁et	-8.78302
▁pay	-8.78344
▁problem	-8.78427
▁16	-8.78444
8	-8.78519
▁history	-8.78713
ga	-8.78794
▁getting	-8.78977
▁China	-8.79014
▁death	-8.79204
▁played	-8.79268
▁available	-8.79638
ant	-8.79838
▁means	-8.80057
▁looking	-8.80074
▁held	-8.80541
▁plan	-8.80543
rs	-8.80544
▁close	-8.80559
▁na	-8.80595
▁news	-8.80605
di	-8.80777
▁clear	-8.8108
▁America	-8.81082
▁almost	-8.81715
▁trying	-8.82069
▁half	-8.823
▁$	-8.82742
▁...	-8.82802
▁My	-8.82811
▁young	-8.82988
per	-8.83048
▁anything	-8.83081
▁add	-8.83323
0	-8.83347
▁wanted	-8.83348
▁bit	-8.83705
は	-8.83852
▁front	-8.83894
▁room	-8.83994
less	-8.84019
▁month	-8.84035
▁light	-8.84053
▁taken	-8.84053
ri	-8.8431
▁win	-8.84351
ous	-8.84586
▁black	-8.84604
▁idea	-8.85012
land	-8.85018
▁building	-8.85081
▁question	-8.85217
▁six	-8.8534
▁house	-8.8552
▁ago	-8.8581
▁court	-8.85918
▁#	-8.85965
▁third	-8.86114
▁By	-8.863
▁job	-8.86352
▁program	-8.86534
▁issue	-8.86561
▁development	-8.86756
▁experience	-8.86913
▁list	-8.86931
▁form	-8.86971
▁War	-8.87286
▁others	-8.87618
▁himself	-8.88336
▁Be	-8.88342
▁Mar	-8.8848
ja	-8.88506
▁saying	-8.88517
▁g	-8.88525
im	-8.88537
▁April	-8.88827
▁June	-8.88956
▁air	-8.89006
que	-8.89219
▁para	-8.8922
▁v	-8.89372
You	-8.89427
▁Man	-8.8956
▁taking	-8.89681
▁anti	-8.8969
▁near	-8.89747
▁office	-8.89748
▁recent	-8.8979
▁These	-8.89799
der	-8.89887
ut	-8.90001
▁further	-8.90065
▁research	-8.90066
▁0	-8.90071
▁late	-8.90119
▁include	-8.90159
▁saw	-8.90171
out	-8.90184
▁tell	-8.90226
men	-8.90251
▁security	-8.90293
ite	-8.90351
ex	-8.90653
▁=	-8.90692
▁Con	-8.9079
▁m	-8.90796
▁:	-8.90987
▁coming	-8.91109
▁current	-8.91128
▁reported	-8.91327
gen	-8.91396
▁woman	-8.91558
▁someone	-8.91559
▁God	-8.91645
▁Me	-8.91736
▁Now	-8.9177
em	-8.91794
▁July	-8.91797
▁c	-8.91861
▁food	-8.92094
he	-8.92149
▁dis	-8.92167
▁comes	-8.9237
▁result	-8.92377
▁election	-8.92413
time	-8.92467
▁Pro	-8.9254
▁general	-8.92702
ler	-8.92711
▁military	-8.92725
í	-8.92882
▁El	-8.92959
▁14	-8.92998
▁space	-8.931
ized	-8.93125
nd	-8.93177
▁position	-8.93295
▁nothing	-8.93299
▁des	-8.93384
▁role	-8.934
led	-8.93422
▁mind	-8.93476
▁13	-8.93817
▁Mo	-8.9384
▁rest	-8.93904
▁outside	-8.94046
ba	-8.94058
▁access	-8.94067
▁January	-8.94099
9	-8.94112
ating	-8.94125
▁white	-8.94326
▁t	-8.94487
▁San	-8.9453
▁decision	-8.94635
▁player	-8.94812
▁son	-8.95028
▁30	-8.95171
▁read	-8.95186
▁Some	-8.95198
▁makes	-8.95255
op	-8.95293
▁site	-8.95379
▁study	-8.95611
pe	-8.95756
▁students	-8.95784
▁age	-8.95967
ies	-8.95998
▁record	-8.9606
▁however	-8.9611
▁wrote	-8.96178
▁provide	-8.96584
▁vi	-8.96766
▁low	-8.96783
▁music	-8.96825
▁How	-8.96961
▁reason	-8.97033
▁Go	-8.97048
▁hit	-8.97196
ver	-8.972
▁West	-8.9721
▁main	-8.97274
://	-8.97296
ó	-8.97338
ish	-8.97379
ä	-8.97754
po	-8.97786
▁try	-8.97848
▁total	-8.98225
▁k	-8.98317
▁special	-8.98383
▁lead	-8.9843
▁rather	-8.98471
▁|	-8.98496
▁policy	-8.98519
▁September	-8.98528
▁Dr	-8.98531
▁received	-8.98543
▁event	-8.9857
▁member	-8.98584
▁wasn	-8.98628
▁return	-8.98722
▁either	-8.98777
▁f	-8.98932
ard	-8.99089
と	-8.99419
▁everything	-8.99461
▁del	-8.99635
▁August	-8.99688
▁stop	-8.99871
ol	-8.99994
▁led	-9.00009
ko	-9.0002
▁White	-9.00152
▁statement	-9.00173
tic	-9.00181
▁create	-9.00456
▁attack	-9.00484
one	-9.00653
▁announced	-9.00703
▁ex	-9.00725
▁release	-9.00728
mp	-9.00753
je	-9.00757
▁companies	-9.00803
▁X	-9.00838
▁matter	-9.00905
▁similar	-9.0093
▁turn	-9.00999
ster	-9.01071
▁looked	-9.01128
▁continue	-9.01252
▁October	-9.01301
▁class	-9.01312
▁su	-9.01372
by	-9.01661
▁eyes	-9.01676
▁above	-9.01679
ber	-9.01762
▁2016	-9.01766
ful	-9.01792
▁November	-9.01794
▁present	-9.01949
▁lost	-9.01983
▁du	-9.02109
▁Washington	-9.02303
ung	-9.02635
▁action	-9.02892
▁probably	-9.03327
▁whole	-9.0342
▁Her	-9.03658
▁points	-9.03666
▁isn	-9.03703
▁b	-9.03869
line	-9.03919
▁*	-9.04049
▁countries	-9.04108
▁à	-9.04134
▁tax	-9.04303
ance	-9.04393
▁forward	-9.04396
▁understand	-9.045
▁federal	-9.04526
sh	-9.04553
▁cost	-9.04578
▁hours	-9.0479
ent	-9.04804
▁es	-9.04856
▁mean	-9.05028
ft	-9.05028
▁Facebook	-9.05129
▁fire	-9.05156
ze	-9.05173
▁father	-9.05228
▁land	-9.05231
lin	-9.05308
ence	-9.05343
▁turned	-9.05729
▁version	-9.06085
con	-9.06404
▁moment	-9.06462
▁Twitter	-9.06569
▁running	-9.06678
▁Obama	-9.07085
▁Not	-9.07085
▁/	-9.07134
▁issues	-9.07159
▁w	-9.07254
▁und	-9.07261
á	-9.07375
▁County	-9.0744
▁bad	-9.07444
▁December	-9.07794
▁director	-9.0781
▁felt	-9.07854
▁officials	-9.08008
io	-9.08142
▁below	-9.08151
▁Ra	-9.08153
▁Or	-9.08236
▁key	-9.08249
dy	-9.08269
▁build	-9.08287
▁Ha	-9.08349
▁population	-9.0846
▁period	-9.0854
▁According	-9.08658
▁services	-9.08686
ho	-9.08824
▁fight	-9.08856
▁industry	-9.08891
▁self	-9.08934
▁economic	-9.09035
▁content	-9.0923
▁Department	-9.09316
ng	-9.0948
▁mother	-9.0953
▁n	-9.09543
In	-9.09581
▁value	-9.09599
▁Sa	-9.0978
▁ground	-9.10118
▁test	-9.10256
▁sense	-9.10371
▁everyone	-9.10501
vo	-9.10649
▁talk	-9.10737
▁career	-9.10856
▁itself	-9.11005
▁published	-9.11044
▁Ho	-9.11096
▁gave	-9.11222
ally	-9.11228
▁built	-9.11392
▁News	-9.11415
▁si	-9.11425
we	-9.11425
▁themselves	-9.11507
tion	-9.11527
▁heart	-9.11534
▁created	-9.11613
▁playing	-9.11658
so	-9.11765
▁vote	-9.11835
▁field	-9.11977
Z	-9.12012
▁knew	-9.12166
▁sa	-9.12233
▁leave	-9.12345
▁er	-9.12645
▁soon	-9.12656
▁India	-9.12929
way	-9.12947
▁British	-9.1298
▁worked	-9.13062
▁inside	-9.13233
▁true	-9.13287
▁official	-9.13387
▁Ro	-9.13445
%	-9.13448
▁Z	-9.13468
▁legal	-9.1355
▁em	-9.13555
▁sent	-9.13813
▁evidence	-9.14021
ron	-9.14212
▁strong	-9.14288
▁app	-9.14379
▁instead	-9.14671
▁else	-9.14691
▁School	-9.14797
▁design	-9.14821
▁2018	-9.14993
▁living	-9.15035
▁code	-9.15088
▁longer	-9.15122
▁especially	-9.15216
▁needed	-9.15299
▁com	-9.15506
▁в	-9.15531
▁En	-9.1557
ning	-9.15688
▁2017	-9.15905
▁February	-9.15982
▁25	-9.16078
▁rights	-9.16084
▁share	-9.16087
▁original	-9.16104
▁billion	-9.1613
▁online	-9.16165
▁por	-9.1625
▁states	-9.16478
▁energy	-9.16494
bo	-9.16579
▁international	-9.16663
▁town	-9.16722
▁shows	-9.16798
tro	-9.16898
▁risk	-9.16939
▁child	-9.17121
▁bring	-9.17219
­	-9.17225
▁club	-9.17299
▁words	-9.17302
▁model	-9.17395
▁Se	-9.17428
▁Bo	-9.17568
wa	-9.17601
▁minutes	-9.1772
mer	-9.17864
▁staff	-9.17995
▁race	-9.18142
▁sub	-9.18188
▁seems	-9.1829
▁weeks	-9.18508
▁ne	-9.18515
▁view	-9.18563
▁hold	-9.18635
▁door	-9.18715
▁private	-9.18753
▁quite	-9.18954
▁simply	-9.18969
▁Ar	-9.19104
▁included	-9.19162
▁Court	-9.19345
▁personal	-9.1945
▁type	-9.19543
▁European	-9.19709
▁died	-9.19791
▁trade	-9.19932
▁Russian	-9.19936
vi	-9.19959
He	-9.20035
▁California	-9.2006
ization	-9.20145
▁earlier	-9.20289
ek	-9.20357
▁_	-9.20535
▁League	-9.20587
▁Friday	-9.20701
▁technology	-9.20787
▁im	-9.20816
▁common	-9.20919
▁cases	-9.20961
▁potential	-9.20967
▁Lo	-9.20988
▁named	-9.21039
▁groups	-9.21145
▁via	-9.2128
▁ha	-9.21357
▁Russia	-9.21382
▁From	-9.21423
▁David	-9.21528
pa	-9.21552
▁hope	-9.21736
▁bill	-9.21774
▁100	-9.21813
▁allow	-9.2184
▁needs	-9.2214
▁article	-9.22152
▁anyone	-9.22166
▁average	-9.22308
▁recently	-9.2238
▁friends	-9.22403
▁expected	-9.22445
ah	-9.22482
▁19	-9.22496
▁price	-9.22572
▁meeting	-9.22692
▁den	-9.22782
▁certain	-9.2283
▁higher	-9.22841
of	-9.22856
off	-9.22884
30	-9.23043
▁Vi	-9.23172
▁board	-9.23172
▁moved	-9.23177
▁album	-9.2323
▁More	-9.23253
▁les	-9.23309
▁production	-9.23419
▁2019	-9.2345
▁Y	-9.23593
▁Ta	-9.23657
▁Monday	-9.23713
This	-9.23774
▁currently	-9.23783
ă	-9.23837
▁Ma	-9.23905
za	-9.23932
ac	-9.23965
▁increase	-9.24049
▁entire	-9.24157
▁UK	-9.24176
▁phone	-9.24192
▁Google	-9.24197
▁killed	-9.24275
▁force	-9.24349
▁red	-9.24378
▁response	-9.244
▁Po	-9.2446
▁involved	-9.24477
▁word	-9.24554
▁Pa	-9.24555
▁hands	-9.24724
▁Un	-9.24768
ki	-9.24953
▁cut	-9.25065
▁Congress	-9.25141
▁heard	-9.25146
tor	-9.25207
▁50	-9.25308
ger	-9.25342
▁rate	-9.25342
▁decided	-9.25352
▁Canada	-9.25374
▁@	-9.25452
▁ge	-9.25496
▁couple	-9.2565
▁London	-9.25674
▁pretty	-9.25942
▁interest	-9.26078
▁various	-9.26086
fa	-9.26108
▁Can	-9.2629
▁nearly	-9.265
е	-9.26508
▁continued	-9.26517
▁goal	-9.2655
▁network	-9.26628
▁TV	-9.26741
▁ten	-9.26822
end	-9.26826
q	-9.26855
▁Tuesday	-9.27095
!"	-9.27248
▁art	-9.27341
lu	-9.27362
▁changes	-9.27435
▁account	-9.27466
▁First	-9.27599
▁quickly	-9.27657
▁Republican	-9.27685
▁global	-9.27757
▁Here	-9.27823
▁results	-9.27835
▁morning	-9.27923
▁$1	-9.27929
▁Paul	-9.27929
▁pass	-9.28227
▁character	-9.28439
▁cannot	-9.28687
▁par	-9.2872
▁wrong	-9.28745
▁ver	-9.28776
au	-9.28778
▁popular	-9.28811
based	-9.28821
▁met	-9.28824
▁situation	-9.28863
▁Clinton	-9.28885
▁image	-9.28886
▁stay	-9.29179
▁los	-9.29261
che	-9.29417
▁station	-9.29465
▁happened	-9.2947
▁shot	-9.29512
▁Then	-9.29669
▁size	-9.29686
▁2015	-9.2979
red	-9.29828
▁Di	-9.29922
▁21	-9.29937
▁ma	-9.29965
▁simple	-9.29972
▁impact	-9.30073
▁source	-9.30116
ado	-9.30238
for	-9.30357
=	-9.30358
▁tried	-9.3038
ise	-9.30468
▁Even	-9.30478
▁administration	-9.30486
▁questions	-9.3063
▁amount	-9.30778
▁East	-9.30856
▁Of	-9.30857
What	-9.30908
▁caption	-9.31073
▁users	-9.31168
▁brought	-9.3125
▁bar	-9.31316
▁easy	-9.31328
▁Park	-9.31528
▁Party	-9.31552
▁Don	-9.31563
fe	-9.31621
mi	-9.31697
▁performance	-9.31849
▁workers	-9.31912
▁voice	-9.31943
▁road	-9.32142
▁Europe	-9.3221
50	-9.32339
▁events	-9.32479
▁step	-9.32554
▁range	-9.32561
▁Street	-9.32625
▁lo	-9.32654
▁financial	-9.3268
>	-9.32718
▁leader	-9.32739
で	-9.32969
tu	-9.33107
ize	-9.33127
ker	-9.33129
▁term	-9.33145
▁é	-9.3342
les	-9.33495
▁Donald	-9.33502
▁chance	-9.33569
▁po	-9.33666
▁works	-9.33685
▁24	-9.33799
▁round	-9.33919
▁«	-9.33947
▁band	-9.34019
▁areas	-9.34038
ward	-9.34134
ile	-9.34134
▁)	-9.3417
port	-9.34184
▁addition	-9.34403
с	-9.34435
▁Wednesday	-9.34587
▁Ka	-9.34718
▁Thursday	-9.34943
mb	-9.35224
ud	-9.35246
tra	-9.35264
▁Minister	-9.35478
▁individual	-9.35513
ven	-9.35721
▁James	-9.35763
▁Sunday	-9.35839
▁fall	-9.35923
▁difficult	-9.35927
ina	-9.35957
ig	-9.35986
▁region	-9.36037
+	-9.3606
▁Black	-9.36082
▁gun	-9.36087
▁lives	-9.36108
bi	-9.36129
▁sign	-9.3618
▁upon	-9.36235
ku	-9.3625
▁Chinese	-9.36317
ities	-9.36325
ping	-9.36398
▁whose	-9.36487
▁offer	-9.36491
▁spent	-9.36621
ab	-9.36891
▁Center	-9.36911
▁Ja	-9.36949
▁During	-9.36963
▁plans	-9.37114
▁press	-9.3719
▁website	-9.37198
ang	-9.37246
▁problems	-9.37337
▁Li	-9.37352
▁Gu	-9.37385
▁effect	-9.37509
▁born	-9.3755
20	-9.37583
▁pe	-9.37585
ham	-9.37721
▁fun	-9.37811
▁considered	-9.37856
▁ask	-9.37923
ー	-9.37936
▁served	-9.37956
▁2014	-9.37988
▁Su	-9.38124
ship	-9.38219
ring	-9.38283
▁lower	-9.38427
а	-9.38432
▁mu	-9.38476
▁seven	-9.38547
▁medical	-9.38575
▁Red	-9.38586
▁written	-9.38661
т	-9.38694
ran	-9.38712
▁allowed	-9.38742
ey	-9.38793
▁features	-9.38852
min	-9.3889
ou	-9.38892
▁training	-9.39045
▁track	-9.39093
day	-9.39108
▁attention	-9.39151
▁investigation	-9.39178
▁terms	-9.39257
▁friend	-9.39382
▁Ko	-9.39453
▁stand	-9.39473
▁Act	-9.39478
▁Democratic	-9.39513
▁previous	-9.39625
い	-9.39652
ial	-9.3967
▁interview	-9.39796
▁cause	-9.40008
▁oil	-9.40048
▁wife	-9.4006
▁ability	-9.40084
ier	-9.40145
▁Star	-9.40226
▁Michael	-9.40285
▁towards	-9.40309
▁page	-9.40448
▁sex	-9.405
▁break	-9.40592
▁follow	-9.4069
▁football	-9.40789
▁base	-9.40845
▁Car	-9.4095
▁language	-9.41194
ap	-9.41401
▁described	-9.41423
ow	-9.41432
han	-9.41474
▁specific	-9.41665
▁teams	-9.41697
▁sound	-9.41748
▁Senate	-9.41862
▁couldn	-9.41895
▁goes	-9.41907
▁significant	-9.4201
▁movement	-9.42045
pro	-9.42098
▁English	-9.421
▁Day	-9.42102
▁parents	-9.42186
▁song	-9.42217
▁German	-9.42366
▁learn	-9.42406
▁act	-9.42413
▁foreign	-9.42432
▁reports	-9.42469
▁focus	-9.4254
▁French	-9.42636
▁check	-9.42656
▁Advertisement	-9.42887
No	-9.42987
▁deep	-9.43054
hi	-9.43056
▁{	-9.4311
▁table	-9.43199
▁buy	-9.43209
▁с	-9.43229
▁watch	-9.43389
▁fans	-9.43459
▁contract	-9.43503
▁title	-9.43555
▁success	-9.43627
▁General	-9.43695
▁center	-9.43733
▁email	-9.43744
▁answer	-9.43798
▁happen	-9.43931
if	-9.4394
▁gas	-9.44231
▁Democrats	-9.44296
▁lack	-9.4432
▁located	-9.44421
▁(19	-9.44444
▁huge	-9.44472
▁century	-9.4448
Q	-9.44573
▁dead	-9.44623
▁Pe	-9.44633
▁stage	-9.4465
▁match	-9.44682
▁meet	-9.44943
▁+	-9.45046
▁Israel	-9.45071
▁40	-9.45104
▁ho	-9.4513
▁hear	-9.45139
side	-9.45174
▁(@	-9.45227
ors	-9.45322
ana	-9.45409
▁qui	-9.45499
mar	-9.45586
▁Since	-9.45621
▁takes	-9.45684
▁particular	-9.45685
▁France	-9.45762
tter	-9.45859
▁Green	-9.45939
Re	-9.46018
м	-9.46098
ide	-9.46222
▁growth	-9.46256
▁cu	-9.46278
▁High	-9.46304
▁leading	-9.46315
▁Australia	-9.46533
▁finally	-9.46593
▁latest	-9.46599
du	-9.46655
10	-9.46711
▁expect	-9.4674
▁seem	-9.4675
▁economy	-9.46987
▁practice	-9.47
▁Bar	-9.47005
▁International	-9.4726
▁h	-9.47312
▁worth	-9.47316
▁climate	-9.47343
」	-9.47404
om	-9.47461
▁eight	-9.47518
▁consider	-9.47586
▁Ben	-9.47607
▁review	-9.47621
ure	-9.47632
▁modern	-9.47665
ya	-9.47687
▁Da	-9.47736
▁Per	-9.47789
▁Fa	-9.47821
▁species	-9.47934
▁22	-9.48046
▁Mc	-9.48051
▁Council	-9.48137
▁visit	-9.48195
▁followed	-9.48209
▁forces	-9.48315
▁league	-9.48315
▁appeared	-9.48316
lan	-9.48423
▁Du	-9.48459
000	-9.48568
ff	-9.48697
ding	-9.48781
▁Most	-9.48823
▁на	-9.48831
▁je	-9.48924
ists	-9.48964
▁complete	-9.49014
▁ways	-9.49084
▁Q	-9.49127
▁chief	-9.49188
ative	-9.49225
▁Just	-9.49247
▁speed	-9.49251
▁cent	-9.49301
▁una	-9.4932
▁van	-9.49451
▁Ver	-9.495
▁reached	-9.49506
▁opened	-9.49709
▁college	-9.49742
▁Police	-9.49876
▁mis	-9.49905
sen	-9.50039
▁Indian	-9.50085
▁education	-9.50102
▁super	-9.5015
▁Pre	-9.50175
▁changed	-9.50186
▁capital	-9.5023
▁Air	-9.50267
▁writing	-9.50278
▁sort	-9.50318
▁talking	-9.50367
▁coach	-9.50368
▁subject	-9.50481
▁approach	-9.50538
▁ready	-9.5057
gu	-9.50635
▁text	-9.50672
let	-9.50681
mon	-9.50817
zi	-9.50825
ada	-9.50965
▁culture	-9.51047
▁leaders	-9.51128
▁il	-9.5119
▁natural	-9.51261
▁George	-9.51288
▁provided	-9.5135
▁Saturday	-9.51476
nt	-9.51652
▁st	-9.51663
”.	-9.51669
▁multiple	-9.51741
▁Ne	-9.51745
▁remember	-9.51837
▁summer	-9.51861
▁King	-9.51922
▁toward	-9.51949
▁travel	-9.51963
▁relationship	-9.5198
▁product	-9.52066
If	-9.5213
▁function	-9.5214
▁Ex	-9.52191
▁products	-9.52253
▁required	-9.52268
ru	-9.52297
▁cover	-9.52304
▁effort	-9.52317
▁despite	-9.52454
▁pick	-9.52613
▁2020	-9.52692
ita	-9.52704
sch	-9.52722
▁address	-9.52749
▁Americans	-9.5275
▁date	-9.52774
▁throughout	-9.52851
▁mo	-9.52949
▁alone	-9.52999
▁rules	-9.53009
fi	-9.53013
ach	-9.53171
▁Why	-9.53171
▁paper	-9.53261
rd	-9.53336
▁Lu	-9.53457
▁contact	-9.5369
ct	-9.5369
▁message	-9.53892
tal	-9.54048
ン	-9.54093
▁giving	-9.54131
▁fast	-9.54203
▁blood	-9.54269
▁receive	-9.54289
▁author	-9.5436
▁science	-9.54448
▁pressure	-9.54507
▁1,	-9.54529
▁style	-9.54669
▁23	-9.54693
▁dark	-9.54763
▁student	-9.54795
▁te	-9.54803
▁screen	-9.54842
▁Ca	-9.54861
▁includes	-9.54916
ny	-9.5494
▁completely	-9.5498
▁England	-9.55001
▁nation	-9.5505
▁che	-9.5506
gi	-9.5507
▁although	-9.55093
qui	-9.55168
field	-9.55183
▁majority	-9.55212
▁passed	-9.5531
ik	-9.55694
There	-9.55782
ji	-9.55842
▁Bill	-9.55845
▁signed	-9.5586
▁Union	-9.55872
▁debate	-9.55882
▁middle	-9.55896
jo	-9.55902
▁fine	-9.5593
▁user	-9.55972
▁damage	-9.55976
▁gone	-9.56004
▁additional	-9.56022
▁2013	-9.56059
chi	-9.56081
▁looks	-9.56198
ible	-9.56239
form	-9.56297
▁Post	-9.56354
?”	-9.56378
▁protect	-9.56456
▁Pi	-9.56498
▁serious	-9.56571
use	-9.56686
▁Hu	-9.56757
▁Times	-9.56767
▁returned	-9.56798
▁organization	-9.5681
▁Ge	-9.56835
▁starting	-9.56885
▁Texas	-9.56891
▁Our	-9.56953
▁и	-9.56975
▁fear	-9.57012
▁designed	-9.57016
な	-9.57152
▁remain	-9.57248
▁Mark	-9.57282
gar	-9.57303
▁positive	-9.57306
▁immediately	-9.57356
▁Cup	-9.57358
▁Let	-9.57419
&	-9.57455
▁ran	-9.57497
▁opportunity	-9.57539
▁largest	-9.57628
▁sometimes	-9.57694
▁wouldn	-9.57705
▁wide	-9.57752
▁ball	-9.57768
▁по	-9.57798
▁numbers	-9.57805
▁Many	-9.57829
ient	-9.57856
▁ahead	-9.57867
▁store	-9.57878
val	-9.57915
▁senior	-9.57922
▁stories	-9.57938
▁star	-9.57968
▁2012	-9.58003
ju	-9.58012
▁defense	-9.5802
▁border	-9.58024
ken	-9.58045
▁district	-9.58127
я	-9.58179
▁paid	-9.58202
▁floor	-9.58235
▁environment	-9.5824
hr	-9.58245
▁central	-9.5829
▁beginning	-9.58305
▁particularly	-9.58329
▁remains	-9.58376
▁growing	-9.58386
-19	-9.58431
▁hospital	-9.58443
▁movie	-9.58477
▁quality	-9.58533
▁sea	-9.58619
kin	-9.58635
▁pour	-9.58702
▁comment	-9.58749
ü	-9.58773
▁violence	-9.58828
▁girl	-9.58881
▁professional	-9.5901
▁families	-9.59095
▁wants	-9.59101
bar	-9.59232
hu	-9.59242
▁usually	-9.59298
pt	-9.59315
▁details	-9.59381
▁village	-9.59417
▁letter	-9.59433
▁u	-9.59766
▁officer	-9.59884
▁send	-9.59907
▁seemed	-9.59974
▁showed	-9.60098
ub	-9.60176
▁Over	-9.60183
▁directly	-9.602
▁scene	-9.60262
▁feet	-9.60367
▁society	-9.60374
gg	-9.60408
▁systems	-9.60417
back	-9.6053
▁platform	-9.60615
▁moving	-9.60696
▁myself	-9.60766
▁claims	-9.60775
▁direct	-9.60868
▁drug	-9.60907
▁reach	-9.61047
▁criminal	-9.61224
ical	-9.61268
▁thinking	-9.61303
▁claim	-9.61304
ney	-9.61313
▁Ga	-9.61362
▁north	-9.61398
▁card	-9.61411
▁College	-9.61422
▁treatment	-9.61523
sta	-9.61557
▁Ba	-9.61567
▁EU	-9.61675
▁sexual	-9.61691
▁mid	-9.6172
▁conference	-9.61841
▁levels	-9.61861
▁battle	-9.61985
▁guy	-9.62038
▁tra	-9.62084
▁}	-9.62109
▁plant	-9.62206
▁Iran	-9.62213
▁inter	-9.62217
▁property	-9.62219
▁exactly	-9.62247
▁River	-9.62353
▁efforts	-9.62396
like	-9.62401
▁<	-9.62419
00	-9.62427
▁ban	-9.62474
▁People	-9.62521
▁developed	-9.62527
з	-9.62654
▁figure	-9.62687
▁drive	-9.62714
▁safe	-9.62737
▁helped	-9.62829
tri	-9.62911
ö	-9.62936
▁ce	-9.62969
▁standard	-9.63075
over	-9.6315
▁Two	-9.63172
▁file	-9.63191
Ma	-9.63284
▁r	-9.63287
▁increased	-9.63478
▁safety	-9.63555
ren	-9.63592
▁Although	-9.63756
ix	-9.63817
▁material	-9.63829
▁beyond	-9.63884
▁Robert	-9.64013
▁ja	-9.64084
▁church	-9.64197
▁joined	-9.6435
my	-9.64401
ual	-9.64414
▁eventually	-9.64601
▁biggest	-9.6465
▁brain	-9.64676
▁District	-9.64681
▁kept	-9.64797
\	-9.64814
▁ra	-9.64866
▁eye	-9.65002
ez	-9.65005
ator	-9.65007
uk	-9.65008
ther	-9.65013
▁nature	-9.65118
▁Your	-9.65205
all	-9.65206
▁Apple	-9.65214
▁est	-9.65244
▁bank	-9.65338
car	-9.65372
sion	-9.65513
▁choice	-9.65602
▁loss	-9.6565
▁officers	-9.65679
▁conditions	-9.65683
ai	-9.65726
net	-9.65749
iz	-9.65761
▁Health	-9.65793
are	-9.65813
▁previously	-9.65814
▁failed	-9.65818
▁fan	-9.65906
▁fi	-9.65917
▁hair	-9.65996
▁extra	-9.66046
▁Germany	-9.66098
▁Sam	-9.6618
▁feature	-9.66194
▁Last	-9.66217
▁closed	-9.6625
▁Ab	-9.66289
▁search	-9.663
か	-9.66311
▁command	-9.66352
▁Cor	-9.66382
▁um	-9.66428
▁pa	-9.66459
▁produced	-9.66564
▁daughter	-9.66579
▁Canadian	-9.66593
▁poor	-9.66644
▁raised	-9.66691
▁op	-9.66774
▁firm	-9.66808
▁income	-9.66847
▁comp	-9.66967
▁sold	-9.6704
▁begin	-9.67078
▁minister	-9.67167
bu	-9.67267
▁save	-9.6742
▁ensure	-9.67463
▁https	-9.67502
▁piece	-9.67522
▁happy	-9.67527
▁crisis	-9.67532
ath	-9.67556
▁charge	-9.6762
ks	-9.67845
born	-9.67856
д	-9.67881
▁voters	-9.67939
▁forced	-9.67997
ell	-9.68031
cher	-9.68034
lic	-9.6805
▁imp	-9.68095
light	-9.68105
ス	-9.68159
king	-9.68202
▁Dan	-9.68234
▁Like	-9.68296
▁ship	-9.6843
▁join	-9.68502
ified	-9.68526
▁south	-9.68543
ot	-9.68546
▁box	-9.68807
▁reality	-9.68999
▁Los	-9.69006
し	-9.69138
▁sell	-9.69269
▁candidate	-9.69284
▁Sen	-9.69287
si	-9.69385
▁stuff	-9.69493
▁agency	-9.6952
▁write	-9.69535
▁attacks	-9.69668
her	-9.69674
▁Mac	-9.69679
▁related	-9.69693
▁rise	-9.69703
▁Japan	-9.69714
▁Sch	-9.69852
▁color	-9.70049
▁Will	-9.70084
▁clean	-9.70118
▁tu	-9.70242
▁wall	-9.70307
▁leaving	-9.70339
right	-9.70341
40	-9.70386
▁secret	-9.70395
▁established	-9.70458
izing	-9.7049
▁Har	-9.70539
▁Bi	-9.70608
That	-9.70696
ong	-9.70796
▁ob	-9.70797
▁primary	-9.7082
ability	-9.7087
も	-9.70907
▁maybe	-9.70986
▁28	-9.71049
ped	-9.71111
▁attempt	-9.71153
▁limited	-9.71165
▁ri	-9.71275
▁regular	-9.71366
▁female	-9.71409
▁certainly	-9.71415
▁schools	-9.71433
▁Well	-9.71497
▁perfect	-9.71582
▁executive	-9.71589
▁speech	-9.71603
▁kids	-9.71644
▁z	-9.71654
▁2010	-9.71656
▁appear	-9.71687
tz	-9.71698
▁avoid	-9.71713
vin	-9.71759
▁challenge	-9.71832
▁2011	-9.71845
▁truth	-9.71862
▁mass	-9.71875
▁parts	-9.71891
▁26	-9.71904
▁prevent	-9.72053
▁powerful	-9.72171
▁path	-9.7219
▁cross	-9.72286
▁direction	-9.72295
[	-9.72339
And	-9.72362
pre	-9.72387
▁comments	-9.72401
▁fa	-9.72425
well	-9.72444
▁competition	-9.72479
▁software	-9.72491
▁digital	-9.72528
▁influence	-9.72573
▁camp	-9.72613
▁interesting	-9.72627
▁calls	-9.72645
▁manager	-9.72652
▁books	-9.72654
▁ba	-9.72815
▁jobs	-9.7282
▁Committee	-9.72832
▁wait	-9.72869
vis	-9.72918
▁thousands	-9.73037
▁perhaps	-9.73103
▁speak	-9.73256
▁II	-9.73282
▁necessary	-9.73312
ned	-9.73315
So	-9.73383
▁shooting	-9.73426
▁ended	-9.73438
▁Am	-9.73439
▁successful	-9.73448
▁spread	-9.73483
They	-9.73593
▁target	-9.73734
▁demand	-9.73766
▁Republicans	-9.73781
-1	-9.7383
▁27	-9.73873
ria	-9.73954
nie	-9.7402
▁Te	-9.74102
▁kill	-9.74143
▁respect	-9.74144
▁Bank	-9.74164
ious	-9.74185
ee	-9.74263
▁brother	-9.74282
▁Ad	-9.74292
80	-9.74367
▁normal	-9.74382
▁Tom	-9.74452
12	-9.74463
▁unique	-9.7457
▁era	-9.74643
cha	-9.74752
▁zu	-9.74792
fer	-9.74829
ight	-9.7493
▁computer	-9.74932
и	-9.75014
▁ju	-9.75037
▁appears	-9.75055
▁Earth	-9.75071
▁hot	-9.75099
▁pain	-9.75127
▁compared	-9.75132
▁budget	-9.75299
▁feeling	-9.7532
board	-9.75366
▁gets	-9.75368
▁overall	-9.75395
▁Read	-9.75404
berg	-9.75453
▁caused	-9.75478
▁crime	-9.75488
des	-9.75518
▁Another	-9.7559
▁Smith	-9.75604
▁walk	-9.75606
ville	-9.75771
▁seat	-9.75834
▁Brown	-9.75836
▁continues	-9.75858
bb	-9.75882
▁Florida	-9.75894
▁Mi	-9.76059
▁Other	-9.76075
▁Also	-9.76139
▁physical	-9.76159
▁complex	-9.76167
▁slow	-9.76186
und	-9.76192
▁confirmed	-9.76234
▁spend	-9.76348
▁lu	-9.7636
▁television	-9.76374
▁launch	-9.76396
rie	-9.76488
▁murder	-9.76495
▁threat	-9.76496
▁opening	-9.76511
▁plus	-9.76518
▁yourself	-9.76583
▁va	-9.7662
ology	-9.76655
25	-9.76671
▁shown	-9.76684
▁x	-9.76701
▁costs	-9.76789
▁credit	-9.76811
▁ta	-9.76881
▁Because	-9.76996
▁rule	-9.77078
▁Institute	-9.77109
о	-9.77129
wi	-9.77141
▁knowledge	-9.77166
▁sat	-9.77171
ute	-9.77192
▁surface	-9.77211
▁li	-9.77323
▁prison	-9.77401
▁easily	-9.77427
▁host	-9.77491
qu	-9.77536
▁cast	-9.77664
ably	-9.77721
ura	-9.77738
▁customers	-9.77816
▁aren	-9.7791
▁mission	-9.7791
▁section	-9.77983
ip	-9.78025
lor	-9.78058
▁block	-9.78063
▁Dis	-9.78141
▁nice	-9.78146
▁multi	-9.78181
11	-9.78244
▁Church	-9.78256
ries	-9.78329
▁cell	-9.78374
▁cool	-9.78422
);	-9.78501
ice	-9.78503
▁dé	-9.78508
nes	-9.78575
▁Bay	-9.78588
▁fully	-9.78593
▁politics	-9.78612
▁patients	-9.78807
▁Wi	-9.78831
▁offered	-9.78862
▁finished	-9.78922
▁agreement	-9.79011
▁claimed	-9.79017
▁religious	-9.79065
▁Jo	-9.79134
But	-9.79142
▁request	-9.79168
▁arm	-9.79179
▁reading	-9.79242
▁status	-9.79288
ns	-9.79291
▁sales	-9.79334
▁agree	-9.79364
▁Super	-9.79465
▁Group	-9.79469
▁projects	-9.79471
▁Association	-9.79486
▁analysis	-9.79644
▁independent	-9.79649
ford	-9.79663
▁push	-9.79666
▁effects	-9.79675
▁Ti	-9.7968
▁Peter	-9.7971
ي	-9.79845
▁civil	-9.79876
60	-9.8
▁lose	-9.8009
▁hour	-9.80139
▁individuals	-9.80158
▁Ni	-9.80164
ão	-9.80268
▁incident	-9.8028
ps	-9.80314
▁rock	-9.80318
▁presidential	-9.80349
▁не	-9.80389
▁novel	-9.80391
н	-9.80409
▁picture	-9.80422
▁grow	-9.80433
▁Justice	-9.80449
▁street	-9.80513
у	-9.80537
▁blue	-9.80692
ino	-9.80694
ben	-9.8071
▁onto	-9.80796
mit	-9.80838
▁difference	-9.80893
▁authorities	-9.80912
▁guys	-9.80954
ants	-9.81071
▁Che	-9.8116
▁structure	-9.81165
ue	-9.81175
our	-9.812
▁device	-9.81243
▁traditional	-9.81256
mm	-9.81313
▁option	-9.81364
org	-9.8139
「	-9.81408
▁goals	-9.81432
▁protest	-9.81464
▁highly	-9.81516
▁laws	-9.81517
▁radio	-9.81531
▁nuclear	-9.81562
▁til	-9.81586
can	-9.81604
▁Christian	-9.81759
▁double	-9.81807
▁reasons	-9.81899
▁pair	-9.81946
▁larger	-9.81952
De	-9.81953
▁actions	-9.82035
▁allows	-9.82052
▁hearing	-9.82063
$	-9.82071
▁Korea	-9.82085
ov	-9.82161
▁Australian	-9.82176
ever	-9.82185
▁draw	-9.82234
▁web	-9.82249
▁employees	-9.82252
▁60	-9.82278
pi	-9.82288
▁cities	-9.82346
▁benefit	-9.82349
▁calling	-9.8241
р	-9.82465
▁sun	-9.82471
▁Men	-9.82502
▁ni	-9.82557
▁married	-9.82574
▁decades	-9.82612
▁Western	-9.82661
▁fit	-9.82672
▁construction	-9.82758
▁meant	-9.82758
ture	-9.82766
ph	-9.82807
tin	-9.82811
ised	-9.82833
▁revealed	-9.82847
▁quarter	-9.82883
▁weekend	-9.82913
▁stock	-9.82964
▁Big	-9.82992
▁Johnson	-9.83024
zo	-9.83029
▁nine	-9.83079
cer	-9.83098
cent	-9.83188
rk	-9.83197
ei	-9.83245
▁în	-9.83318
@	-9.83324
▁highest	-9.83338
▁straight	-9.83511
cu	-9.83526
▁brand	-9.83559
ev	-9.83615
▁photo	-9.8362
▁management	-9.83687
▁resources	-9.83716
▁Mon	-9.83733
▁note	-9.83774
set	-9.83823
▁Syria	-9.83899
▁choose	-9.83907
gan	-9.8397
war	-9.83986
▁og	-9.8416
▁noted	-9.84164
▁active	-9.84187
▁operations	-9.84243
▁Mike	-9.8428
▁characters	-9.84307
▁Who	-9.84381
▁residents	-9.84588
▁link	-9.84599
not	-9.84638
к	-9.84682
▁doubt	-9.84694
▁improve	-9.84695
▁application	-9.84704
▁enjoy	-9.84723
To	-9.84766
▁spoke	-9.84856
▁Sp	-9.84883
▁audience	-9.84909
▁favorite	-9.84913
16	-9.84943
ble	-9.84952
▁African	-9.84977
▁Han	-9.84981
▁nu	-9.85075
▁gives	-9.85086
▁exchange	-9.85089
▁episode	-9.851
▁intelligence	-9.85153
▁behavior	-9.85161
15	-9.85226
▁collection	-9.85232
▁fair	-9.85258
▁placed	-9.85272
▁activity	-9.85272
▁whom	-9.85296
14	-9.8533
▁trial	-9.85351
sk	-9.85433
▁committee	-9.85537
ag	-9.85608
▁Army	-9.85608
▁advantage	-9.85615
iv	-9.85641
▁location	-9.85725
▁•	-9.85779
▁commercial	-9.85826
ions	-9.85829
▁1.	-9.85885
tes	-9.85886
*	-9.85894
▁fell	-9.85978
▁basic	-9.85999
▁studies	-9.86001
▁unit	-9.86027
▁Ri	-9.86034
▁holding	-9.86062
▁weight	-9.86072
▁arrested	-9.86116
▁reduce	-9.86141
▁condition	-9.86216
▁mostly	-9.86241
▁Free	-9.86249
▁spending	-9.86252
▁serve	-9.86255
▁stopped	-9.86306
▁trust	-9.86404
▁funding	-9.86446
▁ka	-9.8645
cy	-9.86452
▁Game	-9.86473
▁von	-9.8649
▁lines	-9.8651
▁launched	-9.86556
▁cap	-9.86559
▁Their	-9.86657
▁husband	-9.86657
▁meaning	-9.8672
70	-9.86738
ray	-9.86747
ium	-9.86784
▁becoming	-9.8685
▁believed	-9.86858
л	-9.86877
▁Once	-9.86925
down	-9.86942
▁Office	-9.87067
ens	-9.87086
▁Hall	-9.87087
▁seeing	-9.8709
dic	-9.87096
▁massive	-9.87121
▁spot	-9.87138
▁Bitcoin	-9.87164
uch	-9.87167
pped	-9.87258
ero	-9.87278
▁concerns	-9.87322
▁29	-9.87326
▁Sha	-9.87345
ations	-9.87346
▁quick	-9.87358
▁judge	-9.87427
IN	-9.87509
▁weapons	-9.8755
▁elected	-9.87552
▁ca	-9.87595
▁Law	-9.87648
house	-9.87676
▁Great	-9.87693
▁agreed	-9.87781
▁parties	-9.87821
low	-9.87874
▁Thomas	-9.87877
▁Joe	-9.87922
▁adding	-9.87991
▁winning	-9.88012
▁department	-9.88048
▁green	-9.88087
▁Press	-9.88156
oc	-9.88165
▁creating	-9.88173
▁Central	-9.88234
cor	-9.88302
ل	-9.88303
13	-9.88311
▁$2	-9.8832
term	-9.88334
rate	-9.88442
▁clearly	-9.88609
ari	-9.88721
▁boy	-9.88859
act	-9.88886
▁accused	-9.88892
▁pu	-9.88896
une	-9.88928
▁counter	-9.8893
▁protection	-9.88934
▁Sun	-9.89064
▁William	-9.8909
▁shared	-9.89091
▁une	-9.89153
cing	-9.89181
24	-9.89195
▁THE	-9.89241
▁fighting	-9.89257
▁Tri	-9.89519
od	-9.89545
▁greater	-9.8955
hy	-9.89673
▁das	-9.89766
▁Government	-9.89793
▁worse	-9.89859
▁Paris	-9.89953
▁Pat	-9.89989
▁benefits	-9.90051
▁Africa	-9.90056
ato	-9.90101
▁sources	-9.90191
▁policies	-9.90259
▁Both	-9.90285
▁Out	-9.90285
har	-9.90367
▁stated	-9.90388
▁Bur	-9.90422
り	-9.90482
▁provides	-9.90499
▁older	-9.90557
▁See	-9.9057
▁programs	-9.90608
▁charges	-9.90622
▁tend	-9.90649
▁Chicago	-9.90672
ani	-9.90717
▁stood	-9.9082
▁responsible	-9.90842
▁Fox	-9.90855
▁progress	-9.90867
bit	-9.90895
▁critical	-9.90915
▁develop	-9.90915
▁har	-9.90981
▁options	-9.90989
▁learning	-9.91004
й	-9.91022
▁male	-9.91108
▁bed	-9.91151
▁separate	-9.91158
gra	-9.9118
▁actual	-9.91264
▁abuse	-9.91267
▁notice	-9.91303
▁Sanders	-9.9135
▁Hill	-9.91369
▁Tu	-9.91453
▁Ke	-9.91455
ok	-9.91455
17	-9.91468
▁crowd	-9.9147
▁fuel	-9.91528
▁2.	-9.91555
▁sit	-9.91568
▁score	-9.91628
▁herself	-9.91629
▁trans	-9.91631
▁drop	-9.91635
▁sur	-9.91675
▁require	-9.91698
▁partner	-9.91796
▁på	-9.91799
▁scale	-9.91866
▁os	-9.91937
▁ch	-9.92044
▁Gi	-9.92078
but	-9.92106
▁produce	-9.9218
era	-9.92199
▁communities	-9.92305
▁Chris	-9.92311
▁solution	-9.92331
ли	-9.9239
tte	-9.9241
▁daily	-9.92411
▁researchers	-9.92466
▁professor	-9.92486
ick	-9.9249
nce	-9.92495
▁investment	-9.92506
▁caught	-9.92516
▁pas	-9.926
▁purpose	-9.92639
▁places	-9.92699
ра	-9.927
▁arms	-9.92709
▁Under	-9.9274
▁Supreme	-9.92768
▁disease	-9.9281
wing	-9.92875
▁det	-9.92908
Do	-9.93061
▁Gar	-9.93064
▁Ru	-9.93077
▁Prime	-9.93128
▁perform	-9.93211
▁Mexico	-9.93257
log	-9.93294
ara	-9.93328
▁justice	-9.93377
bre	-9.93383
▁Despite	-9.93406
pping	-9.9344
▁fourth	-9.93538
▁pop	-9.93563
▁please	-9.93577
▁port	-9.93606
▁method	-9.93763
▁runs	-9.93793
▁2008	-9.93875
▁Chi	-9.93905
▁train	-9.93967
bra	-9.94077
▁etc	-9.94113
ella	-9.94134
ла	-9.94146
▁Martin	-9.94153
▁Mor	-9.94163
▁centre	-9.94306
▁pulled	-9.94365
len	-9.94374
▁learned	-9.94484
▁rich	-9.94515
▁whatever	-9.9453
▁ideas	-9.94561
▁sector	-9.94568
list	-9.94626
▁Security	-9.94642
▁victory	-9.94678
cal	-9.94721
▁standing	-9.9475
▁asking	-9.94759
▁som	-9.94762
▁issued	-9.94766
▁activities	-9.94796
ø	-9.94861
▁freedom	-9.94863
▁Angeles	-9.94882
▁decide	-9.94898
▁corner	-9.95002
ay	-9.95033
▁recorded	-9.95075
illa	-9.95129
▁offers	-9.95141
▁om	-9.95185
▁heavy	-9.95336
ple	-9.95355
▁Za	-9.95451
▁basis	-9.95465
▁associated	-9.95489
ep	-9.95507
ins	-9.95728
▁hurt	-9.95761
▁proposed	-9.95831
▁Team	-9.95831
▁mit	-9.95847
▁explained	-9.95879
ini	-9.95962
▁marriage	-9.96084
▁enter	-9.96103
▁remained	-9.96115
▁Road	-9.9618
istic	-9.9618
▁miles	-9.9623
“	-9.9623
ste	-9.96234
▁annual	-9.96267
▁prior	-9.96271
▁Pan	-9.96301
▁Open	-9.96341
▁Cha	-9.96352
▁citizens	-9.96359
▁waiting	-9.96377
ING	-9.96377
▁Get	-9.9642
▁cancer	-9.96425
ged	-9.96436
▁Ju	-9.96442
19	-9.96452
▁Instead	-9.96487
ル	-9.96495
▁Jones	-9.96521
▁dog	-9.96601
▁Art	-9.96672
▁introduced	-9.96703
▁machine	-9.96716
▁vehicle	-9.96718
▁gold	-9.9676
▁initial	-9.96771
▁arrived	-9.96784
▁http	-9.96791
wood	-9.96819
▁traffic	-9.96855
get	-9.96855
press	-9.96955
ea	-9.9696
▁Image	-9.9699
▁Richard	-9.97032
▁rates	-9.97105
▁opposition	-9.97113
▁strategy	-9.97141
▁showing	-9.97152
For	-9.97211
▁records	-9.97251
▁leadership	-9.9726
don	-9.97263
▁skin	-9.97267
▁Britain	-9.97289
lar	-9.97306
▁mi	-9.97312
ky	-9.9737
▁managed	-9.97397
▁ice	-9.97466
▁beat	-9.97485
ski	-9.97501
▁31	-9.97535
nic	-9.97546
▁generally	-9.9756
▁FBI	-9.97595
▁Good	-9.97652
uff	-9.977
▁effective	-9.97747
▁beautiful	-9.97757
▁thus	-9.97758
ire	-9.97777
▁sp	-9.97882
del	-9.97919
▁respond	-9.9796
▁prime	-9.98003
ery	-9.98033
▁degree	-9.98034
▁Je	-9.98099
▁Island	-9.98172
▁businesses	-9.98308
▁las	-9.98335
▁attorney	-9.98347
▁accept	-9.9835
в	-9.98375
▁planet	-9.9842
▁internet	-9.98431
▁driver	-9.98453
▁qu	-9.98483
▁trip	-9.98489
▁survey	-9.98515
▁poll	-9.98516
ы	-9.98527
▁Amazon	-9.98594
par	-9.98645
▁Today	-9.98698
▁nor	-9.98705
21	-9.98782
▁Public	-9.98794
www	-9.98803
▁haven	-9.98804
▁memory	-9.98821
work	-9.98889
av	-9.98915
å	-9.99011
▁display	-9.99017
▁debut	-9.9903
る	-9.99033
▁Service	-9.9904
▁Lord	-9.99047
La	-9.99078
AL	-9.99188
▁lived	-9.99213
▁blog	-9.99217
▁ter	-9.99251
ec	-9.99259
put	-9.99313
-2	-9.99321
▁images	-9.99374
tive	-9.99473
▁testing	-9.99516
▁Bra	-9.99593
▁edge	-9.99597
▁Mu	-9.99599
▁understanding	-9.99604
▁Er	-9.99615
ido	-9.99633
▁mar	-9.99654
▁interested	-9.9971
▁favor	-9.99773
▁transfer	-9.99776
▁names	-9.99862
gue	-9.99885
▁illegal	-9.99886
▁Japanese	-9.99909
▁Director	-9.99928
د	-9.99936
▁watching	-9.99943
▁core	-9.99967
▁au	-10
▁Chief	-10.0004
▁mode	-10.0009
▁exist	-10.001
▁draft	-10.002
ر	-10.0027
▁CEO	-10.0028
▁window	-10.0035
ati	-10.0044
ction	-10.0046
▁supply	-10.0051
▁Time	-10.0053
▁park	-10.006
tain	-10.0062
▁ser	-10.0065
AP	-10.0067
▁Show	-10.0069
▁Wa	-10.0072
▁negative	-10.0073
▁presence	-10.0073
▁peace	-10.0074
▁Jan	-10.0077
▁2009	-10.0077
▁Em	-10.0083
▁Internet	-10.0085
▁Rep	-10.0086
pp	-10.0088
▁Lake	-10.009
▁route	-10.0093
▁Those	-10.0094
▁carry	-10.0096
▁camera	-10.0104
λ	-10.0104
▁Research	-10.0109
▁Fi	-10.011
▁foot	-10.0115
ette	-10.0118
RE	-10.0119
▁conflict	-10.0121
▁Si	-10.0128
az	-10.0129
ob	-10.0131
▁Scott	-10.0133
▁Home	-10.0134
▁discovered	-10.0135
▁dangerous	-10.0135
▁micro	-10.0136
▁purchase	-10.0144
▁killing	-10.0145
ade	-10.0153
ram	-10.0159
▁prices	-10.0162
▁posted	-10.0165
▁candidates	-10.017
▁completed	-10.018
18	-10.0194
▁existing	-10.0198
")	-10.0204
▁map	-10.0205
ه	-10.0214
▁mention	-10.0216
cho	-10.0218
▁Sea	-10.0225
▁removed	-10.0233
head	-10.0234
US	-10.0243
▁Israeli	-10.0245
▁tour	-10.0246
▁alternative	-10.0247
90	-10.0254
vel	-10.0255
▁types	-10.0258
ef	-10.026
▁Gra	-10.0265
▁cash	-10.0267
▁debt	-10.0271
▁cold	-10.0281
▁happens	-10.0282
”,	-10.0283
▁Cla	-10.0284
ш	-10.0285
▁conversation	-10.0296
▁stick	-10.0296
▁coronavirus	-10.0297
▁walked	-10.0301
elle	-10.0303
▁suggested	-10.0304
▁guess	-10.0304
▁division	-10.0307
mark	-10.0307
▁housing	-10.0315
▁cl	-10.0316
▁cat	-10.0316
▁sta	-10.0316
▁Up	-10.0318
▁uses	-10.0325
ı	-10.0331
▁Yes	-10.0333
van	-10.0333
▁Lee	-10.0334
▁wish	-10.0335
▁theory	-10.0339
▁chair	-10.0339
▁wind	-10.0343
cus	-10.0349
▁devices	-10.0352
▁charged	-10.0355
uck	-10.0357
ification	-10.0359
▁cars	-10.0373
▁Best	-10.038
▁bus	-10.0383
▁bottom	-10.0385
▁1990	-10.0389
▁ve	-10.0391
▁telling	-10.0392
▁mobile	-10.0392
▁tre	-10.0397
▁operation	-10.0405
▁Die	-10.0405
▁concern	-10.0406
▁Commission	-10.0407
AN	-10.0407
▁„	-10.0411
▁failure	-10.0412
med	-10.0415
▁carried	-10.0421
▁explain	-10.0422
▁opinion	-10.0423
▁object	-10.0425
▁sin	-10.0428
▁distance	-10.0433
▁fellow	-10.0434
ю	-10.0435
▁Col	-10.0439
▁girls	-10.0445
▁sports	-10.0449
|	-10.0449
gy	-10.045
▁jo	-10.0455
23	-10.0458
▁task	-10.0465
▁decade	-10.0466
▁Second	-10.0469
▁Bre	-10.0471
▁bi	-10.0475
ни	-10.0476
yl	-10.0488
▁covered	-10.0489
▁Back	-10.049
▁appeal	-10.0492
した	-10.0495
▁th	-10.0496
▁como	-10.0499
▁arrest	-10.0499
bin	-10.0512
▁mouth	-10.0515
▁sleep	-10.0517
▁heat	-10.0524
ments	-10.0528
▁hundreds	-10.0535
▁providing	-10.0538
▁mentioned	-10.0543
▁strength	-10.0548
01	-10.0552
serv	-10.0556
hn	-10.0559
▁pull	-10.0561
▁Before	-10.0566
▁Van	-10.0568
▁smaller	-10.0569
▁tough	-10.0569
ging	-10.057
▁("	-10.0575
▁Iraq	-10.0577
▁dropped	-10.0577
▁supported	-10.0579
х	-10.0589
ро	-10.059
▁Force	-10.0598
▁bo	-10.0606
▁Secretary	-10.0609
▁mine	-10.0611
twitter	-10.0613
row	-10.0614
▁ein	-10.0615
▁originally	-10.0617
▁background	-10.0619
▁documents	-10.0621
mor	-10.0621
af	-10.0624
▁false	-10.0627
▁Matt	-10.0635
▁finish	-10.0638
▁generation	-10.064
▁Wall	-10.0643
▁limit	-10.0647
▁values	-10.0649
tel	-10.0651
ção	-10.0652
く	-10.0656
▁dollars	-10.0658
IS	-10.0664
▁ro	-10.0665
zen	-10.0667
35	-10.0669
ER	-10.067
cia	-10.067
▁Bu	-10.0678
▁planned	-10.0691
▁driving	-10.0691
▁handle	-10.0694
▁за	-10.0698
▁fe	-10.0699
▁planning	-10.0711
▁legislation	-10.0713
▁aid	-10.0714
▁document	-10.0718
▁victims	-10.0718
▁dans	-10.072
▁focused	-10.0721
▁Cal	-10.0726
▁assault	-10.0752
tch	-10.0755
▁Fe	-10.0756
▁AD	-10.0759
▁river	-10.0761
▁chain	-10.0764
▁studio	-10.0769
▁tournament	-10.0771
▁2000	-10.0773
dis	-10.0773
▁east	-10.0774
ign	-10.0778
ement	-10.078
▁Blue	-10.0786
▁у	-10.0799
non	-10.08
nu	-10.0801
▁Power	-10.0809
τ	-10.0811
▁formed	-10.0813
▁Muslim	-10.0814
▁Land	-10.0817
▁ré	-10.0818
▁correct	-10.0825
▁offering	-10.0829
int	-10.083
▁fl	-10.0834
▁concept	-10.0836
▁Th	-10.0839
lon	-10.084
і	-10.0842
▁ci	-10.0843
▁App	-10.0843
▁easier	-10.0847
▁UN	-10.0848
た	-10.0848
▁steps	-10.0851
▁av	-10.0859
▁crew	-10.0863
▁identified	-10.0866
م	-10.087
▁maintain	-10.0876
▁animals	-10.0878
▁Are	-10.088
▁elections	-10.088
▁»	-10.0886
▁formula	-10.0889
▁Charles	-10.0893
▁missing	-10.0896
ese	-10.0897
zz	-10.09
ane	-10.0904
22	-10.0906
но	-10.0906
▁extremely	-10.0907
▁reform	-10.0909
▁putting	-10.0911
play	-10.0915
▁suit	-10.0928
long	-10.0931
▁NFL	-10.0936
▁master	-10.094
▁smart	-10.0942
è	-10.0945
▁net	-10.0947
▁eat	-10.0955
ica	-10.0958
▁allowing	-10.0959
▁finding	-10.0959
▁Human	-10.0966
▁aware	-10.0972
▁Royal	-10.0977
▁sitting	-10.0977
▁prove	-10.0985
▁shape	-10.0989
ala	-10.0993
▁ال	-10.0993
eg	-10.0994
▁west	-10.0995
▁owner	-10.0996
▁measures	-10.1003
▁supposed	-10.1019
го	-10.1019
▁magazine	-10.1025
イ	-10.1029
▁setting	-10.1029
▁hu	-10.1031
▁dream	-10.1033
▁Middle	-10.1033
▁touch	-10.1033
tan	-10.1037
ع	-10.1038
▁concerned	-10.1038
▁tools	-10.104
Co	-10.1041
▁Club	-10.1044
▁hate	-10.105
▁35	-10.105
▁Federal	-10.1064
ving	-10.1066
▁closer	-10.1066
▁Par	-10.1068
How	-10.1069
ito	-10.1074
▁Jack	-10.1085
▁raise	-10.1085
▁Photo	-10.1089
▁metal	-10.1091
▁entered	-10.1094
▁variety	-10.1094
▁Sal	-10.1094
hal	-10.1095
▁Virginia	-10.1096
▁instance	-10.1108
cht	-10.1111
ball	-10.1114
oo	-10.1119
▁worst	-10.1119
▁army	-10.1124
▁auto	-10.1125
▁council	-10.1127
▁birth	-10.113
▁items	-10.1132
▁funds	-10.114
▁strike	-10.1145
▁flight	-10.1147
ва	-10.1154
▁definitely	-10.116
▁fresh	-10.1165
▁argument	-10.1167
ib	-10.1167
ч	-10.1167
▁vs	-10.1169
mal	-10.1175
▁cells	-10.1182
▁connection	-10.1188
▁slightly	-10.1188
▁Every	-10.1189
▁surprise	-10.1196
▁length	-10.1196
▁appearance	-10.1198
▁update	-10.1207
▁Foundation	-10.1209
▁vision	-10.1214
ن	-10.1214
zy	-10.1214
▁victim	-10.122
ista	-10.1224
▁Jewish	-10.1225
▁Tra	-10.1225
▁units	-10.1225
▁warm	-10.1228
▁measure	-10.1232
▁leg	-10.1233
▁Life	-10.1234
▁largely	-10.1235
▁Media	-10.1238
▁Andrew	-10.1239
▁о	-10.1241
▁Alex	-10.1241
cri	-10.1241
▁familiar	-10.1242
▁zone	-10.1256
▁revenue	-10.1257
ien	-10.1262
yn	-10.1266
▁shift	-10.127
▁context	-10.127
▁injury	-10.1273
人	-10.1276
▁capacity	-10.1276
▁entirely	-10.1281
▁Daniel	-10.1289
▁med	-10.1291
▁auf	-10.1293
▁mental	-10.1298
▁32	-10.1299
▁views	-10.131
▁Part	-10.1311
▁About	-10.1312
▁throw	-10.1314
ア	-10.1314
▁writer	-10.1317
▁Company	-10.1317
▁editor	-10.1317
ama	-10.132
▁plays	-10.132
▁Carolina	-10.1324
qua	-10.1326
ano	-10.1327
▁truly	-10.1328
05	-10.1332
lle	-10.1333
My	-10.134
Ro	-10.1348
▁scientists	-10.1348
uri	-10.1351
IC	-10.1365
▁roll	-10.1369
▁discuss	-10.1369
Le	-10.137
▁sites	-10.1372
▁stream	-10.1373
▁union	-10.1378
▁performed	-10.1378
▁hotel	-10.1381
ons	-10.1386
š	-10.1387
▁Though	-10.1388
▁gain	-10.139
▁Yet	-10.1392
ene	-10.1393
▁internal	-10.1395
ти	-10.1396
▁USA	-10.1398
▁domestic	-10.1408
Con	-10.1409
fo	-10.1415
▁virus	-10.1416
▁coverage	-10.1417
pon	-10.1419
▁fra	-10.1421
28	-10.1422
▁200	-10.1425
▁1980	-10.1426
▁becomes	-10.143
ES	-10.1432
▁therefore	-10.1435
uring	-10.1436
▁Grand	-10.1439
▁artist	-10.1443
ola	-10.1444
▁Kim	-10.1449
▁ko	-10.1451
на	-10.1455
▁Rock	-10.1456
▁exp	-10.146
amp	-10.1461
▁Ku	-10.1466
▁2,	-10.1467
ele	-10.1469
ett	-10.1469
▁tool	-10.1474
▁baby	-10.1478
する	-10.148
▁farm	-10.148
▁bomb	-10.1484
▁2001	-10.1485
▁university	-10.1489
aw	-10.149
▁Ve	-10.149
▁committed	-10.1491
wn	-10.1494
▁catch	-10.1499
▁environmental	-10.1499
rich	-10.1503
▁wave	-10.1505
▁deliver	-10.1512
▁Roman	-10.1518
▁guard	-10.1523
▁j	-10.1528
▁suggest	-10.153
て	-10.1535
▁Ireland	-10.1537
ius	-10.1539
▁identity	-10.1542
lia	-10.1542
▁alleged	-10.1554
▁trouble	-10.1558
▁keeping	-10.1564
▁gr	-10.1576
▁grew	-10.1578
ast	-10.1588
mes	-10.1588
▁immigration	-10.1589
▁Ryan	-10.1589
cul	-10.1592
▁Pu	-10.1595
▁Watch	-10.1599
xi	-10.16
▁combat	-10.1601
▁Com	-10.1602
▁fish	-10.1603
point	-10.1608
▁solid	-10.1611
kt	-10.1611
▁3.	-10.1614
▁province	-10.1618
07	-10.162
EN	-10.1628
▁click	-10.163
▁harm	-10.1637
ED	-10.1639
app	-10.1643
hand	-10.1643
▁Shi	-10.1645
SA	-10.1655
!”	-10.1655
▁knows	-10.1664
▁flag	-10.1666
▁fund	-10.1676
▁Each	-10.1678
Al	-10.1684
aire	-10.1688
ique	-10.1688
cur	-10.1691
▁Francisco	-10.1694
▁expression	-10.1696
▁animal	-10.17
ear	-10.1708
▁sister	-10.1711
ug	-10.1712
▁download	-10.1713
▁honor	-10.1715
Be	-10.1718
▁supporters	-10.1719
▁Bal	-10.1722
▁island	-10.1724
pu	-10.1725
tar	-10.1726
▁2016,	-10.1726
ological	-10.1727
When	-10.173
▁cho	-10.1735
▁Play	-10.1736
▁cultural	-10.1737
▁gi	-10.1737
▁Catholic	-10.1746
▁famous	-10.175
▁conservative	-10.1752
▁hat	-10.1754
class	-10.1754
stone	-10.1754
▁religion	-10.1761
▁speaking	-10.1761
▁Toronto	-10.1762
dan	-10.1764
▁Frank	-10.1764
▁Dar	-10.1766
▁Science	-10.1766
▁listed	-10.1767
▁2005	-10.1767
▁Christ	-10.1772
▁fu	-10.1774
▁80	-10.1774
▁elements	-10.1775
▁£	-10.1776
▁founded	-10.1777
vent	-10.1777
▁engine	-10.1777
AR	-10.1777
▁increasing	-10.178
▁nicht	-10.1785
▁equipment	-10.1788
▁twice	-10.1788
}	-10.1791
▁notes	-10.1811
sha	-10.1813
gle	-10.1816
which	-10.1817
ere	-10.1819
vers	-10.1821
▁Women	-10.1821
▁Far	-10.1827
▁losing	-10.1832
▁pic	-10.1833
▁ring	-10.1834
▁faith	-10.1835
▁Islamic	-10.1836
▁inform	-10.1836
ties	-10.1844
▁listen	-10.1845
▁broke	-10.1848
▁helping	-10.1855
ect	-10.1855
▁Ya	-10.1857
ら	-10.1866
▁Top	-10.1867
ically	-10.187
26	-10.1871
27	-10.1873
▁determine	-10.1874
▁Music	-10.1875
▁Windows	-10.1877
▁Please	-10.188
▁skills	-10.188
▁Tim	-10.1881
Mo	-10.1881
ata	-10.1881
▁balance	-10.1883
▁doctor	-10.1883
▁label	-10.1886
▁PC	-10.1898
▁evening	-10.1899
air	-10.1899
ción	-10.1902
chen	-10.1903
view	-10.1906
▁Hillary	-10.1909
▁Williams	-10.191
▁wild	-10.191
▁conduct	-10.1919
▁operating	-10.1922
σ	-10.1929
▁2007	-10.193
▁Board	-10.1932
▁millions	-10.1933
▁songs	-10.1933
▁requires	-10.1934
▁exercise	-10.1936
▁2002	-10.1937
▁happening	-10.194
▁figures	-10.1944
ris	-10.1945
▁>	-10.1945
hl	-10.1961
▁remaining	-10.1964
cle	-10.1966
▁gender	-10.1967
▁Fire	-10.1967
▁500	-10.197
▁aircraft	-10.1971
▁shut	-10.1973
▁flat	-10.1974
ida	-10.1976
▁tight	-10.1982
▁volume	-10.1984
nen	-10.1985
sky	-10.1987
▁cor	-10.199
ctor	-10.1994
▁presented	-10.1995
{	-10.1995
▁pan	-10.1996
▁Jesus	-10.1998
▁90	-10.1999
▁za	-10.2001
▁broken	-10.2004
▁Ser	-10.2007
▁Division	-10.2009
vert	-10.201
ando	-10.2011
▁warning	-10.2014
▁represent	-10.2023
▁Long	-10.2024
▁models	-10.2026
var	-10.2029
▁frame	-10.2031
▁Inter	-10.2031
TV	-10.2037
▁spring	-10.2037
▁Vo	-10.2037
▁smile	-10.2046
▁filed	-10.2046
▁tells	-10.2047
▁tree	-10.205
▁pen	-10.2055
▁emergency	-10.2059
▁Nor	-10.2059
▁Wood	-10.2059
ising	-10.2062
kan	-10.2062
ros	-10.2066
▁Es	-10.2067
#	-10.207
ming	-10.2071
▁Ten	-10.2072
ş	-10.2072
mas	-10.2072
▁remove	-10.2077
▁secure	-10.2077
▁Saudi	-10.2082
ú	-10.2085
▁shop	-10.2085
▁Mary	-10.2088
▁Year	-10.209
ι	-10.2091
▁governor	-10.2093
▁regarding	-10.2094
▁liberal	-10.2094
32	-10.2097
▁Mal	-10.2098
▁Val	-10.2101
té	-10.2101
▁vast	-10.2101
▁minute	-10.2102
▁rep	-10.2102
▁directed	-10.2103
▁drugs	-10.2106
▁cards	-10.2114
):	-10.2115
▁useful	-10.2117
▁square	-10.2117
su	-10.2119
▁enforcement	-10.2137
lie	-10.215
▁labor	-10.215
▁bio	-10.2152
▁otherwise	-10.2153
▁2017,	-10.2155
ais	-10.216
▁2006	-10.2167
▁stone	-10.2178
▁flow	-10.2182
▁Bush	-10.2184
▁numerous	-10.2185
▁Pakistan	-10.2189
▁;	-10.219
▁Only	-10.2194
▁Love	-10.2198
▁sc	-10.2203
ST	-10.2204
▁except	-10.2209
▁min	-10.2212
▁giant	-10.2213
▁replaced	-10.2218
state	-10.2219
▁jail	-10.2222
▁45	-10.2226
▁agent	-10.2228
zer	-10.2231
▁amazing	-10.2233
▁Labour	-10.2235
▁sale	-10.2237
▁gay	-10.2238
with	-10.2242
▁minor	-10.2254
▁mix	-10.2255
▁Microsoft	-10.2259
▁authority	-10.2265
Pro	-10.2268
▁organizations	-10.2271
▁votes	-10.2276
▁relatively	-10.2277
MA	-10.2277
win	-10.2284
▁insurance	-10.2285
shi	-10.2287
RA	-10.229
An	-10.2291
▁apply	-10.2296
▁broadcast	-10.2298
▁equal	-10.2299
▁seeking	-10.23
ρ	-10.2301
▁split	-10.2301
▁appointed	-10.2303
▁BBC	-10.2316
▁vo	-10.2317
▁photos	-10.2319
▁Trans	-10.2331
▁regime	-10.2332
▁dem	-10.2333
▁pointed	-10.2335
▁discussion	-10.2336
ye	-10.2337
place	-10.234
▁willing	-10.2345
▁70	-10.2346
04	-10.2347
og	-10.2352
▁4.	-10.2356
▁intended	-10.2357
▁fix	-10.2363
▁dance	-10.2366
ory	-10.2366
06	-10.2372
▁count	-10.2375
▁soldiers	-10.2378
sis	-10.2382
▁Jim	-10.2384
ale	-10.2385
▁uma	-10.2386
г	-10.2386
▁GOP	-10.2386
▁Steve	-10.2387
▁pi	-10.2389
▁manage	-10.2392
▁Ch	-10.2392
▁yards	-10.2395
▁grand	-10.2395
nge	-10.2401
ika	-10.2401
▁desire	-10.2401
ets	-10.2404
die	-10.2412
▁não	-10.2412
▁stars	-10.2413
NA	-10.2415
ans	-10.2415
▁Yu	-10.2416
29	-10.2416
▁decisions	-10.242
▁2015,	-10.2422
▁thanks	-10.2429
да	-10.243
▁prepared	-10.2432
▁featured	-10.2439
▁youth	-10.2442
▁storm	-10.2445
ا	-10.245
▁developing	-10.2453
▁pot	-10.2464
▁mon	-10.2466
▁applications	-10.2467
cept	-10.2467
▁Boston	-10.2473
ía	-10.2475
▁reference	-10.248
▁Italian	-10.2482
▁interests	-10.2484
iti	-10.2486
▁Android	-10.2487
isation	-10.249
75	-10.2492
▁experts	-10.2495
▁Gen	-10.2496
▁talks	-10.2501
lich	-10.2501
▁ride	-10.2502
▁native	-10.2503
▁scientific	-10.2506
▁System	-10.2507
▁advance	-10.2514
▁marijuana	-10.2525
▁offensive	-10.2537
▁facing	-10.2537
mente	-10.254
ify	-10.254
▁changing	-10.2541
▁blockchain	-10.2541
▁Min	-10.2542
・	-10.2544
▁vehicles	-10.2544
top	-10.2545
▁ultimately	-10.2546
▁script	-10.2547
ле	-10.2548
▁obvious	-10.2549
As	-10.2549
▁troops	-10.2557
▁Social	-10.2559
▁wear	-10.2562
5,000	-10.2563
shed	-10.257
▁custom	-10.2571
▁scored	-10.2575
▁seek	-10.2579
▁format	-10.2583
▁mayor	-10.2584
▁conducted	-10.2588
▁ordered	-10.2588
▁Inc	-10.2592
ت	-10.2595
She	-10.2596
▁Il	-10.2596
▁Va	-10.2599
ό	-10.26
▁bringing	-10.2601
▁Society	-10.2607
08	-10.2609
▁Still	-10.2618
▁chi	-10.2625
▁tech	-10.2626
▁accounts	-10.2627
▁infrastructure	-10.2628
nn	-10.263
▁signal	-10.2635
CA	-10.2645
▁bright	-10.2648
▁transition	-10.2651
▁Maybe	-10.2653
▁possibly	-10.2654
▁1970	-10.2661
▁Note	-10.2665
Bo	-10.2665
rin	-10.2665
▁soft	-10.2665
▁Italy	-10.2671
ban	-10.2672
▁2004	-10.2674
▁spirit	-10.2679
▁Michigan	-10.2682
▁Project	-10.2684
▁nearby	-10.2685
▁promote	-10.2685
LE	-10.2687
OR	-10.2688
lly	-10.269
▁cre	-10.2691
▁wearing	-10.2694
Me	-10.2699
â	-10.2699
lam	-10.2704
ugh	-10.2704
▁moral	-10.2706
▁rare	-10.2717
▁lawsuit	-10.2723
▁bridge	-10.2723
45	-10.2725
▁ste	-10.2727
ration	-10.2736
load	-10.2737
lt	-10.2738
▁rec	-10.274
▁visual	-10.2747
▁afternoon	-10.2749
▁increasingly	-10.275
▁Sta	-10.2751
▁none	-10.2751
▁Port	-10.2753
OS	-10.2757
▁Report	-10.2758
▁impossible	-10.2759
mann	-10.2763
▁2014,	-10.2764
nch	-10.2765
ة	-10.2772
▁refused	-10.2773
ación	-10.2775
Oh	-10.2777
き	-10.2778
▁watched	-10.2782
▁Valley	-10.2784
part	-10.2784
▁Mil	-10.2785
▁miss	-10.2786
▁TO	-10.2789
▁affected	-10.2791
▁PM	-10.2793
ali	-10.2794
▁filled	-10.2795
▁fill	-10.2799
run	-10.28
▁estimated	-10.2801
▁YouTube	-10.2802
mic	-10.2804
▁Republic	-10.2805
gel	-10.2806
▁Gal	-10.2806
▁Sign	-10.2808
▁Ed	-10.281
ré	-10.2814
▁confirm	-10.2814
▁Where	-10.2818
ash	-10.2823
▁Gold	-10.2824
ć	-10.2826
▁wa	-10.2834
▁responsibility	-10.2835
▁bigger	-10.2847
▁Images	-10.2851
sp	-10.2853
▁Syrian	-10.2854
▁surrounding	-10.2858
▁Turkey	-10.2865
▁mark	-10.2869
▁origin	-10.2869
▁Korean	-10.2869
book	-10.287
dia	-10.2875
▁treat	-10.2875
▁contains	-10.2879
▁recording	-10.2879
▁Comp	-10.288
▁ab	-10.2881
▁breath	-10.2884
▁creation	-10.2887
▁package	-10.2887
▁sich	-10.2888
▁initially	-10.2888
St	-10.2889
**	-10.289
▁pilot	-10.2892
ern	-10.2893
▁hi	-10.2893
▁campus	-10.2897
▁ruling	-10.2899
▁picked	-10.2901
TA	-10.2908
▁prop	-10.2909
▁shall	-10.2909
▁lie	-10.2911
▁serving	-10.2913
zu	-10.2914
▁standards	-10.2915
▁forms	-10.2916
ν	-10.2918
vy	-10.2922
▁walking	-10.2926
▁talent	-10.2932
▁lawyer	-10.2932
▁proposal	-10.2933
tom	-10.2934
▁Cre	-10.2939
-3	-10.2939
post	-10.2941
▁southern	-10.2942
rick	-10.2943
▁buildings	-10.2945
▁pushed	-10.2945
▁bought	-10.2945
▁regional	-10.295
▁Bas	-10.2951
▁sides	-10.2952
▁Mer	-10.2962
idade	-10.2963
▁films	-10.2963
▁sentence	-10.2964
▁guide	-10.2965
Ha	-10.2967
▁wood	-10.2969
▁northern	-10.2969
read	-10.2969
yard	-10.297
▁Check	-10.2971
▁$3	-10.2971
ér	-10.2972
mmer	-10.2975
▁appropriate	-10.2978
▁fired	-10.2979
▁cycle	-10.2981
▁Asia	-10.2983
▁cloud	-10.2985
▁hall	-10.2989
▁owners	-10.299
▁Live	-10.299
ras	-10.2991
▁Bro	-10.2992
ular	-10.2993
▁attended	-10.2996
▁slowly	-10.2998
fin	-10.3006
▁Three	-10.3008
▁loved	-10.3014
▁defensive	-10.3015
▁expressed	-10.3022
▁channel	-10.3022
▁turns	-10.3027
▁pitch	-10.3032
town	-10.3032
vor	-10.3034
だ	-10.3039
American	-10.3041
fect	-10.3047
▁agencies	-10.3047
▁Old	-10.3049
▁Louis	-10.3053
▁imagine	-10.3055
▁god	-10.3056
▁про	-10.3063
▁announcement	-10.3063
ked	-10.3071
ados	-10.3075
ency	-10.3076
bel	-10.3081
▁carbon	-10.3081
▁fly	-10.3082
▁sounds	-10.3083
▁declared	-10.3093
▁Ukraine	-10.3095
▁cra	-10.31
▁tests	-10.3105
▁determined	-10.3106
sti	-10.3106
rated	-10.3107
▁turning	-10.3113
▁connected	-10.3114
tur	-10.3115
ena	-10.3119
dra	-10.3119
▁weapon	-10.3121
dor	-10.3124
▁weather	-10.3125
▁button	-10.313
▁hasn	-10.3132
ison	-10.3135
hin	-10.314
▁earth	-10.3141
▁Biden	-10.3142
à	-10.3144
▁possibility	-10.3144
▁streets	-10.3145
99	-10.3146
▁suggests	-10.3155
▁newspaper	-10.3156
▁banks	-10.3156
ж	-10.3162
▁voting	-10.3164
ened	-10.3172
▁wonder	-10.3174
dar	-10.3176
▁Stra	-10.3177
Fi	-10.3178
▁cha	-10.3179
▁occurred	-10.3181
▁owned	-10.3185
▁jump	-10.3186
▁motion	-10.3187
▁boost	-10.3187
ка	-10.3192
▁für	-10.3194
ク	-10.3198
▁voted	-10.3203
200	-10.3211
los	-10.3212
κ	-10.3223
や	-10.323
fully	-10.323
take	-10.3241
▁Tor	-10.3243
▁mod	-10.3243
ult	-10.3244
▁feels	-10.3244
ssa	-10.3254
ко	-10.3256
▁Queen	-10.3256
▁specifically	-10.3257
▁patient	-10.3258
▁violent	-10.326
▁bodies	-10.3264
▁stress	-10.3266
▁Ohio	-10.3269
▁Was	-10.327
eri	-10.3273
▁Journal	-10.3276
▁approved	-10.3282
▁contest	-10.3284
▁Boy	-10.3286
▁2018,	-10.3286
▁Award	-10.3287
ima	-10.329
▁kick	-10.3293
▁Daily	-10.3293
▁panel	-10.3295
ved	-10.3295
▁starts	-10.3296
▁unable	-10.3298
▁]	-10.3305
▁Spanish	-10.3311
▁approximately	-10.3315
ま	-10.3316
▁Championship	-10.3323
▁reportedly	-10.3326
▁combined	-10.3329
▁unless	-10.3332
gger	-10.3333
▁passing	-10.3337
▁var	-10.3339
▁experienced	-10.3341
wo	-10.3343
▁corporate	-10.3346
▁selling	-10.335
▁believes	-10.3353
▁adult	-10.3355
▁achieve	-10.3359
CC	-10.336
▁joint	-10.3361
met	-10.3368
▁Meanwhile	-10.3368
▁Georgia	-10.337
eb	-10.3375
▁sight	-10.3375
ose	-10.3375
ici	-10.338
▁paying	-10.3381
▁pieces	-10.3383
▁Christmas	-10.3391
ação	-10.3399
▁Academy	-10.34
▁worry	-10.3406
▁Mad	-10.3406
▁faster	-10.3406
▁developers	-10.3407
▁Games	-10.3407
▁accident	-10.3411
IT	-10.3416
▁vice	-10.3418
▁files	-10.3419
SE	-10.342
▁Book	-10.3423
▁apparently	-10.3429
▁fat	-10.3429
▁mais	-10.3433
▁scheme	-10.3436
▁Take	-10.3436
▁county	-10.344
▁phase	-10.3445
▁markets	-10.3445
free	-10.3447
more	-10.3448
ich	-10.3454
▁detail	-10.3456
art	-10.3457
▁spokesman	-10.346
▁opportunities	-10.3461
▁import	-10.3463
▁Video	-10.3466
-0	-10.3475
▁responded	-10.3475
▁log	-10.3478
▁suffered	-10.3487
▁healthy	-10.3488
▁contra	-10.349
▁journey	-10.349
▁lay	-10.3491
▁humans	-10.3492
年	-10.3492
▁server	-10.3496
▁matches	-10.3498
▁string	-10.3499
▁glass	-10.3505
▁sha	-10.3506
64	-10.3511
▁Young	-10.3512
リ	-10.3514
▁flu	-10.3515
cap	-10.3515
▁replace	-10.3517
▁select	-10.3522
▁factor	-10.3526
key	-10.3528
▁defeat	-10.3528
▁expensive	-10.3529
PA	-10.3531
▁tradition	-10.3532
▁Call	-10.3535
▁Water	-10.3535
▁alongside	-10.3535
▁solar	-10.3538
cut	-10.3539
▁reduced	-10.3541
tting	-10.3544
▁absolutely	-10.3546
から	-10.355
▁finance	-10.3551
▁Zealand	-10.3555
ée	-10.3557
att	-10.356
game	-10.3566
▁perspective	-10.3566
▁Parliament	-10.3566
▁apart	-10.3567
nk	-10.3568
▁Ac	-10.3569
cast	-10.3571
95	-10.3573
leg	-10.3574
▁plants	-10.3575
ق	-10.3577
▁widely	-10.3582
▁yes	-10.3582
▁shares	-10.3586
cip	-10.3589
cess	-10.3596
▁leaves	-10.3596
ender	-10.3596
room	-10.3598
mail	-10.36
▁facility	-10.3602
▁cur	-10.3604
pot	-10.3608
▁earned	-10.361
wer	-10.3611
▁Network	-10.3612
án	-10.3619
pm	-10.3621
▁Pen	-10.3622
cker	-10.3622
ité	-10.3624
Man	-10.3625
▁realize	-10.3627
то	-10.3631
▁connect	-10.3632
▁typically	-10.3637
▁row	-10.364
Ra	-10.3643
»	-10.3646
▁blow	-10.3648
nom	-10.3649
▁coast	-10.3651
▁combination	-10.3654
▁distribution	-10.3655
▁pool	-10.3658
▁methods	-10.366
▁homes	-10.3663
▁represented	-10.3664
▁Henry	-10.3665
▁brief	-10.3666
▁encourage	-10.3668
▁IN	-10.3669
▁End	-10.3669
mber	-10.3671
ula	-10.3677
▁denied	-10.3684
▁Real	-10.3684
ack	-10.369
▁Web	-10.3692
▁Asian	-10.3692
▁client	-10.3692
▁taxes	-10.3696
▁apartment	-10.3697
▁accepted	-10.3697
ric	-10.3699
33	-10.3699
▁transport	-10.3702
ラ	-10.3703
▁restaurant	-10.3706
▁Nu	-10.3708
▁tr	-10.3708
hen	-10.3709
ك	-10.371
▁soul	-10.371
▁CNN	-10.3712
و	-10.3714
clu	-10.3718
▁potentially	-10.372
▁Ki	-10.3724
▁Hi	-10.3725
ux	-10.3725
▁institutions	-10.3728
▁supporting	-10.3728
100	-10.3734
▁secretary	-10.3734
▁excited	-10.3737
▁ou	-10.3739
▁award	-10.3747
▁challenges	-10.375
name	-10.3751
ira	-10.3753
PS	-10.3753
▁criticism	-10.3754
日	-10.3755
▁privacy	-10.376
▁danger	-10.3761
▁scheduled	-10.3761
▁identify	-10.3763
mos	-10.3765
▁Soviet	-10.3769
▁factors	-10.3774
▁Right	-10.3775
▁Mel	-10.3778
▁Cu	-10.3779
▁sal	-10.378
▁pictures	-10.3782
▁Business	-10.3785
▁Sky	-10.3786
▁selected	-10.3794
related	-10.3796
pper	-10.38
02	-10.3805
lum	-10.3806
▁faced	-10.3806
▁CO	-10.3808
▁tall	-10.381
▁MP	-10.3812
▁delivered	-10.3813
ld	-10.3813
▁copy	-10.3816
▁1999	-10.3816
rum	-10.3818
▁entre	-10.3823
▁allegations	-10.3827
▁academic	-10.3829
▁sick	-10.3829
Yes	-10.383
▁Adam	-10.3835
ava	-10.384
▁Brexit	-10.3843
▁resolution	-10.3844
▁plot	-10.3851
ло	-10.3852
▁Space	-10.3863
▁argued	-10.3863
▁struggle	-10.3863
ри	-10.3864
▁Sub	-10.3867
kar	-10.3868
▁Irish	-10.3869
CH	-10.3872
▁Dec	-10.3874
▁greatest	-10.3877
▁videos	-10.388
▁signs	-10.3881
▁forget	-10.3881
water	-10.3882
▁injured	-10.3886
▁Pra	-10.3891
▁wo	-10.3892
03	-10.3894
All	-10.3898
▁ongoing	-10.39
see	-10.3902
36	-10.3913
▁admitted	-10.3915
▁trail	-10.392
▁reflect	-10.3924
47	-10.3927
▁technical	-10.3927
▁hell	-10.3929
▁Eric	-10.3929
Ba	-10.3931
▁artists	-10.3933
▁ancient	-10.3934
▁Jackson	-10.3938
lock	-10.3938
aj	-10.3939
ME	-10.3939
▁championship	-10.3946
89	-10.3946
▁advice	-10.3949
ль	-10.3949
ora	-10.3952
▁advanced	-10.3953
▁founder	-10.3955
▁historical	-10.3957
sia	-10.3957
▁assistant	-10.3957
ges	-10.3963
▁prefer	-10.3963
▁contrast	-10.3967
▁drink	-10.397
wan	-10.3971
▁edition	-10.3971
▁entry	-10.3975
▁Ste	-10.3977
box	-10.3979
▁2013,	-10.398
duc	-10.3983
▁2003	-10.3985
tern	-10.3985
▁sad	-10.3986
55	-10.3997
▁reaction	-10.3998
▁enemy	-10.4
ware	-10.4001
▁Market	-10.4002
▁weren	-10.4003
▁extended	-10.4003
▁earn	-10.4003
▁considering	-10.4003
▁Joseph	-10.4004
37	-10.4005
▁pet	-10.4005
▁percentage	-10.4012
ert	-10.4014
▁cri	-10.4021
lov	-10.4022
▁seconds	-10.4022
▁bra	-10.4023
▁referred	-10.4024
▁receiving	-10.4024
="	-10.4025
▁crash	-10.4028
lig	-10.403
▁acting	-10.4031
▁treated	-10.4032
▁facilities	-10.4034
▁session	-10.4035
▁commitment	-10.4039
▁plenty	-10.404
49	-10.405
▁Fo	-10.405
▁rain	-10.4052
pen	-10.4053
pur	-10.4054
31	-10.4056
▁lies	-10.4065
▁spell	-10.4065
▁error	-10.4067
б	-10.4068
▁Master	-10.4074
け	-10.4074
Why	-10.4075
▁gap	-10.4076
38	-10.4078
▁minimum	-10.4079
▁teacher	-10.4079
▁Education	-10.408
rus	-10.4084
▁Film	-10.4084
▁settlement	-10.4086
▁library	-10.4088
48	-10.4088
та	-10.4089
cio	-10.4094
▁Cat	-10.4099
ی	-10.4099
oon	-10.4105
▁plate	-10.4116
▁reporters	-10.4119
▁Week	-10.4119
▁missed	-10.4122
▁dedicated	-10.4122
97	-10.4126
IA	-10.4128
▁narrow	-10.4128
▁cup	-10.4131
▁plane	-10.4141
▁suddenly	-10.4142
65	-10.4142
ttle	-10.4145
▁waste	-10.4145
▁**	-10.4145
▁younger	-10.4149
▁trees	-10.4154
▁sought	-10.4155
▁strange	-10.416
▁suspect	-10.4161
bri	-10.4161
▁follows	-10.4164
▁Northern	-10.4165
mu	-10.4166
▁pla	-10.4172
▁hundred	-10.4174
▁reporting	-10.4174
▁Premier	-10.4176
star	-10.4177
TC	-10.4179
even	-10.4184
▁trading	-10.4185
▁expansion	-10.4188
▁Stephen	-10.4189
ole	-10.4203
▁significantly	-10.4208
▁Bob	-10.4214
aries	-10.4215
▁noticed	-10.4226
γ	-10.4228
▁Football	-10.4235
nny	-10.4238
▁affect	-10.4241
▁positions	-10.4241
▁Qu	-10.4242
ii	-10.4243
law	-10.4244
▁COVID	-10.4247
▁proud	-10.4249
▁Kingdom	-10.4251
▁2012,	-10.4253
▁PS	-10.4255
▁protected	-10.4256
▁thoughts	-10.4256
▁eine	-10.4257
▁estate	-10.426
▁random	-10.4261
▁Source	-10.4263
Po	-10.4265
Lo	-10.428
った	-10.4288
▁Kong	-10.4291
▁Sports	-10.4294
▁Nick	-10.4294
▁Carl	-10.4294
▁surprised	-10.4296
▁sto	-10.43
▁parent	-10.43
tr	-10.4302
ition	-10.4304
▁investors	-10.4307
▁obviously	-10.4316
▁shoot	-10.4323
▁conclusion	-10.4325
tle	-10.4326
()	-10.4327
▁feed	-10.4328
▁Edward	-10.4328
▁tea	-10.4333
▁Yo	-10.4336
▁Following	-10.4338
▁gu	-10.4338
table	-10.4345
▁indeed	-10.4349
▁Kar	-10.4352
▁export	-10.4352
ない	-10.4355
▁boys	-10.4356
▁license	-10.4357
▁guilty	-10.4358
onic	-10.436
▁talked	-10.4362
▁extreme	-10.4362
▁escape	-10.4371
▁stands	-10.4372
▁print	-10.4376
▁Special	-10.4378
▁teaching	-10.4379
▁33	-10.438
▁seriously	-10.4383
▁Ford	-10.4384
Well	-10.4384
IP	-10.4385
▁Der	-10.4387
▁flash	-10.4388
▁san	-10.439
AT	-10.4391
▁relations	-10.4392
SP	-10.4396
▁bid	-10.4401
idad	-10.4401
▁airport	-10.4406
dem	-10.4407
fall	-10.4409
▁bag	-10.4411
▁confidence	-10.4411
▁ya	-10.4412
▁defend	-10.4412
▁Greek	-10.4412
▁Jeff	-10.4415
cat	-10.4415
▁classes	-10.4417
▁install	-10.442
ante	-10.4421
▁programme	-10.4423
09	-10.4427
▁realized	-10.4427
és	-10.4429
▁rent	-10.443
▁warned	-10.443
▁mas	-10.443
▁sweet	-10.4431
▁bike	-10.4432
▁leads	-10.4436
▁snow	-10.4438
▁iron	-10.4443
gate	-10.4446
▁fo	-10.4451
▁wealth	-10.4454
▁Test	-10.4455
▁industrial	-10.4456
▁Southern	-10.4459
▁capable	-10.4463
34	-10.4463
test	-10.4464
bert	-10.447
level	-10.4477
▁promise	-10.4478
▁profile	-10.448
▁Cross	-10.4482
▁rising	-10.4485
▁Key	-10.4489
▁latter	-10.4489
▁radical	-10.4493
▁march	-10.4495
▁linked	-10.45
▁explore	-10.4502
vid	-10.4502
▁winter	-10.4504
▁Sir	-10.4508
▁king	-10.4509
▁coffee	-10.4512
ID	-10.4526
that	-10.453
▁seasons	-10.4531
▁Conservative	-10.4537
▁opposed	-10.4537
▁1998	-10.4543
▁delay	-10.4543
▁Spring	-10.4543
til	-10.4546
▁tackle	-10.4548
cen	-10.4549
nger	-10.4562
▁hadn	-10.4571
hold	-10.4571
▁copyright	-10.4572
▁offense	-10.4574
▁storage	-10.4574
▁sch	-10.4577
▁loud	-10.4582
▁pack	-10.4584
▁portion	-10.4585
▁attempts	-10.4586
ill	-10.4594
▁foundation	-10.4595
▁thank	-10.4596
▁weak	-10.4597
via	-10.4602
▁cal	-10.4603
▁updated	-10.4608
▁existence	-10.461
ο	-10.4611
▁trend	-10.4619
▁sport	-10.4629
▁contain	-10.4633
▁replied	-10.4638
▁\	-10.4639
▁applied	-10.4639
ami	-10.4641
▁Make	-10.4642
▁classic	-10.4643
▁Ken	-10.4643
▁Line	-10.4644
▁intention	-10.4645
▁36	-10.4648
▁abortion	-10.4649
ан	-10.4655
▁Ban	-10.4656
▁opposite	-10.4656
ili	-10.466
▁essential	-10.4661
▁fashion	-10.4663
▁fruit	-10.4666
▁taste	-10.4667
▁schedule	-10.4669
▁Next	-10.4669
▁heavily	-10.4672
▁Del	-10.4672
ators	-10.4675
▁customer	-10.4675
sse	-10.4677
▁declined	-10.4678
α	-10.468
▁Night	-10.468
▁Follow	-10.4681
bol	-10.4685
▁crack	-10.4685
▁load	-10.4686
▁ideal	-10.4686
gent	-10.4686
▁crimes	-10.4697
▁din	-10.4698
▁esta	-10.4699
▁Navy	-10.47
▁attend	-10.4702
▁politicians	-10.4704
▁Islam	-10.4713
▁Ci	-10.4713
▁1960	-10.4714
ille	-10.4716
▁Ze	-10.4718
yan	-10.4718
▁Story	-10.4719
▁MA	-10.4721
rt	-10.4723
▁deaths	-10.4729
▁Hong	-10.4734
▁prominent	-10.4738
▁ST	-10.4739
▁Santa	-10.4741
▁matters	-10.4742
▁что	-10.4744
▁Ali	-10.475
▁kid	-10.4752
▁monitor	-10.4752
▁3,	-10.4753
▁manner	-10.4753
▁actor	-10.4754
44	-10.4754
▁Ol	-10.4754
не	-10.4755
▁CA	-10.4764
▁dry	-10.4764
▁Civil	-10.4769
▁Work	-10.4773
rio	-10.4774
mun	-10.4776
än	-10.478
▁cuts	-10.4782
94	-10.4785
▁2016.	-10.4786
▁motor	-10.4786
▁Jr	-10.4787
▁experiment	-10.4788
▁joke	-10.4788
▁electric	-10.4793
▁western	-10.4797
▁protests	-10.4798
▁gift	-10.4802
▁km	-10.4804
▁cannabis	-10.4807
▁extension	-10.4807
▁closely	-10.4808
LA	-10.4808
▁dar	-10.481
▁compete	-10.4811
▁symbol	-10.4813
▁decline	-10.4813
Pa	-10.4814
▁Museum	-10.4815
▁switch	-10.4816
▁knowing	-10.4816
ense	-10.4818
mel	-10.482
▁awarded	-10.4821
▁publicly	-10.4823
dom	-10.4832
▁Jersey	-10.4841
▁importance	-10.4841
▁neck	-10.4844
▁winner	-10.4844
▁association	-10.4849
▁assets	-10.4849
pan	-10.4851
rá	-10.4852
▁broad	-10.4859
▁expand	-10.4862
▁fifth	-10.4862
▁commission	-10.4864
▁Senator	-10.4865
ians	-10.4868
▁materials	-10.487
▁Davis	-10.4873
▁mal	-10.4874
▁Review	-10.488
▁Colorado	-10.488
rid	-10.4883
gli	-10.4885
▁Oh	-10.4887
▁Arab	-10.4889
▁(1	-10.4891
▁Data	-10.4893
▁chairman	-10.4898
bil	-10.4902
39	-10.4904
▁empty	-10.491
▁Democrat	-10.4913
▁Win	-10.4913
▁rally	-10.4918
▁ph	-10.4918
▁pattern	-10.4923
är	-10.4923
▁Did	-10.4926
▁Centre	-10.4926
NS	-10.4936
▁till	-10.4938
▁Global	-10.4938
llen	-10.494
▁tweet	-10.4941
▁rose	-10.4941
▁Anti	-10.4941
called	-10.4942
▁agents	-10.4946
▁shouldn	-10.4946
ça	-10.4948
▁injuries	-10.4948
▁Four	-10.4949
▁ke	-10.495
▁sky	-10.4951
▁Light	-10.4953
▁marketing	-10.4955
iva	-10.4962
▁officially	-10.4963
▁gang	-10.4964
▁Pacific	-10.4964
▁tested	-10.4965
matic	-10.4965
rant	-10.497
▁craft	-10.4972
▁approval	-10.4972
las	-10.4976
▁urban	-10.4976
▁och	-10.4976
▁Spain	-10.4977
▁alive	-10.4977
pri	-10.4981
▁2017.	-10.4983
▁Among	-10.4984
din	-10.4985
gram	-10.4992
▁Development	-10.4995
▁ref	-10.4996
ico	-10.5002
▁allegedly	-10.5005
RC	-10.5009
ht	-10.501
style	-10.5012
▁journalist	-10.5016
▁pos	-10.5016
▁chose	-10.5017
AM	-10.5019
▁34	-10.502
▁armed	-10.5022
▁Bell	-10.5022
▁chart	-10.5022
▁bottle	-10.5022
▁Cho	-10.5023
tus	-10.5027
ced	-10.5033
▁Para	-10.5034
sol	-10.5035
▁element	-10.5041
▁alcohol	-10.5044
▁destroyed	-10.5051
▁neither	-10.5051
▁temperature	-10.5053
ру	-10.5055
▁smoke	-10.5055
rn	-10.5056
ą	-10.5059
ui	-10.5063
▁pri	-10.5063
▁seats	-10.5066
arch	-10.5067
▁festival	-10.5068
bus	-10.5068
▁wake	-10.5073
▁causing	-10.5079
▁hoping	-10.508
▁Fall	-10.508
▁RE	-10.5081
▁forest	-10.5085
▁Ph	-10.5087
▁suffering	-10.5093
body	-10.5094
▁permit	-10.5101
yo	-10.5101
▁Arizona	-10.5102
▁wing	-10.5105
▁consumers	-10.5111
▁profit	-10.5111
tti	-10.5111
▁stores	-10.5111
▁electronic	-10.5113
▁Kevin	-10.5117
大	-10.5119
▁tip	-10.5121
56	-10.5123
ب	-10.5124
86	-10.5124
ord	-10.5127
▁squad	-10.5131
▁zero	-10.5133
▁FC	-10.5133
▁tele	-10.5133
▁selection	-10.5135
▁begins	-10.5136
▁Battle	-10.5139
bat	-10.5139
▁1996	-10.5142
▁deck	-10.5142
media	-10.5143
▁Radio	-10.5143
ре	-10.5144
▁Professor	-10.5144
▁studied	-10.5145
▁Attorney	-10.5153
▁champion	-10.5155
▁loan	-10.5159
▁Brian	-10.5164
▁Ber	-10.5165
η	-10.5165
▁stretch	-10.5174
..."	-10.5176
▁è	-10.5176
▁Share	-10.5183
▁Series	-10.519
▁Jay	-10.5193
▁Coast	-10.5197
▁Hospital	-10.52
▁В	-10.5201
▁properties	-10.5203
▁breaking	-10.5206
stra	-10.5211
▁Stone	-10.5211
ace	-10.5211
ates	-10.5218
On	-10.5219
▁evil	-10.5219
▁communication	-10.5222
▁attempted	-10.5224
▁ourselves	-10.5226
ți	-10.523
▁extend	-10.5237
▁retired	-10.5242
▁truck	-10.5243
85	-10.5243
▁signing	-10.5243
▁shoulder	-10.5245
▁proper	-10.5245
▁franchise	-10.5245
ats	-10.5246
▁iPhone	-10.5247
98	-10.5248
ched	-10.5249
▁retail	-10.525
spir	-10.5252
▁messages	-10.5253
▁vor	-10.5257
▁anyway	-10.5257
う	-10.5264
▁Has	-10.5264
▁helps	-10.5264
▁welcome	-10.5267
▁Hol	-10.5268
▁Wilson	-10.5268
▁effectively	-10.5269
▁Mas	-10.5271
▁faces	-10.5273
▁carrying	-10.5274
▁roughly	-10.528
▁creative	-10.528
▁Tour	-10.5285
▁territory	-10.5293
▁holds	-10.5294
▁mini	-10.5297
ore	-10.5298
ering	-10.5299
▁regard	-10.5301
▁recognize	-10.5301
▁pages	-10.5302
▁Have	-10.5304
cial	-10.5308
▁express	-10.5309
you	-10.5309
▁Rose	-10.531
lay	-10.531
▁magic	-10.5312
FC	-10.5315
88	-10.5321
▁unknown	-10.5322
ь	-10.5324
ase	-10.5325
▁meat	-10.5327
▁counsel	-10.533
▁Defense	-10.5335
gging	-10.5335
▁ru	-10.534
▁upper	-10.5341
▁basically	-10.5342
▁Taylor	-10.5344
ige	-10.5345
▁admit	-10.535
▁usual	-10.5351
some	-10.5351
‘	-10.5351
sive	-10.5353
▁Miss	-10.5356
▁improved	-10.5357
▁defined	-10.536
▁plastic	-10.5362
▁до	-10.5363
jan	-10.5367
▁Sin	-10.5368
mus	-10.5369
че	-10.5369
▁Ce	-10.5372
▁height	-10.5372
▁database	-10.538
▁articles	-10.5381
Mar	-10.5381
▁competitive	-10.5381
▁kan	-10.5383
▁5.	-10.5387
Se	-10.5387
▁2011,	-10.5391
just	-10.5391
bli	-10.5391
▁discussed	-10.5396
▁Im	-10.5399
Sa	-10.5411
▁struck	-10.5414
▁Gri	-10.5414
▁beer	-10.5421
▁fer	-10.5422
▁đ	-10.5422
▁expert	-10.5426
▁hopes	-10.5429
▁Services	-10.5429
mission	-10.5434
ż	-10.5439
▁Final	-10.5441
▁к	-10.5445
▁Vol	-10.5446
eur	-10.5448
ij	-10.5452
▁fundamental	-10.5455
▁protein	-10.5457
uz	-10.5458
▁Cap	-10.5461
▁bear	-10.5461
▁AI	-10.5463
Ar	-10.5464
▁Houston	-10.5464
▁()	-10.5465
mat	-10.547
μ	-10.547
▁relevant	-10.547
▁Jordan	-10.5473
▁chosen	-10.5476
▁Afghanistan	-10.548
▁1997	-10.5486
▁Scotland	-10.5491
▁root	-10.5492
▁Constitution	-10.5493
cket	-10.55
▁requirements	-10.5503
▁2018.	-10.5505
▁DC	-10.5507
▁NBA	-10.5508
cra	-10.5514
▁Chapter	-10.5517
▁AP	-10.5519
RI	-10.552
▁chest	-10.5521
▁65	-10.5525
46	-10.5525
▁sum	-10.5526
spec	-10.5528
poli	-10.5528
▁suicide	-10.5529
tract	-10.5529
eh	-10.5529
▁inspired	-10.553
▁returning	-10.5531
▁afford	-10.5535
-4	-10.5543
▁Plan	-10.5545
▁arrive	-10.5545
▁mountain	-10.5547
▁drama	-10.5547
▁för	-10.5548
lit	-10.5554
bal	-10.5559
▁principal	-10.556
▁Wo	-10.556
▁poli	-10.556
ε	-10.5561
▁grown	-10.5563
▁lock	-10.5566
▁Fort	-10.5567
▁exception	-10.5568
▁ti	-10.5569
▁pin	-10.5569
▁Fra	-10.557
▁guns	-10.5571
▁severe	-10.5572
▁taught	-10.5574
BA	-10.5579
▁dealing	-10.558
▁attacked	-10.5584
▁immediate	-10.5585
▁Putin	-10.5586
▁300	-10.559
▁frequently	-10.559
▁2010,	-10.5593
ona	-10.5595
▁represents	-10.5597
▁Head	-10.56
▁Finally	-10.56
▁practices	-10.5603
▁//	-10.5605
▁anywhere	-10.561
▁upcoming	-10.561
nte	-10.5611
▁Ger	-10.5613
AA	-10.5614
▁terrorist	-10.5614
▁circumstances	-10.5616
▁peak	-10.5618
struct	-10.5621
▁output	-10.5624
▁drivers	-10.5625
blo	-10.5627
▁sharing	-10.5633
ج	-10.5634
▁disc	-10.5638
comp	-10.5641
ен	-10.5644
▁Kelly	-10.5647
▁causes	-10.5647
▁worried	-10.5647
▁mainly	-10.5648
▁historic	-10.565
ude	-10.5651
known	-10.5651
rry	-10.5653
ndo	-10.5658
▁Cur	-10.5659
▁destroy	-10.5659
▁Energy	-10.5667
▁democracy	-10.5668
▁neighborhood	-10.5669
96	-10.5675
▁activists	-10.5675
▁partnership	-10.5679
▁narrative	-10.5683
▁partners	-10.5683
▁CD	-10.5685
▁differences	-10.5688
▁OF	-10.5693
▁primarily	-10.5701
▁maximum	-10.5702
▁tiny	-10.5706
▁exit	-10.5712
ces	-10.5713
▁Disney	-10.5715
nal	-10.5718
▁links	-10.572
▁obtained	-10.5723
▁semi	-10.5726
▁Jews	-10.5728
▁Liberal	-10.5734
▁definition	-10.5736
▁Conference	-10.5738
▁Des	-10.5739
77	-10.574
AD	-10.5741
▁movies	-10.5742
66	-10.5745
bble	-10.5748
ister	-10.575
▁apps	-10.575
▁Jon	-10.5751
▁Fu	-10.5753
hor	-10.5754
▁teachers	-10.5755
▁assume	-10.5757
▁quiet	-10.5759
▁Prince	-10.5762
DA	-10.5763
mate	-10.5765
▁objects	-10.5769
▁Thank	-10.5772
▁consequences	-10.5774
▁View	-10.5777
▁Festival	-10.5778
▁Perhaps	-10.578
ska	-10.5783
▁spec	-10.5783
tru	-10.579
main	-10.5792
▁Use	-10.5794
tag	-10.5797
▁payment	-10.5797
▁vol	-10.5799
▁Miller	-10.58
▁experiences	-10.5801
fire	-10.5803
▁grade	-10.5805
▁default	-10.5806
▁Max	-10.5806
▁blame	-10.5806
▁Pennsylvania	-10.5809
68	-10.5811
▁coal	-10.5812
gh	-10.5813
▁yesterday	-10.5817
turn	-10.5817
▁este	-10.5819
▁Rights	-10.5819
▁Ram	-10.5821
י	-10.5822
って	-10.5823
▁branch	-10.5826
41	-10.5829
emp	-10.5829
59	-10.583
▁Phil	-10.5832
▁colleagues	-10.5834
ego	-10.5834
▁capture	-10.5834
fu	-10.5835
ा	-10.5836
vic	-10.584
▁wheel	-10.5842
ά	-10.5843
▁Pol	-10.5844
ches	-10.5845
▁thick	-10.5849
▁Cra	-10.5849
▁Ren	-10.5849
yer	-10.585
▁houses	-10.5851
Da	-10.5854
▁DNA	-10.5857
mpl	-10.5858
▁locations	-10.5859
42	-10.586
▁bat	-10.5863
▁functions	-10.5871
▁statements	-10.5873
augh	-10.5876
▁ending	-10.5877
▁Mus	-10.5878
▁Auto	-10.5878
▁explains	-10.5882
UT	-10.5884
▁honest	-10.5885
▁recommend	-10.5887
▁producer	-10.5887
gon	-10.5892
ente	-10.5893
col	-10.5893
▁def	-10.5896
▁regulations	-10.5898
▁comfortable	-10.5903
aka	-10.5904
▁mil	-10.5906
▁ski	-10.5908
▁Den	-10.5909
▁horse	-10.5909
▁sending	-10.591
▁Fla	-10.591
▁rural	-10.5913
υ	-10.5917
EL	-10.5917
ā	-10.5917
▁bull	-10.5919
▁moments	-10.5919
▁holiday	-10.592
▁consumer	-10.5922
▁falling	-10.5922
▁alien	-10.5923
IL	-10.5924
▁Warren	-10.5928
▁Shar	-10.5929
▁captured	-10.5936
▁immigrants	-10.5937
▁promised	-10.5941
sign	-10.5941
▁relief	-10.5942
▁controversial	-10.5942
▁Any	-10.5944
▁Foreign	-10.5945
▁Fre	-10.595
▁Seattle	-10.5951
▁argue	-10.5951
▁38	-10.5952
▁drawing	-10.5954
▁Eastern	-10.5958
æ	-10.5959
under	-10.5959
New	-10.596
▁1995	-10.5961
▁Nov	-10.5961
▁agenda	-10.5962
▁comparison	-10.5967
umble	-10.5968
▁pushing	-10.5969
▁mixed	-10.597
▁dynamic	-10.5974
▁Judge	-10.5974
▁singer	-10.5975
▁laid	-10.5975
▁generate	-10.5977
▁(2	-10.5981
ime	-10.5981
▁fake	-10.5983
▁Ministry	-10.5985
most	-10.5985
▁Town	-10.5985
▁emotional	-10.5986
word	-10.5988
▁solo	-10.5989
▁1994	-10.599
lli	-10.5994
▁MORE	-10.5994
▁más	-10.5994
43	-10.5995
ł	-10.5996
▁Os	-10.5997
▁Ms	-10.5999
▁Add	-10.6001
▁input	-10.6001
▁pra	-10.6005
lip	-10.6005
▁totally	-10.6009
▁findings	-10.6009
▁orders	-10.6009
▁foi	-10.601
▁solve	-10.6014
ß	-10.6018
eu	-10.602
▁wage	-10.6021
▁describe	-10.6021
▁doctors	-10.6022
▁Hollywood	-10.6022
▁Nations	-10.6024
▁ill	-10.6024
ет	-10.6025
▁permanent	-10.6026
▁م	-10.6027
▁constant	-10.6027
▁column	-10.6028
nan	-10.6029
▁somewhat	-10.6032
▁threats	-10.6033
▁hip	-10.6035
▁contributed	-10.6036
▁excellent	-10.6037
ки	-10.6039
▁han	-10.6039
ough	-10.6043
AS	-10.605
quest	-10.6051
▁Bowl	-10.6054
▁detailed	-10.6054
▁nations	-10.6055
▁Later	-10.6055
▁bu	-10.6058
▁mess	-10.606
BC	-10.6061
▁Little	-10.6069
χ	-10.6069
▁buying	-10.6073
▁quarterback	-10.6075
▁concert	-10.6076
▁deeply	-10.6079
bro	-10.6084
▁tied	-10.6087
rat	-10.6087
she	-10.6091
▁trick	-10.61
▁newly	-10.6106
MS	-10.6108
▁predict	-10.611
▁Iowa	-10.6111
▁Pla	-10.6112
▁granted	-10.6113
tress	-10.6116
▁Mayor	-10.6117
foot	-10.6117
isi	-10.6119
▁pl	-10.6122
▁everybody	-10.6124
▁Harris	-10.6126
▁registered	-10.6126
▁universe	-10.6129
▁48	-10.6131
▁repeatedly	-10.6131
Ex	-10.6141
▁gar	-10.6143
ц	-10.6145
▁Zu	-10.6145
▁chapter	-10.6146
▁necessarily	-10.6148
▁С	-10.6149
lee	-10.6154
▁Jean	-10.6155
▁Support	-10.6155
▁medal	-10.6156
cies	-10.6157
dal	-10.6158
ž	-10.616
▁tap	-10.616
▁crazy	-10.6161
▁virtual	-10.6162
▁37	-10.6162
▁headed	-10.6164
つ	-10.6169
br	-10.617
Star	-10.617
▁sorry	-10.6173
▁unusual	-10.6174
▁fixed	-10.6175
▁powers	-10.6177
▁currency	-10.618
▁tower	-10.618
▁dinner	-10.6182
AC	-10.6189
▁depth	-10.6193
▁49	-10.6195
▁acts	-10.6195
▁Bridge	-10.6197
▁Elizabeth	-10.6198
▁Rob	-10.62
▁understood	-10.6202
▁LA	-10.6204
▁colour	-10.6205
▁habit	-10.6205
▁legs	-10.6205
▁Euro	-10.6206
▁flying	-10.6209
▁basketball	-10.6212
▁ocean	-10.6214
▁adults	-10.6216
▁sand	-10.6217
▁Iranian	-10.6219
п	-10.6219
▁tracks	-10.6221
▁musical	-10.6222
SL	-10.6223
▁PA	-10.6226
▁Bull	-10.6228
▁collect	-10.6229
▁survive	-10.623
▁Program	-10.6235
▁Click	-10.6236
▁burn	-10.6238
▁ABC	-10.624
78	-10.6241
▁essentially	-10.6241
ded	-10.6244
▁alert	-10.6249
▁Community	-10.6265
amente	-10.6267
▁Marine	-10.6267
ters	-10.6267
▁mai	-10.6272
▁captain	-10.6273
▁$5	-10.6275
ario	-10.6275
▁Steven	-10.6277
▁twenty	-10.6278
▁grave	-10.628
mine	-10.6282
▁recognized	-10.6282
▁Bel	-10.6287
hol	-10.629
▁qua	-10.629
▁Avenue	-10.6293
▁2019,	-10.6293
ו	-10.6295
▁rail	-10.6299
▁resistance	-10.6299
▁Op	-10.63
▁Det	-10.6304
▁participants	-10.6306
aga	-10.631
▁observed	-10.6311
pin	-10.6312
away	-10.6313
▁racial	-10.6313
▁discover	-10.6313
▁obtain	-10.6313
ike	-10.6314
▁drawn	-10.6314
ür	-10.6319
▁elite	-10.6319
▁marked	-10.6322
uc	-10.6323
▁somewhere	-10.633
▁Arch	-10.633
▁targets	-10.6334
action	-10.6335
▁progressive	-10.6336
▁Governor	-10.6337
▁spin	-10.6337
▁shadow	-10.6338
▁disaster	-10.634
▁smooth	-10.6341
▁explanation	-10.6341
▁Moscow	-10.6342
▁strip	-10.6343
▁2015.	-10.6344
▁Dark	-10.6349
▁involving	-10.6351
▁gear	-10.6353
▁oc	-10.6356
tta	-10.6357
rea	-10.6357
▁ze	-10.6358
▁Point	-10.6362
▁walls	-10.6365
▁Medical	-10.6368
▁Muslims	-10.6369
▁Control	-10.6372
▁Luc	-10.6372
▁critics	-10.6374
▁Mountain	-10.6379
nde	-10.638
▁pocket	-10.6383
5%	-10.6386
▁defeated	-10.6386
▁harder	-10.6386
▁consistent	-10.6386
▁solutions	-10.6389
▁afraid	-10.6389
ف	-10.6391
▁belief	-10.6391
▁bitcoin	-10.6391
aria	-10.6392
▁objective	-10.6392
▁Ash	-10.6393
▁sharp	-10.6393
▁Hard	-10.6394
▁targeted	-10.6396
nda	-10.6399
▁organized	-10.64
ę	-10.6401
▁anymore	-10.6403
▁worldwide	-10.6404
▁fought	-10.6409
▁smiled	-10.641
▁thin	-10.6411
ax	-10.6411
▁Age	-10.6413
▁eating	-10.6415
SS	-10.6416
▁Summer	-10.6422
▁employee	-10.6425
nis	-10.6426
▁tank	-10.6428
▁fin	-10.6433
▁exposed	-10.6433
rian	-10.6435
▁SA	-10.6437
▁brings	-10.6437
▁skill	-10.6439
▁visited	-10.644
▁silence	-10.644
▁Bla	-10.6441
▁4,	-10.6447
▁pace	-10.645
▁Wales	-10.645
mis	-10.6451
▁prepare	-10.6452
▁permission	-10.6452
MP	-10.6453
▁1992	-10.6455
▁extent	-10.6456
▁%	-10.6457
gin	-10.6458
▁Ron	-10.6459
▁threatened	-10.6462
▁Minnesota	-10.6464
▁Cro	-10.6468
▁mat	-10.6468
▁Agency	-10.647
▁exact	-10.6471
EC	-10.6471
▁mistake	-10.6475
です	-10.6476
س	-10.6476
▁clients	-10.6477
prov	-10.6477
▁noise	-10.6478
▁opponent	-10.6479
vant	-10.6482
▁lit	-10.6485
ils	-10.6488
▁operate	-10.6489
▁Tony	-10.6489
▁assistance	-10.6491
▁flood	-10.6494
▁sample	-10.6496
ド	-10.6502
▁stations	-10.651
▁revolution	-10.6513
▁writes	-10.6517
▁occur	-10.6517
▁ballot	-10.6518
▁Arm	-10.6521
ington	-10.6523
▁audio	-10.6524
▁reward	-10.6527
rc	-10.6528
▁boat	-10.653
▁battery	-10.6532
ston	-10.6536
SC	-10.6537
▁Brazil	-10.6538
▁browser	-10.6539
▁AM	-10.6542
▁Tar	-10.6547
▁dia	-10.6547
▁formal	-10.655
▁vocal	-10.6554
▁gained	-10.6554
▁returns	-10.6556
▁unlikely	-10.6561
▁regularly	-10.6562
▁Saint	-10.6562
67	-10.6567
▁amid	-10.6569
type	-10.657
▁silver	-10.6576
▁Son	-10.6576
burg	-10.6577
ured	-10.6578
iden	-10.6582
▁Beach	-10.6582
▁Sh	-10.6586
▁baseball	-10.6586
▁allies	-10.6587
▁angry	-10.6587
tics	-10.6588
▁و	-10.6588
▁hide	-10.6591
▁tar	-10.6594
お	-10.6596
▁Mueller	-10.6596
Don	-10.6599
▁tag	-10.6601
▁proof	-10.6601
▁stepped	-10.6602
▁participate	-10.6602
▁auch	-10.6606
▁tail	-10.6609
76	-10.6611
▁terror	-10.6613
57	-10.6616
▁Bri	-10.6622
▁journal	-10.6625
▁dress	-10.6628
▁garden	-10.6631
kh	-10.6631
lation	-10.6632
life	-10.6633
▁relative	-10.6635
ть	-10.6636
▁Instagram	-10.6636
▁stra	-10.6641
TH	-10.6643
lk	-10.6644
rac	-10.6644
▁crypto	-10.6647
▁Assembly	-10.665
RO	-10.6658
▁fairly	-10.6658
▁eastern	-10.666
ロ	-10.6661
CO	-10.6662
87	-10.6663
č	-10.6665
▁ent	-10.6666
dies	-10.6667
▁Tre	-10.667
▁NASA	-10.6671
54	-10.6674
▁networks	-10.6675
▁Care	-10.6681
▁sie	-10.6682
rit	-10.6683
▁cable	-10.6683
▁moves	-10.6683
▁Mill	-10.6687
els	-10.6688
▁Major	-10.6689
▁calm	-10.669
▁Wild	-10.6692
▁Reg	-10.6697
▁pit	-10.6701
inter	-10.6703
▁een	-10.6704
oma	-10.6704
▁gli	-10.6706
ţi	-10.6708
▁readers	-10.671
▁Food	-10.6712
▁personnel	-10.6713
ми	-10.6716
▁Berlin	-10.6718
hood	-10.6718
▁rear	-10.6718
▁reveal	-10.672
▁ut	-10.6722
▁anger	-10.6722
now	-10.6723
▁diet	-10.6724
▁Order	-10.6726
マ	-10.6726
▁define	-10.6731
▁Ven	-10.6731
▁duty	-10.6731
DS	-10.6733
pic	-10.6735
▁mag	-10.6739
▁establish	-10.6739
▁Gov	-10.6743
▁fail	-10.6743
▁successfully	-10.6744
▁Fund	-10.6745
▁recall	-10.6746
▁sequence	-10.6746
▁possession	-10.6746
▁updates	-10.6748
▁а	-10.6749
▁Detroit	-10.675
▁Philadelphia	-10.6752
vit	-10.6753
▁engaged	-10.6754
▁kitchen	-10.6756
▁Ball	-10.676
▁Manchester	-10.6761
▁refer	-10.6762
udi	-10.6765
sey	-10.6767
▁dad	-10.6768
oy	-10.6769
▁ب	-10.6772
▁wine	-10.6775
▁2014.	-10.6775
▁chemical	-10.6778
▁category	-10.6779
という	-10.678
▁ku	-10.678
▁chat	-10.6782
tant	-10.6786
▁parking	-10.6786
NC	-10.679
▁attitude	-10.6795
▁adopted	-10.6799
atory	-10.6802
nel	-10.6803
ión	-10.6803
▁blind	-10.6804
▁lawmakers	-10.6808
dio	-10.6808
▁aside	-10.6809
▁hardware	-10.681
τα	-10.6816
dig	-10.6819
▁Several	-10.6819
▁sets	-10.6819
▁rape	-10.682
▁$4	-10.6822
nne	-10.6823
iya	-10.6823
▁controlled	-10.6826
▁64	-10.6826
▁Six	-10.6828
▁Vice	-10.683
▁Mexican	-10.6831
▁rat	-10.6833
▁(18	-10.6833
▁IS	-10.6834
▁shortly	-10.6835
92	-10.6838
▁1993	-10.6842
▁description	-10.6846
▁Simon	-10.6848
▁Ham	-10.6849
ή	-10.685
▁brown	-10.685
▁repair	-10.6851
▁emissions	-10.6853
Our	-10.6855
▁af	-10.6858
▁ruled	-10.686
▁hero	-10.686
▁mom	-10.686
51	-10.6861
▁somehow	-10.6866
▁ends	-10.6869
▁Ag	-10.687
tten	-10.687
At	-10.6871
▁valid	-10.6872
▁poverty	-10.6872
▁Thus	-10.6876
llo	-10.6876
▁alle	-10.6878
▁Dun	-10.688
▁Ray	-10.688
▁clothes	-10.6881
▁от	-10.6881
▁rejected	-10.6881
▁technologies	-10.6883
▁Tro	-10.6887
pr	-10.6888
▁FA	-10.6888
page	-10.6889
▁medicine	-10.6891
code	-10.6892
ст	-10.6892
▁History	-10.6893
▁Tech	-10.6894
new	-10.6896
gun	-10.6898
▁Ly	-10.6898
py	-10.6899
▁shock	-10.6901
▁dev	-10.6902
▁impressive	-10.6903
▁Such	-10.6903
▁tweeted	-10.6904
▁protesters	-10.6906
▁Main	-10.6906
▁establishment	-10.6906
▁Arabia	-10.6912
93	-10.6913
SD	-10.6914
encia	-10.6918
▁resulting	-10.6922
▁stuck	-10.6922
▁insist	-10.6923
58	-10.6929
▁Oregon	-10.6935
▁literally	-10.6935
▁increases	-10.6936
▁continuing	-10.6936
▁payments	-10.6936
▁Jason	-10.6939
▁gla	-10.6942
▁typical	-10.6943
▁42	-10.6946
▁collected	-10.6948
▁concluded	-10.6951
▁Cam	-10.6956
▁topic	-10.6956
▁400	-10.6957
▁properly	-10.6958
▁fees	-10.6958
rang	-10.6971
graph	-10.6972
▁Hy	-10.6972
▁fraud	-10.6973
▁passes	-10.6974
▁versions	-10.6976
▁Char	-10.6977
▁Cy	-10.6978
▁examples	-10.6979
ί	-10.6981
▁nomination	-10.6985
▁household	-10.6988
▁stable	-10.6989
ori	-10.6994
sten	-10.6994
▁Season	-10.6994
ón	-10.6996
▁Down	-10.6999
▁wins	-10.7001
▁sanctions	-10.7002
▁bli	-10.7002
▁fewer	-10.7005
▁Hand	-10.7006
▁Full	-10.7008
aki	-10.7011
mination	-10.7012
TS	-10.7012
BS	-10.7016
aging	-10.7016
who	-10.7019
▁str	-10.7023
ς	-10.7024
dent	-10.7024
lect	-10.7027
▁Bad	-10.7031
▁está	-10.7035
late	-10.7036
▁Latin	-10.7037
hard	-10.7038
▁complaint	-10.7039
▁suffer	-10.704
awa	-10.704
91	-10.704
ço	-10.704
▁hang	-10.7045
▁Which	-10.7046
▁bound	-10.7047
▁item	-10.7047
ral	-10.705
▁implement	-10.7053
▁busy	-10.7054
▁coalition	-10.7054
▁hidden	-10.7056
▁relationships	-10.7056
ily	-10.7059
▁Design	-10.7066
π	-10.7069
▁ty	-10.7069
1)	-10.7073
tribut	-10.7074
▁acquired	-10.7074
▁conce	-10.7076
▁crucial	-10.7076
▁claiming	-10.7076
shire	-10.7078
bot	-10.7079
space	-10.7081
▁NBC	-10.7081
▁Rick	-10.7082
face	-10.7083
eth	-10.7083
tig	-10.7083
▁2009,	-10.7089
▁Policy	-10.709
▁Dead	-10.7093
ground	-10.7094
▁ele	-10.7094
▁1991	-10.7095
▁44	-10.7097
一	-10.7099
▁delivery	-10.71
▁invest	-10.7102
84	-10.7102
▁grant	-10.7107
▁thousand	-10.7108
え	-10.7108
ounce	-10.7112
▁ships	-10.7112
53	-10.7112
▁Credit	-10.7114
▁sn	-10.7117
▁val	-10.7119
▁resulted	-10.7122
▁commit	-10.7123
▁Zi	-10.7123
▁reputation	-10.7124
▁Pass	-10.713
▁infection	-10.7131
▁defence	-10.7131
▁Miami	-10.7131
▁featuring	-10.7131
▁Kin	-10.7132
▁reaching	-10.7135
▁1950	-10.7138
▁Ty	-10.7141
▁Field	-10.7142
▁Palestinian	-10.7143
card	-10.7143
▁exciting	-10.7145
▁hole	-10.7146
▁cheap	-10.7152
▁engage	-10.7153
79	-10.7154
▁implementation	-10.7158
▁driven	-10.7158
bul	-10.7161
▁vulnerable	-10.7161
position	-10.7164
▁assist	-10.7164
gri	-10.7165
▁III	-10.7168
ote	-10.7171
sur	-10.7171
▁cutting	-10.7174
ende	-10.7175
een	-10.7176
▁Cruz	-10.7176
▁Turkish	-10.7178
▁encounter	-10.7178
▁Anna	-10.7178
▁spa	-10.7181
▁beside	-10.7181
tail	-10.7182
En	-10.7182
▁при	-10.7183
▁satellite	-10.7185
▁Columbia	-10.7186
69	-10.7188
▁silent	-10.7189
▁Alabama	-10.719
▁proved	-10.7192
▁graduate	-10.7194
kes	-10.7194
▁Tea	-10.7197
zar	-10.72
▁Information	-10.7204
▁platforms	-10.7207
▁Kan	-10.7208
▁mainstream	-10.721
▁strongly	-10.7211
▁regions	-10.7211
▁doors	-10.7218
▁purchased	-10.7219
lent	-10.722
月	-10.722
▁!	-10.7228
▁Wisconsin	-10.723
▁Harry	-10.7236
▁Ross	-10.7238
▁shit	-10.7242
▁laugh	-10.7242
ddle	-10.7242
52	-10.7243
▁fri	-10.7244
ト	-10.7247
▁reduction	-10.7248
▁steel	-10.7249
▁Ontario	-10.7252
▁bin	-10.7257
▁muscle	-10.7259
▁aimed	-10.726
▁Oct	-10.7261
カ	-10.7262
craft	-10.7263
▁dozen	-10.7263
OL	-10.7274
ake	-10.7276
▁achieved	-10.7276
▁Rome	-10.7279
▁ki	-10.7281
rist	-10.7283
▁enable	-10.7292
▁prize	-10.7295
▁letters	-10.7295
coming	-10.7296
▁Officer	-10.7297
▁domain	-10.7297
▁segment	-10.7299
▁Les	-10.7302
▁electricity	-10.7302
▁Patrick	-10.7302
ident	-10.7303
▁installed	-10.7304
olo	-10.7306
▁pr	-10.7306
▁wound	-10.7313
ua	-10.7315
eau	-10.7315
▁gotten	-10.7316
▁Thanks	-10.7316
▁visible	-10.7316
▁Run	-10.7317
▁yellow	-10.7329
▁scandal	-10.7331
▁engineering	-10.7335
▁interface	-10.7337
▁informed	-10.7338
▁rating	-10.7342
ography	-10.7343
care	-10.7343
▁components	-10.7344
▁Ob	-10.7344
▁scoring	-10.7346
wl	-10.7349
▁Getty	-10.735
▁museum	-10.735
▁Way	-10.735
▁Change	-10.7352
▁governments	-10.7352
▁Alexander	-10.7358
▁ticket	-10.7359
duct	-10.7363
▁reporter	-10.7364
▁kon	-10.7366
▁stronger	-10.7366
una	-10.7367
▁boss	-10.7367
▁Economic	-10.7368
▁outbreak	-10.7372
▁Say	-10.7377
▁emerged	-10.7379
ulation	-10.7379
imo	-10.7387
▁react	-10.7387
▁nodded	-10.7392
▁confident	-10.7393
▁Place	-10.7393
де	-10.7394
holder	-10.7394
▁75	-10.7398
▁Moore	-10.7399
▁tro	-10.74
tech	-10.74
▁demo	-10.7404
▁liquid	-10.7404
GB	-10.7405
▁respectively	-10.7406
▁formation	-10.7407
▁aspects	-10.7414
レ	-10.7415
reg	-10.7416
stan	-10.7417
ジ	-10.742
み	-10.7422
lib	-10.7422
▁disorder	-10.7422
▁purposes	-10.7424
▁trigger	-10.7425
во	-10.7427
▁ranking	-10.7427
▁knock	-10.7429
aya	-10.7429
▁mail	-10.7433
▁programming	-10.7435
▁guarantee	-10.7438
▁exploit	-10.744
▁39	-10.7446
▁hill	-10.7446
▁fields	-10.745
PP	-10.7453
▁invited	-10.7453
Trump	-10.7456
cin	-10.7456
char	-10.7457
▁moon	-10.7457
▁Sydney	-10.7459
▁Barr	-10.746
fic	-10.746
▁ties	-10.7461
hou	-10.7461
made	-10.7463
▁barely	-10.7464
す	-10.7464
▁dispute	-10.7466
▁opponents	-10.7466
▁recognition	-10.7469
▁gate	-10.7469
▁Matthew	-10.747
▁merely	-10.7471
lä	-10.7473
▁surveillance	-10.7479
▁ear	-10.7482
▁Technology	-10.7482
▁Price	-10.7484
72	-10.7488
▁să	-10.7488
▁Cook	-10.7489
▁Ann	-10.749
lf	-10.7496
bed	-10.7496
eva	-10.75
▁parliament	-10.7504
▁observe	-10.7504
ered	-10.7505
▁divided	-10.7506
▁wonderful	-10.7508
rig	-10.7509
▁developer	-10.751
▁processes	-10.7511
▁employment	-10.7513
▁witness	-10.7515
gre	-10.7522
▁heads	-10.7523
▁dogs	-10.753
▁framework	-10.7531
dit	-10.7531
ening	-10.7533
gor	-10.7535
cc	-10.7535
▁clip	-10.7536
▁drone	-10.754
inger	-10.7541
direct	-10.7542
dre	-10.7545
▁depend	-10.7547
▁dass	-10.7549
▁bowl	-10.7549
iel	-10.7549
▁okay	-10.7551
▁shirt	-10.7553
▁nominee	-10.7554
▁equivalent	-10.7556
▁defender	-10.7558
Not	-10.7559
▁Reuters	-10.7562
▁representative	-10.7564
▁contribute	-10.7566
▁algorithm	-10.757
▁gra	-10.757
cz	-10.7571
▁serves	-10.7571
▁od	-10.7573
▁corruption	-10.7573
▁Sie	-10.7574
▁sh	-10.7575
dale	-10.7578
▁warrant	-10.758
▁stayed	-10.758
▁Code	-10.7582
OW	-10.7587
▁organ	-10.7588
者	-10.7589
▁Massachusetts	-10.759
▁convert	-10.7591
ç	-10.7591
nder	-10.7592
ls	-10.7593
▁quest	-10.7593
▁Dallas	-10.7599
▁roster	-10.7603
▁tie	-10.7604
▁Unfortunately	-10.7606
▁SP	-10.7608
ching	-10.7611
round	-10.7614
▁DE	-10.7615
▁2008,	-10.7618
▁reviews	-10.7619
▁tri	-10.762
pet	-10.7622
▁Pay	-10.7623
▁raising	-10.7624
▁stake	-10.7626
▁Trade	-10.763
▁enjoyed	-10.7632
▁?	-10.7633
lea	-10.7633
tiv	-10.7633
▁API	-10.7638
▁Sarah	-10.7638
nia	-10.7641
▁Egypt	-10.7641
▁limits	-10.7642
▁saved	-10.7643
ame	-10.7645
▁aim	-10.7648
rap	-10.7649
▁requests	-10.7651
▁Bernie	-10.7653
aba	-10.7658
▁risks	-10.766
▁adopt	-10.766
▁entering	-10.766
One	-10.7661
bla	-10.7663
▁atmosphere	-10.7664
▁Pal	-10.7665
▁titles	-10.7668
▁announce	-10.767
rank	-10.7675
gal	-10.7677
▁weird	-10.7681
▁component	-10.7681
▁ga	-10.7681
▁joining	-10.7684
▁priest	-10.7689
ô	-10.7689
▁meetings	-10.7698
▁fee	-10.77
amento	-10.7701
▁AT	-10.7701
nar	-10.7702
▁mad	-10.7706
▁Look	-10.7709
▁raid	-10.7712
▁150	-10.7712
power	-10.7714
▁Ak	-10.7714
▁Las	-10.7715
▁ISIS	-10.7716
▁Without	-10.7717
▁settled	-10.7723
▁К	-10.7724
core	-10.7727
▁hired	-10.7727
tas	-10.7729
▁personally	-10.7733
nz	-10.7734
δ	-10.7736
▁1989	-10.7736
▁shots	-10.7738
▁valuable	-10.7739
▁Illinois	-10.774
OT	-10.7749
▁Mass	-10.775
▁investigate	-10.7756
▁journalists	-10.7758
▁Fair	-10.7762
gno	-10.7763
▁Anthony	-10.7764
▁outcome	-10.7764
▁fiscal	-10.7765
▁Nation	-10.7765
making	-10.7767
▁repeat	-10.7768
cro	-10.7768
▁Wolf	-10.7768
inder	-10.777
▁clubs	-10.777
stand	-10.7778
▁landscape	-10.7779
▁commander	-10.7781
▁designer	-10.7781
▁automatically	-10.7783
hop	-10.7785
world	-10.7786
lim	-10.7788
▁leak	-10.779
▁constantly	-10.779
▁lots	-10.7797
▁posts	-10.7799
-10	-10.78
▁ranked	-10.7802
▁terrible	-10.7802
▁Empire	-10.7804
▁2019.	-10.7804
vat	-10.7805
▁Kra	-10.7807
▁strategic	-10.7808
▁possess	-10.781
▁gro	-10.7811
▁authors	-10.7816
<	-10.7817
▁fre	-10.7818
▁perfectly	-10.7818
▁communications	-10.782
▁adds	-10.7821
▁sk	-10.7821
sum	-10.7822
lick	-10.7823
▁smell	-10.7823
▁Fed	-10.7823
▁clock	-10.7823
▁uniform	-10.7828
▁7.	-10.7829
▁Station	-10.783
▁Moon	-10.7836
iness	-10.7836
▁deputy	-10.7836
▁answers	-10.7837
▁adventure	-10.7837
▁Angel	-10.7841
ín	-10.7842
▁polls	-10.7845
▁quote	-10.785
▁Bor	-10.7851
▁racist	-10.7853
▁drinking	-10.7854
ending	-10.7855
こと	-10.7856
▁odd	-10.7859
▁Diego	-10.7859
active	-10.786
scale	-10.7862
▁publication	-10.7864
▁Kat	-10.7866
link	-10.7867
те	-10.7867
▁å	-10.7867
ook	-10.787
▁index	-10.7873
▁Does	-10.7875
▁Administration	-10.7876
▁passage	-10.7876
plo	-10.7876
-20	-10.7883
▁illness	-10.7883
▁loose	-10.7884
▁guest	-10.7885
▁transform	-10.7887
63	-10.789
TM	-10.7891
▁gonna	-10.7891
▁expanded	-10.7892
▁alarm	-10.7893
73	-10.7894
▁coin	-10.7895
Ho	-10.7896
▁associate	-10.7896
▁intense	-10.7897
▁tape	-10.79
▁accurate	-10.79
▁mining	-10.7903
▁sus	-10.7904
▁Using	-10.7905
try	-10.7905
▁symptoms	-10.7906
oid	-10.7908
vie	-10.7909
▁restrictions	-10.7909
▁surgery	-10.7913
▁contained	-10.7915
▁CIA	-10.7916
▁euro	-10.7916
▁Mai	-10.7917
▁refugees	-10.7917
ET	-10.7918
▁incredible	-10.7919
▁signature	-10.7919
▁tomorrow	-10.792
▁recover	-10.7922
74	-10.7925
▁α	-10.793
▁Guardian	-10.7931
▁punch	-10.7932
61	-10.7935
83	-10.7936
▁filter	-10.7937
▁techniques	-10.7938
nik	-10.7939
▁exposure	-10.7939
▁farmers	-10.7941
ци	-10.7943
71	-10.7944
▁Link	-10.7944
▁entrance	-10.7947
▁convention	-10.7948
▁railway	-10.7948
▁roof	-10.7952
▁poly	-10.7953
▁worker	-10.7954
▁Loading	-10.7954
62	-10.7954
▁lying	-10.7955
▁comic	-10.7955
itz	-10.7956
ew	-10.7958
▁Golden	-10.7959
▁spiritual	-10.796
して	-10.7961
82	-10.7963
igen	-10.7963
▁Khan	-10.7964
▁shell	-10.7966
▁detect	-10.7967
▁external	-10.7968
ously	-10.7968
▁veteran	-10.7969
▁kit	-10.797
Un	-10.797
icht	-10.7974
▁intervention	-10.7976
cie	-10.7977
▁degrees	-10.798
▁recovery	-10.7981
▁swing	-10.7983
▁introduce	-10.7986
ش	-10.7989
▁Dutch	-10.799
ś	-10.7991
ied	-10.7992
▁nobody	-10.7993
▁Dave	-10.7993
▁fault	-10.7998
▁Hal	-10.8003
▁margin	-10.8003
imi	-10.8004
▁об	-10.8004
▁remote	-10.8009
ño	-10.8012
▁downtown	-10.8013
▁alter	-10.8014
ом	-10.8019
▁trained	-10.8023
ddy	-10.8024
år	-10.8025
och	-10.8028
出	-10.8028
▁Fan	-10.8029
▁horror	-10.8032
▁bunch	-10.8036
▁Barack	-10.8036
▁politician	-10.8039
▁Former	-10.8041
▁Lewis	-10.8042
rg	-10.8046
▁arch	-10.8047
▁depending	-10.8049
▁fingers	-10.8051
он	-10.8052
sie	-10.8052
ει	-10.8052
▁1:	-10.8053
?'	-10.8056
▁Olympics	-10.8056
source	-10.8057
▁sufficient	-10.8059
▁·	-10.8059
ador	-10.806
TE	-10.8061
hour	-10.8061
▁nie	-10.8062
▁prayer	-10.8064
▁petition	-10.8065
▁register	-10.8067
▁Cons	-10.8069
election	-10.807
▁appearances	-10.8072
Go	-10.8074
bury	-10.8074
▁sail	-10.8075
ün	-10.8075
▁blocks	-10.8085
▁newsletter	-10.8085
▁finger	-10.8085
▁manufacturing	-10.8088
fra	-10.8089
▁aspect	-10.8091
▁hits	-10.8092
▁scenes	-10.81
▁medium	-10.8102
▁elsewhere	-10.8103
band	-10.8105
▁drew	-10.8106
▁demands	-10.8108
▁soil	-10.8108
▁smartphone	-10.811
▁Action	-10.8114
roll	-10.8116
▁Email	-10.8116
uv	-10.8118
▁penalty	-10.8121
ule	-10.8122
▁forever	-10.8123
ку	-10.8124
▁facts	-10.8127
▁thread	-10.8127
▁Delhi	-10.813
▁8.	-10.8131
▁Again	-10.8131
▁stat	-10.8131
▁6.	-10.8136
▁2021	-10.814
▁dire	-10.8141
last	-10.8143
▁41	-10.8153
▁lake	-10.8153
▁Nazi	-10.8155
▁bond	-10.8155
▁pod	-10.8158
▁protocol	-10.8162
pat	-10.8168
▁att	-10.817
▁aus	-10.817
▁behalf	-10.8172
▁2013.	-10.8172
,500	-10.8175
sure	-10.8175
▁advertising	-10.818
φ	-10.8182
ør	-10.8182
▁Class	-10.8184
▁negotiations	-10.8184
IM	-10.8186
▁intent	-10.8187
▁ID	-10.819
▁Gre	-10.819
▁upgrade	-10.8194
▁aggressive	-10.8197
▁Family	-10.8197
▁monster	-10.8202
▁Camp	-10.821
ain	-10.8211
▁generated	-10.8211
PR	-10.8216
PC	-10.8217
▁describes	-10.8218
mond	-10.8218
▁Captain	-10.822
hill	-10.822
gui	-10.8221
high	-10.8221
-5	-10.8224
▁Bon	-10.8224
front	-10.8226
uf	-10.8229
tura	-10.8229
bor	-10.823
▁mirror	-10.8231
▁feelings	-10.8231
▁races	-10.8232
ск	-10.8236
▁adapt	-10.8236
TER	-10.8238
▁Allen	-10.8242
▁Philip	-10.8242
▁Maria	-10.8244
bon	-10.8246
▁blast	-10.8246
ов	-10.8246
ologist	-10.8246
▁genetic	-10.8248
▁sobre	-10.8249
oli	-10.8249
έ	-10.8251
▁carefully	-10.8251
dle	-10.8251
range	-10.8254
minate	-10.8255
め	-10.8256
ör	-10.8258
▁Sand	-10.8261
▁Rio	-10.8261
▁shelter	-10.8261
50,000	-10.8263
▁Greg	-10.8263
▁folks	-10.8265
urs	-10.8265
▁roles	-10.8269
▁5,	-10.8269
▁Sur	-10.827
▁closing	-10.827
▁Sound	-10.8272
▁Capital	-10.8273
bn	-10.8273
▁Var	-10.8273
far	-10.8273
î	-10.8277
▁layer	-10.8281
▁stem	-10.8288
▁Guard	-10.8289
uit	-10.8291
▁extensive	-10.8291
▁sheet	-10.8294
▁receiver	-10.8295
▁bonus	-10.8298
▁Fred	-10.8298
▁operated	-10.8298
▁brothers	-10.8299
▁res	-10.8301
▁syn	-10.8305
▁banned	-10.8306
▁somebody	-10.8306
°	-10.8307
thing	-10.8307
ean	-10.8307
▁Tur	-10.8308
▁demonstrate	-10.8309
▁55	-10.8312
▁enemies	-10.8312
▁Update	-10.8314
arm	-10.832
▁Scottish	-10.832
▁innovation	-10.8322
▁threw	-10.8322
▁answered	-10.8325
▁module	-10.8325
▁rival	-10.8328
▁Stadium	-10.8329
iro	-10.8329
▁Article	-10.833
3%	-10.8331
▁ikke	-10.8332
▁rescue	-10.8333
▁IP	-10.8335
▁Kansas	-10.8337
▁assessment	-10.8339
▁als	-10.8341
▁pur	-10.8342
▁visitors	-10.8343
▁Had	-10.8343
▁footage	-10.8348
▁apparent	-10.835
▁temporary	-10.8351
▁acid	-10.8352
FF	-10.8354
▁principle	-10.8357
unk	-10.8359
▁promotion	-10.836
cel	-10.836
▁initiative	-10.8364
lies	-10.8364
▁pump	-10.8366
▁census	-10.8366
bet	-10.8367
▁plain	-10.8371
▁Poland	-10.8375
▁probe	-10.8376
▁Wil	-10.8377
▁trace	-10.838
EM	-10.8382
▁fur	-10.8383
▁construct	-10.8384
▁rapidly	-10.8385
国	-10.8386
▁covering	-10.8387
▁gathered	-10.8388
81	-10.8392
▁Beijing	-10.8392
▁dollar	-10.8393
▁sugar	-10.8397
▁Singapore	-10.8403
▁stadium	-10.8404
▁episodes	-10.8406
му	-10.8407
▁span	-10.8407
▁sensor	-10.8408
▁sw	-10.8409
▁Mat	-10.8409
▁Mag	-10.8416
▁terrorism	-10.8419
▁pure	-10.8421
oz	-10.8421
▁ignore	-10.8421
ncy	-10.8426
▁CH	-10.8436
▁menu	-10.8436
▁heading	-10.8437
َ	-10.8441
▁feedback	-10.8442
▁reasonable	-10.8442
▁resist	-10.8444
ля	-10.8444
lines	-10.8444
SU	-10.8445
2)	-10.8445
ega	-10.8448
▁constitutional	-10.845
how	-10.8451
any	-10.8451
▁DO	-10.8453
ome	-10.8457
TO	-10.846
▁Jacob	-10.8461
▁handed	-10.8462
▁attract	-10.8463
▁exists	-10.8465
▁temple	-10.8466
▁Netflix	-10.8469
▁contracts	-10.847
tie	-10.8471
Ja	-10.8472
ifying	-10.8472
▁priority	-10.8476
▁cryptocurrency	-10.8483
▁bias	-10.8485
Ca	-10.8486
▁producing	-10.8489
▁Hay	-10.8489
▁struggling	-10.849
▁architecture	-10.849
▁Step	-10.8493
boy	-10.8493
▁organize	-10.8496
DE	-10.8496
▁Dem	-10.8498
▁losses	-10.8499
▁teach	-10.8499
nos	-10.8501
▁cited	-10.8502
▁adviser	-10.8504
anti	-10.8504
▁drove	-10.8505
▁languages	-10.8507
▁Dragon	-10.8508
ungen	-10.8509
▁Plus	-10.8513
verse	-10.8514
中	-10.8515
▁Justin	-10.8515
▁lab	-10.8517
▁($	-10.8519
▁Wal	-10.852
▁Having	-10.8521
▁complicated	-10.8521
▁ethnic	-10.8522
rom	-10.8523
▁(20	-10.8523
▁cook	-10.8524
▁Pri	-10.8527
▁bullet	-10.8528
▁vital	-10.8531
▁scenario	-10.8532
▁rocket	-10.8532
order	-10.8535
▁listening	-10.8536
avi	-10.8537
▁Keep	-10.8538
▁insight	-10.8542
▁phrase	-10.8543
▁passengers	-10.8543
ди	-10.8545
ony	-10.8546
▁Leader	-10.8546
kon	-10.855
▁funny	-10.8556
▁ت	-10.8557
▁celebrate	-10.8558
▁theater	-10.8559
▁headquarters	-10.856
▁gaming	-10.856
gni	-10.8563
▁friendly	-10.8563
rr	-10.8565
▁comfort	-10.8568
▁Victoria	-10.8571
MI	-10.8572
▁hosted	-10.8573
omi	-10.8573
▁everywhere	-10.8573
▁structures	-10.8573
▁și	-10.8575
▁IT	-10.8575
▁br	-10.8578
▁lunch	-10.8579
▁sam	-10.8579
▁fuck	-10.858
▁privilege	-10.858
▁commonly	-10.858
▁Ye	-10.8582
▁engineer	-10.8583
fla	-10.8584
▁Wars	-10.8584
real	-10.8585
メ	-10.8586
▁della	-10.8588
aux	-10.8589
▁ble	-10.8594
▁plea	-10.8594
ой	-10.8596
▁behaviour	-10.8598
▁Eli	-10.8598
▁grip	-10.8599
▁assigned	-10.86
▁lawyers	-10.8601
▁Atlantic	-10.8601
▁Records	-10.8602
▁Bat	-10.8605
わ	-10.8607
pers	-10.8607
▁1988	-10.8609
▁cave	-10.8614
▁Sk	-10.8615
▁NHL	-10.8616
▁asks	-10.8616
▁43	-10.8618
2%	-10.8619
pel	-10.862
▁Hor	-10.862
ña	-10.862
worth	-10.8622
▁Sar	-10.8625
▁spokesperson	-10.8625
ific	-10.863
▁suspended	-10.8631
▁Ky	-10.8633
teen	-10.8635
▁proceed	-10.8635
quir	-10.8641
▁Sometimes	-10.8642
eo	-10.8644
▁subsequently	-10.8646
▁fallen	-10.8647
▁über	-10.8648
tim	-10.865
▁Square	-10.8651
▁rapid	-10.8653
exp	-10.8655
▁rein	-10.8656
▁grab	-10.8661
▁BC	-10.8661
GA	-10.8663
▁1,000	-10.8663
▁Sc	-10.8666
コ	-10.8666
ox	-10.8668
wal	-10.8674
▁OS	-10.8676
▁Arts	-10.8677
▁Kam	-10.8678
▁#1	-10.8678
nna	-10.8679
▁Intelligence	-10.8683
▁Atlanta	-10.8683
▁Management	-10.8688
pit	-10.8689
▁brutal	-10.8691
▁shook	-10.8692
▁repeated	-10.8695
▁pandemic	-10.8696
▁Labor	-10.8696
▁nurse	-10.8697
▁acc	-10.8698
▁stack	-10.8698
▁PR	-10.8701
MO	-10.8703
eller	-10.8704
▁Ana	-10.8707
path	-10.8708
▁incredibly	-10.8709
▁Dam	-10.871
▁arrival	-10.871
▁2012.	-10.8711
▁că	-10.8715
▁transferred	-10.8715
▁collapse	-10.8716
▁teen	-10.8717
its	-10.8717
▁retirement	-10.8718
▁ease	-10.8718
▁cro	-10.8721
▁tonight	-10.8722
ów	-10.8723
dding	-10.8723
▁console	-10.8724
▁indicated	-10.8726
▁Area	-10.8728
▁Austin	-10.8729
▁Anderson	-10.873
rink	-10.873
▁lift	-10.8732
▁Olympic	-10.8732
IG	-10.8737
▁McG	-10.8742
▁Jane	-10.8742
▁knee	-10.8743
isa	-10.8744
▁yield	-10.8745
▁begun	-10.8746
lis	-10.8747
▁Bureau	-10.8752
же	-10.8757
▁6,	-10.8759
▁replacement	-10.8761
▁col	-10.8762
▁Card	-10.8764
itor	-10.8766
▁writers	-10.8767
▁locked	-10.8768
▁то	-10.877
▁consumption	-10.8773
▁royal	-10.8776
▁machines	-10.8778
aver	-10.878
ider	-10.8782
▁hint	-10.8789
▁nose	-10.8791
▁orbit	-10.8794
base	-10.8795
cord	-10.8798
▁distributed	-10.8803
▁Ever	-10.8803
▁creator	-10.8804
▁breast	-10.8807
▁independence	-10.8807
▁List	-10.8809
▁exclusive	-10.881
ivo	-10.8811
▁failing	-10.8814
▁indicate	-10.8814
ridge	-10.8817
▁Gun	-10.8828
▁emails	-10.8829
▁rank	-10.8831
▁angle	-10.8831
▁regardless	-10.8832
▁minority	-10.8833
▁proven	-10.8835
▁transactions	-10.8839
UR	-10.8839
▁bench	-10.8841
▁milk	-10.8843
FA	-10.8843
▁Find	-10.8845
mir	-10.8845
▁covers	-10.8848
▁spoken	-10.8849
र	-10.8853
–19	-10.8854
chan	-10.8854
bie	-10.8858
▁processing	-10.8858
kel	-10.8859
▁mer	-10.8861
▁Amendment	-10.8861
▁exhibit	-10.8862
▁substance	-10.8863
▁circle	-10.8866
pass	-10.8866
▁promoted	-10.8867
▁gene	-10.8872
▁representing	-10.8876
ğ	-10.8878
▁activist	-10.8878
▁hoped	-10.8881
Car	-10.8885
▁OK	-10.8887
▁succeed	-10.8892
▁attached	-10.8893
▁factory	-10.8894
issa	-10.8895
▁desk	-10.8899
▁joy	-10.8899
▁universal	-10.8899
gt	-10.8899
▁Liverpool	-10.89
▁upset	-10.8902
▁Josh	-10.8902
vol	-10.8905
ila	-10.8906
▁Doctor	-10.8907
▁comedy	-10.8909
▁~	-10.8909
used	-10.8911
▁Vegas	-10.8912
NG	-10.8913
▁arguments	-10.8914
▁Dia	-10.8914
hem	-10.8918
▁ruin	-10.8918
▁consists	-10.8922
gna	-10.8922
ander	-10.8922
▁Qui	-10.8927
▁gathering	-10.893
▁refuse	-10.8931
▁intellectual	-10.8933
▁convicted	-10.8934
▁Linux	-10.8934
▁stupid	-10.8935
▁abandoned	-10.8935
nate	-10.8935
iling	-10.8936
▁remind	-10.8937
▁array	-10.8937
OP	-10.8939
▁liked	-10.8944
▁secondary	-10.8945
▁7,	-10.8947
aff	-10.8948
▁ratio	-10.895
▁proc	-10.895
▁”	-10.8954
rm	-10.8956
▁efficient	-10.8956
▁genre	-10.8956
▁beach	-10.8957
▁Knight	-10.8958
bling	-10.8958
▁rush	-10.8958
▁paint	-10.8959
▁Tan	-10.8962
ص	-10.8965
▁buried	-10.8966
▁technique	-10.8966
▁ownership	-10.8967
▁kiss	-10.8969
▁performing	-10.8969
▁sword	-10.897
IR	-10.8971
▁kinds	-10.8972
▁principles	-10.8972
▁Ang	-10.8973
▁lights	-10.8978
Mi	-10.8979
arian	-10.8983
▁Indeed	-10.8984
Of	-10.8986
nut	-10.8986
▁Mid	-10.899
▁coup	-10.899
▁Mis	-10.8994
▁salt	-10.8996
▁rarely	-10.8997
HA	-10.8999
▁shake	-10.9005
▁democratic	-10.9007
▁Five	-10.9008
cup	-10.901
Li	-10.9013
▁Zo	-10.9013
▁Francis	-10.9016
oh	-10.9016
▁Gor	-10.9017
▁spr	-10.9018
ве	-10.902
▁это	-10.9023
▁neuro	-10.9026
▁challenging	-10.9026
than	-10.9027
▁backed	-10.9032
▁estimates	-10.9033
clusive	-10.9034
▁bru	-10.9036
▁SC	-10.9038
▁VR	-10.9038
▁gen	-10.9038
rup	-10.9039
miss	-10.9042
live	-10.9042
▁AND	-10.9043
▁entertainment	-10.9044
▁supplies	-10.9045
あ	-10.9046
mise	-10.9046
ites	-10.9046
▁2:	-10.9047
CE	-10.9047
▁recommended	-10.9047
▁titled	-10.9048
▁Trust	-10.9049
▁descend	-10.905
▁consideration	-10.905
rent	-10.9051
▁steal	-10.9051
▁Ocean	-10.9052
▁venue	-10.9052
▁collaboration	-10.9056
▁Name	-10.9058
▁evolution	-10.9058
▁Know	-10.9067
ز	-10.9068
▁deposit	-10.907
▁containing	-10.9074
▁expectations	-10.9076
▁rid	-10.9078
▁philosophy	-10.9079
▁resident	-10.9079
▁reg	-10.9084
▁appointment	-10.9086
▁patent	-10.9088
▁destruction	-10.9092
会	-10.9096
ctic	-10.9097
▁deals	-10.9098
itu	-10.9108
▁Band	-10.9108
kov	-10.9108
alla	-10.9109
ock	-10.911
▁rap	-10.9113
tical	-10.9115
▁normally	-10.9116
▁maintained	-10.912
ち	-10.9121
▁Brook	-10.9122
▁Jose	-10.9127
rage	-10.9131
▁Set	-10.9132
▁publisher	-10.9137
UN	-10.9138
▁Affairs	-10.9139
▁wie	-10.9141
ин	-10.9143
▁patterns	-10.9146
▁pose	-10.9148
▁Sil	-10.915
▁landing	-10.9154
▁Por	-10.9156
▁Graham	-10.9156
▁hitting	-10.9162
LO	-10.9164
1,	-10.9164
▁bug	-10.9164
▁favour	-10.9166
▁administrative	-10.9166
ception	-10.9167
grade	-10.917
▁involvement	-10.9171
stream	-10.9172
▁courts	-10.9173
ל	-10.9174
▁är	-10.9175
▁transaction	-10.9176
▁bills	-10.9177
▁awareness	-10.9182
▁dozens	-10.9185
bl	-10.9186
ppy	-10.9187
mont	-10.9188
▁compound	-10.9189
osa	-10.9194
▁awesome	-10.9196
pra	-10.9196
▁approached	-10.9197
▁dust	-10.9198
very	-10.9205
▁Marc	-10.9207
▁implemented	-10.9209
fr	-10.921
▁gut	-10.9211
▁jet	-10.9212
▁shopping	-10.9214
▁Hot	-10.9214
ер	-10.9215
行	-10.9219
▁Earlier	-10.9219
▁Spi	-10.9221
▁fighters	-10.9221
▁notable	-10.9223
▁со	-10.9224
Let	-10.9224
lus	-10.9226
れ	-10.9228
▁widespread	-10.9228
jen	-10.923
▁Local	-10.923
▁Page	-10.9232
gress	-10.9232
▁sind	-10.9234
ndi	-10.9234
▁absence	-10.9235
▁Aug	-10.9237
▁lips	-10.9237
▁Raj	-10.9238
▁CBS	-10.924
ح	-10.9241
▁curve	-10.9241
▁proportion	-10.9241
▁Morgan	-10.9241
▁roads	-10.9242
mbo	-10.9244
count	-10.9246
▁subsequent	-10.9248
With	-10.9251
▁Core	-10.9255
dd	-10.9259
▁deeper	-10.926
had	-10.9266
▁Death	-10.9268
▁Pur	-10.9271
RP	-10.9272
▁prospect	-10.9276
▁fossil	-10.9276
weight	-10.9277
▁Intel	-10.9279
▁47	-10.9279
lio	-10.9285
7%	-10.9286
Just	-10.9287
▁beauty	-10.9288
▁Executive	-10.929
▁pub	-10.9292
cons	-10.9294
▁Spec	-10.9296
▁opera	-10.9297
▁guitar	-10.9298
this	-10.9298
stein	-10.9299
▁situations	-10.9301
El	-10.9304
▁wedding	-10.9305
▁chances	-10.9306
▁affairs	-10.9307
▁Ein	-10.9308
▁jury	-10.9309
das	-10.9309
▁suspected	-10.9309
▁Heart	-10.9309
▁appreciate	-10.931
▁Sel	-10.9312
▁ceremony	-10.9315
▁Walker	-10.9317
▁SE	-10.9319
▁choices	-10.9319
▁Kon	-10.932
▁2007,	-10.9322
▁Howard	-10.9325
▁Kal	-10.9328
▁tries	-10.9328
▁chamber	-10.9332
▁Fin	-10.9333
▁referring	-10.9333
▁cheer	-10.9337
tric	-10.9337
▁interior	-10.9338
ential	-10.9339
ket	-10.9341
ela	-10.9341
▁revi	-10.9342
night	-10.9343
▁Holy	-10.9344
Com	-10.9345
▁households	-10.9345
▁1984	-10.9345
▁windows	-10.9351
▁Secret	-10.9351
▁prof	-10.9357
▁diverse	-10.9357
▁Sweden	-10.9359
aged	-10.9359
▁carrier	-10.936
ische	-10.9362
▁pounds	-10.9367
▁Fri	-10.9372
▁fiction	-10.9374
eng	-10.9378
lé	-10.9381
▁concrete	-10.9382
▁pal	-10.9384
rest	-10.9392
▁1987	-10.9393
▁sensitive	-10.9393
▁unclear	-10.9394
▁tear	-10.9394
▁collective	-10.9395
▁Low	-10.9396
▁Ter	-10.94
▁fatal	-10.94
▁advocate	-10.9401
lem	-10.9406
▁tale	-10.9407
▁destination	-10.9409
▁Kennedy	-10.941
▁Clark	-10.9412
▁Think	-10.9414
ん	-10.9417
gie	-10.9417
ッ	-10.942
nit	-10.9426
▁remarks	-10.9429
▁Off	-10.943
▁highway	-10.943
▁1986	-10.9431
▁Bible	-10.9431
▁hook	-10.9433
▁finds	-10.9434
▁literature	-10.9434
lian	-10.9437
▁2020,	-10.9441
▁Children	-10.9444
▁Whether	-10.9445
mil	-10.9445
▁Forest	-10.9445
▁distinct	-10.9446
such	-10.945
roid	-10.9452
▁luck	-10.9454
▁ads	-10.9455
▁Hunt	-10.9455
pos	-10.9456
чи	-10.9457
▁unlike	-10.9457
▁rely	-10.9461
iza	-10.9466
▁firms	-10.9469
β	-10.947
wen	-10.9471
▁demon	-10.9471
▁Given	-10.9474
person	-10.9475
こ	-10.9477
▁birds	-10.9479
oi	-10.9479
▁strengthen	-10.948
wide	-10.9484
っ	-10.9485
▁Metro	-10.9486
month	-10.9488
▁Awards	-10.9494
▁interact	-10.9494
▁strain	-10.9499
▁8,	-10.9499
▁Operation	-10.9499
EE	-10.95
ope	-10.95
▁51	-10.9501
生	-10.9502
▁Jun	-10.9505
ência	-10.9506
▁tunnel	-10.9508
EST	-10.9512
heim	-10.9512
ova	-10.9513
их	-10.9514
▁enormous	-10.9514
▁Store	-10.9515
500	-10.952
▁reducing	-10.9521
meter	-10.9522
▁Sim	-10.9523
ма	-10.9524
▁compare	-10.9526
▁ven	-10.9526
▁amounts	-10.9533
▁Clo	-10.9536
▁Gro	-10.9541
▁notion	-10.9541
▁cameras	-10.9546
nant	-10.9548
▁Kris	-10.9548
FL	-10.955
ello	-10.955
cion	-10.9551
▁investigating	-10.9551
ann	-10.9552
▁Mount	-10.9552
▁conspiracy	-10.9552
▁wallet	-10.9553
▁Express	-10.9554
▁borrow	-10.9556
ckle	-10.9556
▁copies	-10.9557
4%	-10.9557
▁tone	-10.9558
▁Vancouver	-10.9559
▁Dor	-10.9566
▁twin	-10.9568
▁pad	-10.9568
Ne	-10.9568
▁Model	-10.9569
ме	-10.957
シ	-10.957
iser	-10.9571
▁torture	-10.9572
▁$7	-10.9574
▁Therefore	-10.9575
ário	-10.9576
▁www	-10.9578
тор	-10.958
▁actors	-10.9582
▁Romney	-10.9584
▁Utah	-10.9585
▁highlight	-10.9585
▁exceed	-10.9587
▁documentary	-10.9593
▁comme	-10.9595
▁introduction	-10.9595
Jo	-10.9597
igh	-10.9598
▁teeth	-10.9598
~	-10.9598
▁convinced	-10.9598
lot	-10.9599
▁glad	-10.9602
▁superior	-10.9604
▁Cooper	-10.9607
▁transportation	-10.9609
▁ministry	-10.961
▁careful	-10.9613
▁$6	-10.9613
▁theme	-10.9614
udge	-10.9614
adas	-10.9614
wel	-10.9615
▁discrimination	-10.9616
imento	-10.9617
▁avec	-10.9618
▁pursue	-10.9618
▁weekly	-10.9618
▁Hamilton	-10.9619
ON	-10.962
▁discovery	-10.9622
▁surprising	-10.9623
ikk	-10.9629
▁tribe	-10.963
▁sixth	-10.9635
▁resource	-10.9636
▁Him	-10.9642
▁Indiana	-10.9647
ancy	-10.9647
▁composed	-10.9649
▁Yan	-10.965
▁(3	-10.965
▁retain	-10.9651
▁painting	-10.9652
VE	-10.9652
▁moderate	-10.9652
▁bro	-10.9653
▁Shu	-10.9655
▁visiting	-10.9655
▁cas	-10.9656
▁demonstration	-10.9659
qual	-10.966
wick	-10.9661
crea	-10.9664
▁practical	-10.9665
nta	-10.9666
▁manifest	-10.9667
▁Vietnam	-10.9671
▁Feb	-10.9672
▁representation	-10.9673
essa	-10.9673
▁citizen	-10.9674
▁logic	-10.9674
▁podcast	-10.9676
▁breach	-10.9679
phi	-10.968
cr	-10.968
▁thrown	-10.9683
▁hardly	-10.9687
▁Burn	-10.9696
▁attempting	-10.9697
▁Oklahoma	-10.9699
EA	-10.9701
▁Dream	-10.9701
▁employed	-10.9705
from	-10.9705
▁Duke	-10.9706
▁wire	-10.971
▁healthcare	-10.9712
standing	-10.9714
including	-10.9716
▁Lady	-10.9716
lement	-10.9723
Now	-10.9725
▁HD	-10.9726
▁laughed	-10.9728
▁Tru	-10.9732
▁streaming	-10.9734
▁impeachment	-10.9734
▁contributions	-10.9735
▁Aus	-10.9736
▁recipe	-10.9736
▁grass	-10.9736
▁ко	-10.9737
self	-10.9737
▁mot	-10.9738
▁Spo	-10.9738
ej	-10.974
SI	-10.974
print	-10.9741
▁tickets	-10.9742
▁supports	-10.9742
▁Tesla	-10.9744
▁damn	-10.9745
▁11,	-10.9749
▁46	-10.9751
PL	-10.9754
▁Ry	-10.9755
lag	-10.9758
▁Corporation	-10.9759
ф	-10.9763
▁Election	-10.9763
▁missile	-10.9764
▁burden	-10.9764
600	-10.9764
▁Online	-10.9766
▁parallel	-10.9767
▁constructed	-10.9768
▁handling	-10.9768
ê	-10.977
▁sy	-10.977
▁werden	-10.9771
▁dat	-10.9775
▁Farm	-10.9776
▁opt	-10.9782
▁Au	-10.9783
▁Grant	-10.9784
phone	-10.9788
▁Rich	-10.9793
▁Def	-10.9797
▁venture	-10.98
▁shame	-10.98
▁vaccine	-10.9808
ω	-10.981
ブ	-10.9816
-12	-10.9816
ject	-10.9819
Or	-10.9821
voir	-10.9821
season	-10.9822
ë	-10.9825
ей	-10.9825
▁summit	-10.9829
SO	-10.983
CI	-10.9834
▁Father	-10.9836
▁Unlike	-10.9837
uro	-10.9838
▁###	-10.9839
watch	-10.9841
gene	-10.9841
rog	-10.9843
▁Ukrainian	-10.9845
▁stu	-10.9847
300	-10.9847
▁teenager	-10.9847
▁halt	-10.9848
uto	-10.9848
▁24,	-10.9848
▁grabbed	-10.985
Cha	-10.9852
▁racing	-10.9852
▁versus	-10.9853
8%	-10.9853
ith	-10.9853
▁container	-10.9855
▁Singh	-10.9855
cla	-10.9855
curr	-10.9856
▁inner	-10.9857
▁referendum	-10.9862
▁Everyone	-10.9863
▁Hindu	-10.9864
!)	-10.9864
▁entitled	-10.9866
bound	-10.9867
né	-10.9868
400	-10.9871
▁surge	-10.9871
▁Az	-10.9872
sex	-10.9875
ría	-10.9876
cont	-10.9876
▁universities	-10.9877
▁Channel	-10.9877
trans	-10.9879
▁Silver	-10.9881
▁encouraged	-10.9884
▁Buck	-10.9886
▁Kir	-10.9886
▁epi	-10.9886
▁Whit	-10.9889
mme	-10.9891
burn	-10.9892
▁fal	-10.9895
▁lowest	-10.99
▁52	-10.99
▁bow	-10.9902
pal	-10.9902
▁controversy	-10.9902
▁fantasy	-10.9903
▁lib	-10.9904
vision	-10.9905
ウ	-10.9906
では	-10.9908
rou	-10.9908
▁вы	-10.9908
▁meta	-10.991
6%	-10.9912
▁Come	-10.9913
▁Das	-10.9914
▁dump	-10.9917
▁drill	-10.9919
NO	-10.992
▁100%	-10.9924
▁criticized	-10.9925
stre	-10.9928
-6	-10.9929
▁Kill	-10.9932
east	-10.9932
ault	-10.9935
fen	-10.9936
▁suggesting	-10.994
▁reject	-10.9941
▁2011.	-10.9941
▁Through	-10.9946
▁papers	-10.9948
ста	-10.9951
▁Cou	-10.9951
▁chicken	-10.996
▁Venezuela	-10.9961
▁BE	-10.9962
▁id	-10.9964
rupt	-10.9964
▁Modi	-10.9964
▁Qua	-10.9964
▁execution	-10.9969
sson	-10.997
▁forecast	-10.9972
▁organisation	-10.9973
lands	-10.9973
ended	-10.9974
▁urged	-10.9974
▁Magic	-10.9975
▁passenger	-10.9975
nell	-10.9976
Some	-10.9977
▁judgment	-10.9978
▁1985	-10.9978
▁movements	-10.9981
▁Cop	-10.9982
rait	-10.9984
HS	-10.9985
▁mile	-10.9987
見	-10.9988
▁Hawaii	-10.999
▁scope	-10.999
▁impression	-10.9991
▁Sale	-10.9992
▁Airport	-10.9995
ciones	-10.9997
▁(4	-10.9999
OM	-11.0002
LD	-11.0003
▁regulation	-11.0005
▁Rod	-11.0005
Yeah	-11.0005
flu	-11.0006
bid	-11.0007
rous	-11.001
▁Jonathan	-11.0011
▁legitimate	-11.0011
▁cyber	-11.0012
▁addressed	-11.0012
▁mask	-11.0013
TR	-11.0014
ات	-11.0017
▁personality	-11.0018
cade	-11.0019
kins	-11.0022
▁wir	-11.0024
▁ADVERTISEMENT	-11.0026
▁aged	-11.0026
scribe	-11.0027
▁humanity	-11.0032
▁membership	-11.0032
▁anniversary	-11.0033
ively	-11.0033
▁tired	-11.0044
▁hyper	-11.0047
800	-11.005
▁hy	-11.0055
▁viewers	-11.0055
▁achievement	-11.0057
▁2020.	-11.0063
▁qual	-11.0066
mul	-11.0067
▁fleet	-11.0068
termin	-11.0069
3)	-11.0071
▁participated	-11.0073
Vi	-11.0073
▁concentration	-11.0073
▁AS	-11.0074
▁tears	-11.0074
pol	-11.0079
▁amendment	-11.008
▁Xi	-11.008
▁communicate	-11.0087
▁lucky	-11.0088
▁warming	-11.0088
▁tur	-11.0089
▁dating	-11.0091
▁letting	-11.0092
▁tent	-11.0092
си	-11.0093
Bu	-11.0094
▁Library	-11.0098
▁strikes	-11.0098
▁pray	-11.01
▁dramatic	-11.0101
script	-11.0102
▁loop	-11.0104
▁passion	-11.0106
▁М	-11.011
ios	-11.011
ان	-11.0115
rri	-11.0116
inch	-11.012
▁Reserve	-11.012
▁senator	-11.0121
agon	-11.0121
▁assert	-11.0122
jer	-11.0123
ott	-11.0123
Fa	-11.0125
fre	-11.0129
▁$10	-11.0129
▁sont	-11.0131
mount	-11.0132
▁Iron	-11.0132
▁acknowledge	-11.0141
▁educational	-11.0142
pli	-11.0144
▁mechanism	-11.0146
tions	-11.0147
▁improvements	-11.0149
Can	-11.0149
▁tan	-11.015
▁Cleveland	-11.0152
▁Tennessee	-11.0153
▁fate	-11.0154
▁abroad	-11.0157
▁resort	-11.0158
▁Freedom	-11.0159
vil	-11.0159
▁Spirit	-11.016
▁Antonio	-11.016
ein	-11.0161
ân	-11.0161
▁wider	-11.0162
▁1979	-11.0163
▁pipeline	-11.0164
▁Picture	-11.0168
▁clinical	-11.0177
▁burning	-11.0177
▁tin	-11.0178
▁Alan	-11.0179
▁marks	-11.0179
▁Type	-11.0182
ще	-11.0182
▁Marvel	-11.0183
hab	-11.0184
▁emp	-11.0184
▁Seven	-11.0185
▁Dick	-11.0188
▁Additionally	-11.0188
▁ignored	-11.0189
rel	-11.0189
▁Roll	-11.0192
▁Harvard	-11.0193
▁cabinet	-11.0194
will	-11.0195
▁Sca	-11.0199
9%	-11.0202
▁Lab	-11.0203
ului	-11.0206
▁Future	-11.0206
▁childhood	-11.021
▁Malaysia	-11.021
▁insisted	-11.0214
rar	-11.0215
▁offices	-11.0215
▁Winter	-11.0215
NT	-11.0216
▁fabric	-11.0216
▁€	-11.0222
▁Tal	-11.0223
▁equally	-11.0225
PD	-11.0225
▁Greece	-11.0226
▁temp	-11.0226
▁welfare	-11.0229
▁advertisement	-11.0231
▁pleasure	-11.0231
▁cy	-11.0234
▁Sean	-11.0235
-8	-11.0238
odo	-11.024
▁artificial	-11.0243
▁Maryland	-11.0245
Su	-11.0247
▁dismissed	-11.0248
▁iOS	-11.0248
itch	-11.025
▁Related	-11.0252
▁consent	-11.0253
▁median	-11.0255
▁Digital	-11.0255
stru	-11.0256
▁substantial	-11.0256
▁mono	-11.0257
▁ME	-11.0259
▁pretend	-11.0262
▁ranks	-11.0264
▁connections	-11.0265
タ	-11.0267
slav	-11.0271
▁Yeah	-11.0271
▁AC	-11.0272
▁viewed	-11.0273
▁scrap	-11.0274
▁migrants	-11.0274
ła	-11.0276
▁improvement	-11.0277
▁Sure	-11.0278
▁Hart	-11.0279
▁nervous	-11.0279
▁involves	-11.028
▁slot	-11.0281
iving	-11.0286
▁Lau	-11.0286
▁transit	-11.0286
▁alliance	-11.0287
▁wrap	-11.0294
eno	-11.0295
▁sacrifice	-11.0297
▁sudden	-11.0299
▁VI	-11.0301
Getty	-11.0303
▁innocent	-11.0306
▁Should	-11.0307
▁congressional	-11.0309
▁forth	-11.0309
ages	-11.0309
▁Charlie	-11.0312
▁assumed	-11.0314
▁Madrid	-11.0314
▁contemporary	-11.0315
▁diversity	-11.0318
▁Sol	-11.0319
ache	-11.0322
▁Christians	-11.0322
ald	-11.0322
▁Jen	-11.0323
▁Motor	-11.0324
▁samples	-11.0324
▁ESPN	-11.0325
Na	-11.0325
ksi	-11.0325
▁testimony	-11.0326
▁Portland	-11.0326
▁depression	-11.0331
▁Song	-11.0336
▁ur	-11.0338
▁Hunter	-11.0338
▁Garden	-11.0339
क	-11.0339
▁Native	-11.0341
dam	-11.0341
▁handful	-11.0342
▁climb	-11.0342
▁slip	-11.0344
▁nach	-11.0348
▁MO	-11.0352
▁jumped	-11.0354
▁stolen	-11.0355
▁presentation	-11.0355
ся	-11.0356
▁requested	-11.0358
dos	-11.0359
ibility	-11.036
flow	-11.0361
▁suck	-11.0364
▁Hold	-11.0364
▁forum	-11.0365
ndra	-11.0367
iff	-11.0368
▁conviction	-11.0368
▁Ji	-11.0371
▁anybody	-11.0375
▁Organization	-11.0376
▁Much	-11.0378
▁centuries	-11.0379
▁fulfill	-11.0381
mid	-11.0382
▁discussions	-11.0383
▁rifle	-11.0383
zing	-11.0386
▁monitoring	-11.0387
minute	-11.0387
▁explosion	-11.039
▁enforce	-11.0392
▁fold	-11.0392
DI	-11.0394
▁rolled	-11.0396
ак	-11.0396
▁Albert	-11.0397
idae	-11.0398
▁2010.	-11.0399
▁hockey	-11.0401
▁staying	-11.0404
▁throwing	-11.0404
▁keeps	-11.0405
▁providers	-11.0405
▁NO	-11.0405
▁Carter	-11.0407
▁transgender	-11.0408
▁comprehensive	-11.0413
▁ultimate	-11.0413
▁Left	-11.0414
θ	-11.0414
▁shield	-11.0416
▁Sept	-11.0419
▁eu	-11.0421
▁fantastic	-11.0421
▁employ	-11.0422
▁Hell	-11.0423
▁struggled	-11.0423
▁lap	-11.0426
city	-11.0427
uda	-11.0429
ischen	-11.0433
▁protecting	-11.0433
▁zo	-11.0435
ви	-11.0435
lik	-11.0436
▁Mars	-11.0437
ön	-11.0439
▁ecosystem	-11.0439
▁dates	-11.0441
▁beliefs	-11.0443
▁critic	-11.0446
▁token	-11.0447
present	-11.0448
▁Kh	-11.0448
▁electoral	-11.0449
▁Samsung	-11.0449
▁cricket	-11.0451
▁Mrs	-11.0453
▁kom	-11.0456
▁pulling	-11.0457
▁seemingly	-11.0457
▁improving	-11.0458
▁disp	-11.0459
сто	-11.0459
ility	-11.046
▁studying	-11.0462
▁ham	-11.0465
▁Lar	-11.0468
▁tasks	-11.047
по	-11.047
▁actress	-11.0473
▁junior	-11.0473
NY	-11.0475
▁graduated	-11.0476
▁cluster	-11.0477
▁1982	-11.0477
▁interviews	-11.0478
OD	-11.0481
figur	-11.0487
▁raw	-11.0488
▁Being	-11.0488
itude	-11.0488
Ta	-11.049
▁SO	-11.049
kä	-11.0491
▁intend	-11.0492
▁1930	-11.0493
▁clothing	-11.0494
▁Ker	-11.0494
▁adjust	-11.0496
outs	-11.0497
▁Standard	-11.0497
▁extract	-11.0498
master	-11.0499
▁icon	-11.0499
▁premier	-11.0501
▁lobby	-11.0501
▁π	-11.0507
asse	-11.0507
▁rational	-11.0507
▁rough	-11.0507
other	-11.0511
zie	-11.0513
cover	-11.0515
▁boom	-11.0517
▁channels	-11.0523
has	-11.0524
hole	-11.0526
ем	-11.0527
▁mock	-11.0527
wind	-11.0528
▁Taiwan	-11.0529
wie	-11.0531
▁discipline	-11.0532
▁tab	-11.0532
▁investigators	-11.0536
▁19,	-11.0537
ying	-11.0538
▁fue	-11.054
▁usage	-11.0541
▁complaints	-11.0541
▁elect	-11.0543
Je	-11.0543
uous	-11.0545
▁lecture	-11.0546
MC	-11.0547
▁attacking	-11.0548
▁MS	-11.0548
▁dying	-11.055
▁regret	-11.0551
▁1983	-11.0551
▁Tower	-11.0556
":	-11.0556
▁Would	-11.0559
▁Ur	-11.0561
▁desert	-11.0562
Qu	-11.0563
aine	-11.0567
▁15,	-11.0567
uni	-11.0568
ня	-11.0569
▁nest	-11.0572
▁resume	-11.0573
▁Mir	-11.0575
▁absolute	-11.0576
▁submit	-11.0578
▁statistics	-11.058
These	-11.0581
▁Mother	-11.0581
▁NOT	-11.0585
▁cooperation	-11.0585
▁saving	-11.0585
▁classified	-11.0585
▁birthday	-11.0588
▁Hawk	-11.0589
▁22,	-11.0591
▁deficit	-11.0592
CS	-11.0594
▁NY	-11.0595
▁Command	-11.0597
事	-11.0597
hm	-11.0599
rb	-11.0599
▁voter	-11.0601
▁preparing	-11.0602
▁Rad	-11.0603
▁hack	-11.0604
▁frequent	-11.0604
▁NATO	-11.0605
▁Bio	-11.0605
▁briefly	-11.0605
▁quit	-11.0606
OC	-11.0606
▁Between	-11.0607
pend	-11.0609
▁3-	-11.0609
LY	-11.0609
▁Mah	-11.0609
▁institution	-11.061
▁Photograph	-11.0611
▁belt	-11.0612
▁commun	-11.0612
san	-11.0614
▁grounds	-11.0614
ар	-11.0615
▁clinic	-11.0616
▁mut	-11.0616
▁awards	-11.0616
▁targeting	-11.0616
▁Bru	-11.0618
human	-11.0619
▁Thi	-11.0623
▁photograph	-11.0623
may	-11.0626
iest	-11.0627
▁racism	-11.0628
▁scar	-11.0629
▁acknowledged	-11.0633
▁peaceful	-11.0633
▁NA	-11.0633
ffer	-11.0637
▁crossing	-11.064
▁differ	-11.064
▁estimate	-11.064
▁14,	-11.0643
final	-11.0643
ENT	-11.0646
▁excuse	-11.0648
▁Cast	-11.0649
▁homeless	-11.0649
▁21,	-11.0652
▁preparation	-11.0653
icide	-11.0654
▁restaurants	-11.0656
▁Tam	-11.0657
▁2006,	-11.0657
▁districts	-11.0658
▁inquiry	-11.0658
Univers	-11.0659
▁slide	-11.0666
▁Chairman	-11.0667
▁efficiency	-11.0667
▁Iraqi	-11.0669
▁damaged	-11.0669
▁26,	-11.0671
▁MI	-11.0672
▁popularity	-11.0676
▁12,	-11.0677
tine	-11.0678
uma	-11.068
▁Things	-11.0681
solve	-11.0682
▁Lin	-11.0683
▁Start	-11.0683
▁startup	-11.0687
▁Sony	-11.0694
uel	-11.0696
▁Galaxy	-11.0697
▁UFC	-11.0698
▁reader	-11.0707
▁Beck	-11.0707
▁Gil	-11.0707
▁celebration	-11.0709
▁grid	-11.0709
ää	-11.0709
▁surrounded	-11.0711
▁blocked	-11.0712
▁unexpected	-11.0713
▁tem	-11.0716
imp	-11.0719
▁industries	-11.0721
▁AR	-11.0721
▁cream	-11.0722
▁Ent	-11.0724
▁goods	-11.0724
▁examine	-11.0725
▁firing	-11.0725
iga	-11.0725
▁bird	-11.0726
▁judges	-11.0726
▁panic	-11.0727
dri	-11.0731
▁SH	-11.0731
activ	-11.0731
▁Len	-11.0732
▁qualified	-11.0734
ます	-11.0738
▁capabilities	-11.0739
▁Dal	-11.074
▁killer	-11.074
▁funded	-11.074
▁participation	-11.0741
erson	-11.0743
▁legacy	-11.0746
inda	-11.0748
▁dismiss	-11.0749
kra	-11.0749
▁temperatures	-11.0752
▁23,	-11.0752
PM	-11.0752
▁28,	-11.0753
▁Sy	-11.0757
▁zi	-11.0758
▁Due	-11.076
▁Melbourne	-11.0761
rod	-11.0763
▁competing	-11.0765
▁creates	-11.0766
▁economist	-11.0773
▁submitted	-11.0774
▁hire	-11.0777
aa	-11.0779
gro	-11.0781
▁patch	-11.0781
▁oldest	-11.0783
▁circuit	-11.0787
pop	-11.0788
▁engagement	-11.0788
▁Uni	-11.0794
▁deadline	-11.0794
▁memories	-11.0795
pha	-11.0795
▁poison	-11.0798
▁spy	-11.0799
▁puts	-11.0801
▁phones	-11.0803
▁myth	-11.0804
Ad	-11.0805
▁Mun	-11.0806
gas	-11.0806
▁decent	-11.0807
▁logo	-11.0807
mie	-11.0809
▁coaches	-11.0811
▁Gulf	-11.0811
▁Speaking	-11.0811
▁vis	-11.0812
خ	-11.0816
tory	-11.0816
▁sul	-11.0817
▁depends	-11.0819
▁9,	-11.082
▁Building	-11.0821
▁13,	-11.0822
▁deadly	-11.0822
erie	-11.0824
▁Jerusalem	-11.0825
▁Third	-11.0827
fight	-11.0828
αν	-11.0831
▁Met	-11.0831
▁monthly	-11.0833
tet	-11.0834
▁worship	-11.0835
shing	-11.0835
▁airline	-11.0836
▁из	-11.0837
date	-11.0838
▁survival	-11.0842
▁custody	-11.0842
there	-11.0844
dict	-11.0844
▁Talk	-11.0847
▁remembered	-11.0847
atur	-11.0848
▁Studies	-11.0848
▁followers	-11.0848
▁eligible	-11.0849
▁strict	-11.085
▁Cohen	-11.0851
▁historian	-11.0851
ос	-11.0853
▁Denver	-11.0853
▁spo	-11.0858
▁falls	-11.0862
▁Revolution	-11.0864
▁Fran	-11.0864
▁radi	-11.0869
▁pré	-11.0869
▁websites	-11.0871
▁variation	-11.0871
shot	-11.0871
作	-11.0873
rov	-11.0874
▁Early	-11.0877
▁wounded	-11.0879
▁riding	-11.088
▁computers	-11.0884
▁stages	-11.0885
▁soccer	-11.0885
cular	-11.0886
▁tracking	-11.0888
▁Uber	-11.0891
▁melt	-11.0892
Thank	-11.0893
pul	-11.0893
Who	-11.0894
ר	-11.0895
▁mandate	-11.0895
cient	-11.0895
stance	-11.09
▁país	-11.09
▁representatives	-11.0902
ту	-11.0904
▁tips	-11.0904
esse	-11.0906
▁steam	-11.0906
▁Province	-11.0911
anda	-11.0911
vu	-11.0911
▁divorce	-11.0912
ume	-11.0913
▁loans	-11.0913
▁reveals	-11.0915
▁Corps	-11.0917
▁lung	-11.0918
▁Sport	-11.0922
▁flavor	-11.0923
▁enterprise	-11.0924
▁controls	-11.0925
▁Beau	-11.0925
ου	-11.0925
▁provision	-11.0928
▁barrel	-11.093
▁continent	-11.093
▁Kentucky	-11.0931
▁Java	-11.0932
pay	-11.0934
▁bread	-11.0934
▁Kid	-11.0936
clo	-11.0937
▁creature	-11.0937
▁27,	-11.0938
cell	-11.0939
▁Bishop	-11.094
lut	-11.0941
▁Round	-11.0943
▁з	-11.0943
rah	-11.0944
4)	-11.0944
tens	-11.0946
▁unemployment	-11.0947
▁Ted	-11.0947
▁invasion	-11.0947
▁occupied	-11.0947
▁30,	-11.0947
Sha	-11.0949
▁Chelsea	-11.0949
▁Gordon	-11.095
def	-11.0951
.00	-11.0951
▁composition	-11.0953
▁presidency	-11.0956
RS	-11.0956
AY	-11.0956
zel	-11.0957
▁colors	-11.0958
▁residence	-11.0958
▁Box	-11.0959
▁assumption	-11.096
▁μ	-11.0962
▁managing	-11.0963
▁П	-11.0965
▁accessible	-11.0968
▁Join	-11.0969
▁legislative	-11.0969
▁apologize	-11.0969
lant	-11.097
▁peer	-11.097
▁bathroom	-11.0971
▁slight	-11.0972
1%	-11.0975
▁norm	-11.0981
▁Xbox	-11.0984
▁confi	-11.0986
▁helpful	-11.0986
▁ordinary	-11.0987
▁poster	-11.0988
▁resolve	-11.099
aunt	-11.0991
▁routine	-11.0991
▁Missouri	-11.0992
▁GM	-11.0992
▁Cameron	-11.0995
tent	-11.0996
rating	-11.0997
▁Independent	-11.0997
▁knife	-11.0997
▁burst	-11.0999
etta	-11.0999
DR	-11.0999
▁1972	-11.1002
▁asset	-11.1005
bank	-11.1006
▁lands	-11.1006
▁beating	-11.1007
voca	-11.1008
▁Bruce	-11.101
▁Until	-11.101
▁3:	-11.1011
▁perception	-11.1011
▁Tax	-11.1015
▁Baltimore	-11.1016
▁inspiration	-11.1016
▁Bit	-11.1017
▁sponsor	-11.1023
▁coat	-11.1024
▁speaks	-11.1026
▁visa	-11.1026
where	-11.1027
coin	-11.1028
▁whenever	-11.1029
▁landed	-11.1029
▁consistently	-11.1032
str	-11.1034
▁settle	-11.1035
▁pig	-11.1036
▁Pope	-11.1038
▁occupation	-11.104
▁Try	-11.1043
▁lady	-11.1044
▁waited	-11.1048
▁Reddit	-11.1051
▁departure	-11.1052
▁disrupt	-11.1054
▁Exp	-11.1055
▁therapy	-11.1056
▁overseas	-11.1057
▁hospitals	-11.1058
▁survived	-11.1059
▁bother	-11.1059
▁conversations	-11.106
▁incentive	-11.1062
▁Cambridge	-11.1064
▁prosecutors	-11.1064
▁confused	-11.1068
▁salary	-11.1068
GE	-11.1071
5)	-11.1072
▁maintenance	-11.1073
▁pelo	-11.1074
hir	-11.1075
news	-11.1075
▁Pop	-11.1076
▁nur	-11.1078
▁Natural	-11.108
ago	-11.1081
▁emerge	-11.1082
▁Alliance	-11.1083
▁reverse	-11.1085
▁beneath	-11.1086
▁prisoners	-11.1091
▁warn	-11.1091
▁Lib	-11.1091
▁reliable	-11.1092
▁Netherlands	-11.1094
▁settings	-11.1095
▁1920	-11.1096
▁instructions	-11.1097
▁num	-11.1098
▁Hotel	-11.1099
pack	-11.1101
held	-11.1102
▁volunteer	-11.1102
▁Sab	-11.1106
▁guidelines	-11.1109
▁Brad	-11.111
▁geo	-11.1111
het	-11.1113
▁contribution	-11.1114
text	-11.1115
▁16,	-11.1116
▁Guide	-11.1116
▁Abu	-11.1119
vé	-11.1121
▁1981	-11.1126
git	-11.1126
▁instant	-11.1129
▁harassment	-11.1134
ivity	-11.1135
▁fears	-11.1136
▁де	-11.1136
▁translation	-11.1137
LC	-11.1139
▁folk	-11.1139
▁charity	-11.1139
▁cinema	-11.1139
▁sentenced	-11.1139
▁striking	-11.114
▁Creek	-11.1142
én	-11.1142
lessly	-11.1145
▁focusing	-11.1148
▁punishment	-11.1148
▁categories	-11.1149
▁promises	-11.1152
▁sentiment	-11.1154
▁А	-11.1154
urge	-11.1156
▁Nothing	-11.1158
▁Nintendo	-11.1159
lish	-11.116
NE	-11.116
▁relation	-11.116
▁premium	-11.1161
guard	-11.1161
的	-11.1163
▁scientist	-11.1163
▁Brand	-11.1164
▁cow	-11.1164
BO	-11.1165
▁FOR	-11.1166
sent	-11.1166
上	-11.1166
what	-11.1167
▁configuration	-11.1167
asi	-11.1167
га	-11.1168
▁parte	-11.1172
hel	-11.1173
▁crossed	-11.1173
▁Luke	-11.1175
▁1968	-11.1176
▁None	-11.118
▁gaze	-11.1181
▁disagree	-11.1181
▁Gaza	-11.1181
▁1976	-11.1182
week	-11.1182
▁waves	-11.1184
▁mé	-11.1185
▁Dev	-11.1186
▁labour	-11.1188
▁password	-11.1189
▁procedure	-11.1192
▁guests	-11.1194
▁hum	-11.1194
tell	-11.1195
▁snap	-11.1195
▁thinks	-11.1198
▁Libya	-11.12
▁scores	-11.1202
iert	-11.1202
▁alt	-11.1203
▁Turn	-11.1205
GO	-11.1205
▁Jeremy	-11.1205
rill	-11.1206
▁lifted	-11.1206
▁rooms	-11.1208
▁Gary	-11.1208
オ	-11.1213
▁О	-11.1214
▁Want	-11.1216
▁cru	-11.1218
▁questioned	-11.1219
▁fighter	-11.122
▁25,	-11.1221
▁dialogue	-11.1221
▁occurs	-11.1221
▁exhibition	-11.1222
nov	-11.1223
▁Table	-11.1224
▁throat	-11.1225
etz	-11.1226
▁Senior	-11.123
▁assess	-11.1231
check	-11.1231
▁mood	-11.1231
▁Cer	-11.1233
nor	-11.1233
▁affordable	-11.1235
▁aux	-11.1235
▁preference	-11.1235
▁Moreover	-11.1235
ske	-11.1236
▁legend	-11.1236
▁şi	-11.1236
▁Railway	-11.124
pher	-11.124
▁deserve	-11.124
▁53	-11.1241
▁1940	-11.1243
ulate	-11.1244
▁anxiety	-11.1247
ania	-11.1248
▁Prior	-11.125
チ	-11.1252
▁hanging	-11.1252
▁sig	-11.1254
DP	-11.1254
▁Non	-11.1259
cum	-11.1259
sel	-11.1261
para	-11.1261
▁chronic	-11.1262
ih	-11.1265
▁Tele	-11.1266
▁Front	-11.1267
▁wages	-11.1267
▁Murray	-11.1269
▁Everything	-11.1271
▁dig	-11.1272
▁29,	-11.1273
.5%	-11.1276
▁speaker	-11.1276
bour	-11.1278
cking	-11.1282
▁demanded	-11.1284
▁Figure	-11.1285
▁User	-11.1285
▁publish	-11.1287
lier	-11.1287
▁wealthy	-11.1287
Are	-11.1287
▁rip	-11.129
▁demonstrated	-11.129
jor	-11.129
▁cop	-11.1292
ifies	-11.1294
▁Yemen	-11.1296
makers	-11.1296
▁gross	-11.1297
▁performances	-11.1297
▁cry	-11.1298
AF	-11.13
▁Broad	-11.13
▁competed	-11.1303
▁pollution	-11.1304
kill	-11.1307
was	-11.1307
▁Found	-11.1309
▁info	-11.1309
▁forcing	-11.1309
▁designated	-11.1311
▁Polish	-11.1314
ior	-11.1315
▁producers	-11.1315
など	-11.1315
▁ON	-11.1317
▁Editor	-11.1319
wall	-11.1319
▁Authority	-11.1321
▁assembly	-11.1323
▁naturally	-11.1324
valu	-11.1324
mag	-11.1324
▁Bol	-11.1326
▁statue	-11.1327
▁searching	-11.1329
screen	-11.1331
angle	-11.1336
▁combine	-11.1337
taking	-11.1339
▁Gene	-11.1339
quer	-11.1341
esh	-11.1341
case	-11.1342
▁Swedish	-11.1343
▁sweat	-11.1345
▁Federation	-11.1345
▁spark	-11.1346
▁advocates	-11.1347
PO	-11.1347
js	-11.1348
▁promoting	-11.135
▁filing	-11.1352
▁Associated	-11.1353
▁Oxford	-11.1353
▁corporations	-11.1354
hon	-11.1358
▁conventional	-11.1361
▁Dog	-11.1361
πο	-11.1362
▁Edit	-11.1363
▁organic	-11.1371
▁mere	-11.1374
▁ре	-11.1375
▁Thompson	-11.1376
▁gather	-11.1376
▁1973	-11.1378
▁actively	-11.1379
▁Aaron	-11.1379
▁Net	-11.1384
ush	-11.1384
▁1978	-11.1386
ных	-11.1387
▁Count	-11.1388
▁Sri	-11.1392
▁weigh	-11.1393
lat	-11.1393
▁shoes	-11.1396
▁civilians	-11.1397
tty	-11.1398
cca	-11.14
▁lens	-11.1402
▁subjects	-11.1403
▁defending	-11.1404
▁addresses	-11.1405
wise	-11.1407
▁fled	-11.1409
▁graph	-11.1409
▁д	-11.1409
▁Record	-11.1411
ор	-11.1411
▁stomach	-11.1417
▁Member	-11.1418
▁Philippines	-11.1419
▁bars	-11.1419
▁Theatre	-11.1423
▁obligation	-11.1423
▁->	-11.1424
▁rhetoric	-11.1426
▁Ros	-11.143
▁violation	-11.1431
UC	-11.1431
▁54	-11.1432
▁Sho	-11.1434
iu	-11.1434
DC	-11.1435
▁gains	-11.1436
▁toxic	-11.1437
▁LGBT	-11.1438
illo	-11.144
▁installation	-11.1441
ingly	-11.1443
▁σ	-11.1444
▁και	-11.1447
▁deployed	-11.1449
▁bot	-11.145
Pre	-11.1455
▁opinions	-11.1456
▁demanding	-11.1456
▁Born	-11.1457
▁ultra	-11.1457
member	-11.146
▁decrease	-11.1461
tori	-11.1461
▁Anne	-11.1463
▁eager	-11.1465
▁trains	-11.1468
▁Tokyo	-11.1468
▁pointing	-11.1471
tum	-11.1471
▁17,	-11.1476
▁10-	-11.1477
ete	-11.1477
▁Penn	-11.1477
anna	-11.1478
▁aims	-11.1481
▁oppose	-11.1481
▁dressed	-11.1483
▁1975	-11.1485
too	-11.1485
yle	-11.1486
née	-11.1489
▁Victor	-11.149
TT	-11.1493
▁caso	-11.1493
author	-11.1496
/10	-11.1496
▁Ant	-11.1496
ő	-11.1498
▁Consider	-11.1499
▁Christopher	-11.15
▁threatening	-11.1503
▁Fle	-11.1505
▁soldier	-11.1508
▁trillion	-11.151
▁Never	-11.1513
▁quo	-11.1514
プ	-11.1515
”)	-11.1515
▁mol	-11.1516
▁involve	-11.1518
▁mate	-11.1521
party	-11.1521
mple	-11.1522
▁brush	-11.1524
fish	-11.1527
▁Ap	-11.1527
TI	-11.1528
fort	-11.1528
▁Protection	-11.1528
div	-11.1528
▁incidents	-11.1532
▁Et	-11.1536
▁finishing	-11.1537
▁shore	-11.1537
uer	-11.1537
abil	-11.1538
▁1974	-11.1542
▁cult	-11.1543
tem	-11.1546
▁bacteria	-11.1549
▁drain	-11.155
▁het	-11.1552
▁Nevada	-11.1554
▁Communist	-11.1555
▁diese	-11.1556
▁honour	-11.1557
sar	-11.1558
▁brilliant	-11.1558
▁centers	-11.156
ager	-11.1565
ط	-11.1566
▁Download	-11.1567
▁edit	-11.1568
lang	-11.1568
ал	-11.157
ニ	-11.1574
▁п	-11.1574
ún	-11.1574
▁publishing	-11.1574
▁stored	-11.1574
isse	-11.1576
acy	-11.1579
▁Total	-11.1581
この	-11.1582
▁Entertainment	-11.1583
▁tissue	-11.1583
▁strategies	-11.1584
▁stability	-11.1584
▁ol	-11.1586
arse	-11.1588
ения	-11.1589
ao	-11.1589
only	-11.159
"),	-11.159
▁sink	-11.1591
▁rookie	-11.1591
▁convince	-11.1591
ше	-11.1592
▁runner	-11.1593
fit	-11.1595
定	-11.1597
▁virtually	-11.1597
▁wanting	-11.1599
▁counts	-11.1599
▁Player	-11.1601
▁attractive	-11.1602
▁abandon	-11.1604
▁ε	-11.1608
▁banking	-11.1608
etti	-11.1609
▁stance	-11.1611
▁trailer	-11.1612
▁architect	-11.1613
▁boot	-11.1618
chu	-11.1622
rade	-11.1623
▁DA	-11.1624
▁reign	-11.1625
dro	-11.1625
posit	-11.1626
мо	-11.1629
▁Furthermore	-11.163
▁sack	-11.1632
▁Mol	-11.1633
▁interpretation	-11.1634
▁consensus	-11.1637
-7	-11.1639
▁leur	-11.1643
cate	-11.1644
shirt	-11.1644
open	-11.1646
▁Russell	-11.1647
▁pension	-11.1648
▁citing	-11.1648
-18	-11.1655
hit	-11.1656
方	-11.1657
bas	-11.1658
▁wondered	-11.166
▁athletic	-11.1662
バ	-11.1662
▁emerging	-11.1664
▁Mur	-11.1665
▁seed	-11.1665
▁residential	-11.1668
ART	-11.1668
▁eliminate	-11.1668
owned	-11.167
▁urge	-11.167
▁inches	-11.1672
▁ei	-11.1673
▁asylum	-11.1674
▁gentle	-11.1675
▁embrace	-11.1675
elo	-11.1676
▁stating	-11.1677
▁Rather	-11.1679
plication	-11.1679
owner	-11.1683
▁Championships	-11.1683
▁analyst	-11.1686
kka	-11.1693
UP	-11.1693
▁lifetime	-11.1693
iki	-11.1695
▁Argentina	-11.1696
▁refers	-11.1696
EP	-11.1697
aro	-11.1699
▁predicted	-11.1701
動	-11.1706
▁rolling	-11.1707
▁Blu	-11.1709
▁wore	-11.1715
zione	-11.1715
▁1977	-11.1716
priv	-11.1716
äl	-11.1717
ordin	-11.1719
RM	-11.172
パ	-11.172
▁memo	-11.1721
▁så	-11.1722
▁Glo	-11.1723
mod	-11.1724
その	-11.1726
▁propaganda	-11.1726
▁gig	-11.1726
▁Wor	-11.1727
▁Jimmy	-11.1729
▁mistakes	-11.1729
▁greatly	-11.1729
CP	-11.1729
▁arguing	-11.173
▁Got	-11.1731
▁hunt	-11.1732
▁promising	-11.1733
▁Country	-11.1734
note	-11.1736
phe	-11.1737
▁Mont	-11.1739
▁Swa	-11.1739
▁(5	-11.1739
volv	-11.1742
rif	-11.1745
éri	-11.1749
Col	-11.1756
izer	-11.1757
▁consecutive	-11.176
▁drunk	-11.176
▁Nigeria	-11.176
▁removal	-11.1761
cycl	-11.1761
▁600	-11.1764
▁Dean	-11.1769
▁bedroom	-11.1769
▁disse	-11.177
▁surely	-11.177
には	-11.177
ibly	-11.177
▁essay	-11.1771
▁burned	-11.1772
▁Bow	-11.1773
▁cheese	-11.1773
▁Bir	-11.1774
▁(“	-11.1779
▁physically	-11.1779
ulator	-11.1779
RT	-11.1779
▁anonymous	-11.178
▁threaten	-11.178
▁athletes	-11.1782
astic	-11.1782
▁outlets	-11.1782
▁preferred	-11.1782
▁Highway	-11.1786
▁drum	-11.1788
▁civilian	-11.1792
▁regulatory	-11.1793
▁Andy	-11.1795
▁profits	-11.1796
▁golf	-11.1801
oni	-11.1801
▁Brooklyn	-11.1802
▁bump	-11.1802
▁tablet	-11.1805
▁coaching	-11.1805
Dr	-11.1805
NI	-11.181
им	-11.1811
▁Remember	-11.1812
elect	-11.1813
▁existed	-11.1814
▁archive	-11.1816
ATE	-11.1817
▁harsh	-11.1821
eon	-11.1822
▁expanding	-11.1823
suit	-11.1823
▁rot	-11.1824
▁dimension	-11.1824
▁pleased	-11.1825
door	-11.1825
ну	-11.1826
▁Roger	-11.1827
▁GO	-11.1827
▁dominant	-11.1827
▁overcome	-11.1828
▁proposals	-11.183
rak	-11.183
▁monument	-11.1834
▁Deputy	-11.1835
▁Deep	-11.1835
▁occasion	-11.1836
▁topics	-11.1836
▁donations	-11.1837
▁kun	-11.1838
▁praised	-11.1839
▁difficulty	-11.184
▁Unit	-11.1841
▁broader	-11.1841
stop	-11.1841
▁trap	-11.1842
▁Bloomberg	-11.1843
▁emotions	-11.1845
▁Lincoln	-11.1846
▁kicked	-11.1847
endo	-11.1847
▁converted	-11.1847
▁specialist	-11.1847
▁municipality	-11.1849
▁biological	-11.185
▁50%	-11.1852
bach	-11.1858
▁10,	-11.186
inen	-11.1861
ILL	-11.1861
sub	-11.1862
▁diplomatic	-11.1864
▁Mul	-11.1865
▁abilities	-11.1866
▁continu	-11.1866
▁Robinson	-11.1867
▁spill	-11.1869
mini	-11.187
▁entrepreneur	-11.1874
raf	-11.1874
▁Eu	-11.1875
about	-11.1877
▁Mario	-11.188
▁sua	-11.1882
▁1945	-11.1882
▁duration	-11.1887
iko	-11.189
▁Access	-11.189
▁density	-11.1891
▁ambassador	-11.1891
People	-11.1892
▁absorb	-11.1897
▁1967	-11.1898
▁guidance	-11.1899
▁politically	-11.1903
▁Sara	-11.1905
▁measured	-11.1905
▁Sco	-11.1912
▁Lou	-11.1913
▁integration	-11.1915
vention	-11.1915
▁creatures	-11.1915
▁BA	-11.1915
▁Roy	-11.1915
бо	-11.1915
▁helicopter	-11.1916
▁2009.	-11.1916
/1	-11.1916
▁Smart	-11.1917
▁separated	-11.192
מ	-11.1921
▁Within	-11.1921
▁girlfriend	-11.1923
ō	-11.1924
▁1971	-11.1925
▁recovered	-11.1927
loc	-11.1929
▁generations	-11.193
▁©	-11.1932
▁discount	-11.1932
▁registration	-11.1932
サ	-11.1934
».	-11.1934
ät	-11.1936
▁constitute	-11.1938
▁1969	-11.1939
▁Need	-11.194
ière	-11.194
ink	-11.194
▁conclude	-11.194
sec	-11.1941
▁hub	-11.1943
▁reserve	-11.1944
two	-11.1944
fel	-11.1946
▁arts	-11.1949
▁requirement	-11.195
▁borders	-11.195
maker	-11.195
▁أ	-11.1955
▁undergo	-11.1955
HL	-11.1956
temp	-11.1959
▁Baker	-11.1959
UL	-11.196
▁whereas	-11.1962
▁cheek	-11.1964
א	-11.1964
▁pale	-11.1965
▁stamp	-11.1967
ș	-11.1969
bia	-11.197
ibil	-11.1972
▁inflation	-11.1973
▁rounds	-11.1974
▁crown	-11.1975
▁poet	-11.1981
▁closure	-11.1982
▁praise	-11.1982
Ju	-11.1982
orie	-11.1983
▁Too	-11.1984
▁الم	-11.1984
looking	-11.1984
▁Could	-11.1986
hra	-11.1986
入	-11.1986
▁TH	-11.199
▁lineup	-11.1991
▁males	-11.1992
している	-11.1993
▁pride	-11.1994
▁psychological	-11.1995
mina	-11.1997
▁brick	-11.1997
700	-11.1998
▁meal	-11.1998
▁frequency	-11.1999
▁nut	-11.2
▁$8	-11.2
▁Pack	-11.2002
▁curious	-11.2003
▁variant	-11.2004
ographic	-11.2006
von	-11.2006
ár	-11.2006
▁Guy	-11.2006
iano	-11.2008
нов	-11.2012
▁Villa	-11.2012
Cl	-11.2014
▁Wind	-11.2015
▁56	-11.2017
yon	-11.2017
▁resigned	-11.2019
▁explosive	-11.2019
wei	-11.2022
▁bold	-11.2023
▁transmission	-11.2024
▁dreams	-11.2024
▁31,	-11.2025
▁Gill	-11.2026
▁Kings	-11.2028
▁favourite	-11.2028
▁sees	-11.203
▁patrol	-11.203
sim	-11.2031
▁sei	-11.2032
▁Phoenix	-11.2035
▁Jake	-11.2036
▁towns	-11.2036
▁physician	-11.204
tique	-11.2044
century	-11.2047
▁Hat	-11.205
▁Comic	-11.205
▁quietly	-11.2052
▁Juan	-11.2053
▁recruit	-11.2057
▁Blood	-11.2057
▁confusion	-11.2057
▁emphasis	-11.2059
▁underlying	-11.2063
▁breaks	-11.2065
▁lists	-11.2067
▁wondering	-11.2068
▁neo	-11.2068
▁Legend	-11.2068
▁20,	-11.207
▁oversee	-11.2071
▁investigations	-11.2071
▁disappeared	-11.2072
▁wird	-11.2073
white	-11.2073
▁Alt	-11.2073
▁scared	-11.2074
▁genus	-11.2076
▁deny	-11.2079
▁restrict	-11.2079
WA	-11.208
▁120	-11.2081
▁attending	-11.2082
▁badly	-11.2084
▁negotiate	-11.2086
新	-11.2086
▁checks	-11.2092
▁AFP	-11.2092
▁displayed	-11.2095
▁Prize	-11.2096
home	-11.2097
tis	-11.2098
▁Financial	-11.2098
▁Sto	-11.21
▁Number	-11.2101
cene	-11.2101
▁leap	-11.2102
▁counterpart	-11.2103
▁AL	-11.2104
▁BJP	-11.2105
ит	-11.2105
▁2008.	-11.2107
▁evaluate	-11.211
▁pile	-11.2112
▁flame	-11.2112
▁CC	-11.2112
pression	-11.2113
▁fed	-11.2113
▁spots	-11.2114
▁witnesses	-11.2115
्	-11.2117
beat	-11.2117
▁fence	-11.2117
▁Military	-11.2118
6,000	-11.2119
े	-11.2119
▁campaigns	-11.2121
▁females	-11.2121
rim	-11.2121
▁meters	-11.2123
html	-11.2123
▁pipe	-11.213
story	-11.2133
lyn	-11.2137
▁terrorists	-11.2139
▁Tha	-11.214
grad	-11.2141
CD	-11.2143
▁Child	-11.2143
▁Direct	-11.2144
▁Craig	-11.2145
▁voor	-11.2146
▁sections	-11.2146
▁singing	-11.2147
Ch	-11.2147
▁scratch	-11.2149
性	-11.2149
▁été	-11.215
▁pregnant	-11.215
ém	-11.2151
▁Arthur	-11.2154
pid	-11.2154
tico	-11.2155
▁Further	-11.2156
▁Job	-11.2156
fri	-11.2159
フ	-11.2159
-15	-11.216
isk	-11.2163
▁parish	-11.2163
сти	-11.2163
▁heaven	-11.2165
cken	-11.2167
▁guards	-11.2168
▁setup	-11.217
▁picking	-11.217
▁Drive	-11.2176
ality	-11.2181
▁Storm	-11.2182
2017	-11.2182
▁Log	-11.2183
▁neighbour	-11.2184
▁meaningful	-11.2184
▁pentru	-11.2188
同	-11.2189
▁Soon	-11.219
2,000	-11.219
▁prediction	-11.2191
App	-11.2191
▁Staff	-11.2192
▁bell	-11.2192
▁2005,	-11.2192
▁odds	-11.2199
▁laptop	-11.2201
▁pm	-11.2201
▁disappear	-11.2201
▁Collins	-11.2202
itate	-11.2204
▁NCAA	-11.2206
▁duties	-11.2206
nja	-11.2207
▁McCa	-11.2208
▁maps	-11.2208
▁vil	-11.2212
▁Susan	-11.2212
▁minds	-11.2213
▁Bun	-11.2214
▁dive	-11.2214
▁Pet	-11.2215
▁nominated	-11.2216
▁animation	-11.2217
▁sing	-11.2218
ups	-11.2219
▁Convention	-11.222
▁Stan	-11.222
時	-11.222
rug	-11.2221
▁Bengal	-11.2221
▁Montreal	-11.2222
▁einer	-11.2224
▁reuni	-11.2226
本	-11.223
ube	-11.2231
pl	-11.2232
▁Buy	-11.2232
gov	-11.2233
▁Pelosi	-11.2233
τη	-11.2235
enberg	-11.2237
dé	-11.2238
▁suburb	-11.224
▁Д	-11.2241
DF	-11.2244
▁retro	-11.2244
▁tactics	-11.2245
用	-11.2246
jar	-11.2247
ás	-11.2248
▁casual	-11.2249
crypt	-11.2251
isten	-11.2251
Pe	-11.2254
▁Coach	-11.2254
cco	-11.2255
▁Nelson	-11.2255
▁Champions	-11.226
▁kl	-11.2261
▁Carr	-11.2261
▁slid	-11.2264
IF	-11.2264
lusion	-11.227
som	-11.2272
ère	-11.2273
▁Date	-11.2273
km	-11.2274
▁interaction	-11.2275
▁Beat	-11.2278
trust	-11.2278
▁ل	-11.2279
▁bun	-11.2279
▁Egyptian	-11.228
▁Temple	-11.228
eta	-11.2282
▁indicates	-11.2283
▁Side	-11.2284
uge	-11.2288
ного	-11.229
▁bombing	-11.2291
▁bone	-11.2291
ores	-11.2292
using	-11.2297
▁succeeded	-11.2297
IO	-11.2299
▁occasionally	-11.2299
Pri	-11.23
▁Commissioner	-11.23
▁eggs	-11.2301
▁insult	-11.2301
▁Marco	-11.2302
▁keyboard	-11.2303
ICE	-11.2304
▁voices	-11.2304
ML	-11.2305
!!	-11.2308
Hey	-11.2308
▁Sheriff	-11.2309
Gu	-11.231
▁fond	-11.2312
▁Edition	-11.2313
▁Kel	-11.2314
glo	-11.2318
▁puzzle	-11.2321
▁marine	-11.2321
▁10,000	-11.2325
itis	-11.2326
▁tongue	-11.2326
▁influenced	-11.2326
▁traveling	-11.2326
▁fishing	-11.2327
▁Din	-11.2327
/2	-11.2329
▁Walter	-11.2329
▁stared	-11.2331
▁fucking	-11.2332
▁drag	-11.2333
▁painful	-11.2334
▁tweets	-11.2335
▁Section	-11.2335
▁accompanied	-11.234
▁consult	-11.2341
▁Berg	-11.2341
▁stranger	-11.2342
▁isolated	-11.2347
▁Magazine	-11.2347
▁riot	-11.2348
tica	-11.235
▁recalled	-11.2351
think	-11.2351
schaft	-11.2353
▁Yang	-11.2353
▁blend	-11.2354
ál	-11.2354
▁playoff	-11.2354
▁veterans	-11.2355
▁Shah	-11.2355
▁spi	-11.2356
▁defendant	-11.2358
▁dr	-11.2358
▁Word	-11.2359
quality	-11.2359
▁shoulders	-11.2359
zed	-11.236
▁Border	-11.236
▁ridiculous	-11.236
▁touched	-11.236
▁routes	-11.2361
▁undermine	-11.2361
▁Bin	-11.2363
▁Pin	-11.2366
▁г	-11.2368
▁Tel	-11.2368
▁unprecedented	-11.2369
reach	-11.2369
plan	-11.237
▁Speaker	-11.2374
▁underground	-11.2374
elli	-11.2375
▁MPs	-11.2376
▁designs	-11.2379
pes	-11.2381
nam	-11.2382
▁RO	-11.2386
▁Pittsburgh	-11.2386
group	-11.2386
▁bud	-11.2386
▁Opera	-11.2387
▁immer	-11.2387
lug	-11.2388
CB	-11.2389
rib	-11.2391
▁acquisition	-11.2391
stä	-11.2391
ried	-11.2393
▁flew	-11.2393
»,	-11.2394
▁Shin	-11.2394
▁scan	-11.2395
▁brew	-11.2395
▁Comey	-11.2397
▁conta	-11.2398
▁shipping	-11.2398
▁mor	-11.24
▁provincial	-11.24
▁condemn	-11.2403
▁migration	-11.2403
▁renewable	-11.2404
▁Modern	-11.2405
▁Dol	-11.2405
▁terminal	-11.2408
▁Fight	-11.2408
Hu	-11.2412
▁Nature	-11.2412
▁detention	-11.2413
▁Wing	-11.2413
さ	-11.2414
race	-11.2416
FI	-11.2418
▁wise	-11.2419
LI	-11.2419
▁Cloud	-11.242
▁minimal	-11.242
▁shocked	-11.2421
ND	-11.2423
▁suspension	-11.2424
▁flip	-11.2426
▁contacted	-11.2431
▁concerning	-11.2432
▁approaches	-11.2436
▁Climate	-11.2436
▁darkness	-11.2437
bur	-11.2437
icia	-11.2438
▁Ay	-11.2438
▁mystery	-11.2443
plain	-11.2447
▁Rev	-11.2448
IE	-11.2449
分	-11.2454
▁utility	-11.2454
▁Short	-11.2456
▁bitter	-11.2459
▁pat	-11.2459
▁operator	-11.2462
gest	-11.2462
▁800	-11.2466
ナ	-11.2467
ppen	-11.2468
▁controller	-11.2471
pho	-11.2472
▁1.5	-11.2473
file	-11.2474
▁evident	-11.2475
OK	-11.2476
▁Mind	-11.2477
▁cousin	-11.2477
▁Vor	-11.2477
color	-11.2477
▁0.0	-11.2477
▁57	-11.2479
▁Jahr	-11.2479
па	-11.248
▁phenomenon	-11.248
jon	-11.248
third	-11.2481
▁Castle	-11.2482
▁Hit	-11.2483
▁investments	-11.2484
.[	-11.2485
▁highlights	-11.2485
▁engines	-11.2485
▁repeal	-11.2486
▁250	-11.2486
▁forgotten	-11.2487
▁LE	-11.2487
eira	-11.2491
agne	-11.2491
▁instrument	-11.2492
▁attribute	-11.2493
▁pressed	-11.2495
▁Small	-11.2496
▁timing	-11.2496
▁equality	-11.2499
▁reinforce	-11.2499
▁Flo	-11.2499
▁Rule	-11.25
▁procedures	-11.2502
iri	-11.2502
mato	-11.2506
▁Wright	-11.2511
▁haben	-11.2512
ró	-11.2513
store	-11.2514
▁starter	-11.2514
▁Deal	-11.2519
▁corrupt	-11.2519
▁remarkable	-11.252
CL	-11.252
tiva	-11.2521
span	-11.2522
ifier	-11.2523
▁Puerto	-11.2526
profit	-11.2526
▁Imp	-11.2527
▁diseases	-11.2529
▁Level	-11.253
▁quoted	-11.2532
++	-11.2534
host	-11.2535
▁мо	-11.2536
left	-11.2538
▁carries	-11.2539
▁Р	-11.2543
▁seu	-11.2545
▁theories	-11.2546
▁Crow	-11.2546
▁Along	-11.2546
▁confirmation	-11.2547
they	-11.2549
Str	-11.255
▁armor	-11.2552
▁verse	-11.2554
▁tube	-11.2554
Reuters	-11.2554
▁roots	-11.2555
force	-11.2556
rise	-11.2556
▁contractor	-11.2559
amos	-11.2559
▁lessons	-11.2564
▁Mau	-11.2564
founder	-11.2564
uta	-11.2565
▁Barcelona	-11.2566
volu	-11.2567
kie	-11.2567
nica	-11.2569
▁preserve	-11.257
▁integrated	-11.257
▁sleeping	-11.257
cé	-11.257
▁ET	-11.2572
▁imposed	-11.2574
▁Lan	-11.2576
antes	-11.2577
▁boil	-11.2578
▁orange	-11.2578
▁supplement	-11.2578
▁discussing	-11.258
Mon	-11.258
▁Oscar	-11.2581
MB	-11.2582
▁compromise	-11.2583
fon	-11.2583
▁tid	-11.2583
▁motivation	-11.2583
phan	-11.2583
vir	-11.2586
ύ	-11.2586
▁boxes	-11.2589
▁attacker	-11.2589
▁Ethereum	-11.2593
▁variable	-11.2594
▁Challenge	-11.2594
▁б	-11.2595
▁Nar	-11.2596
▁sem	-11.2596
sized	-11.2597
▁prosecution	-11.2601
-9	-11.2603
rator	-11.2605
▁Block	-11.2607
▁twist	-11.2607
▁legally	-11.2609
▁Visit	-11.261
▁Cle	-11.2611
▁Kha	-11.2614
▁consciousness	-11.2616
▁executed	-11.2617
▁hunting	-11.2617
▁coins	-11.2618
ece	-11.2619
▁functional	-11.2621
▁agricultural	-11.2622
▁upload	-11.2624
hawk	-11.2627
▁govern	-11.263
μα	-11.2631
▁dual	-11.2632
▁mm	-11.2632
▁prompted	-11.2635
▁painted	-11.2638
▁graphic	-11.2639
▁chip	-11.264
▁Manhattan	-11.264
▁Bus	-11.2645
national	-11.2647
▁Stewart	-11.2648
▁fait	-11.2651
▁Tell	-11.2651
▁appearing	-11.2652
ções	-11.2652
▁bare	-11.2654
▁hosts	-11.2657
▁steady	-11.2657
▁CB	-11.2658
▁headlines	-11.266
▁CS	-11.266
ной	-11.2661
▁recommendations	-11.2661
▁outdoor	-11.2663
▁Bern	-11.2665
▁э	-11.2666
▁bass	-11.2667
▁flights	-11.2668
▁=>	-11.2672
ду	-11.2673
▁Map	-11.2673
▁divide	-11.2675
▁colon	-11.2675
▁chu	-11.2677
▁socialist	-11.2677
▁neutral	-11.2677
▁58	-11.2677
▁pac	-11.2678
▁processor	-11.2678
hat	-11.268
▁Steam	-11.2684
rain	-11.2685
▁cleared	-11.2686
▁Stock	-11.2686
▁regarded	-11.2686
lift	-11.2688
▁Arena	-11.269
dging	-11.269
▁desperate	-11.2691
▁lifestyle	-11.2693
▁sco	-11.2693
лю	-11.2694
▁declare	-11.2697
vas	-11.2697
▁unions	-11.2698
▁amongst	-11.2702
▁retreat	-11.2703
発	-11.2706
▁Karl	-11.2707
▁Draft	-11.2708
▁Kit	-11.2708
▁cruise	-11.2714
▁Alaska	-11.2714
▁municipal	-11.2715
実	-11.272
▁Manager	-11.272
▁Register	-11.2722
▁ratings	-11.2722
▁ceiling	-11.2722
▁infected	-11.2725
▁servant	-11.2725
▁fare	-11.2725
▁wooden	-11.2726
▁psycho	-11.2726
raw	-11.2728
▁everyday	-11.273
▁attracted	-11.273
▁Jam	-11.2738
yr	-11.2739
ution	-11.2739
▁Base	-11.2741
▁differently	-11.2742
tó	-11.2744
TION	-11.2745
▁Hampshire	-11.2745
▁sits	-11.2746
▁playoffs	-11.2747
▁Warner	-11.2747
▁spokeswoman	-11.275
").	-11.2751
▁checked	-11.2752
▁Others	-11.2753
firm	-11.2754
▁Mission	-11.2754
usta	-11.2755
▁maintaining	-11.2756
ech	-11.2756
▁sens	-11.2759
▁considerable	-11.2759
nova	-11.276
▁Route	-11.2761
ym	-11.2763
▁neu	-11.2763
▁tremendous	-11.2764
▁chase	-11.2764
▁adoption	-11.2766
▁mill	-11.2766
▁seized	-11.2767
前	-11.2767
aus	-11.2768
▁Vin	-11.2768
Di	-11.2769
ار	-11.2769
mming	-11.277
▁Cri	-11.2772
borough	-11.2773
ét	-11.2773
adi	-11.2776
▁Norway	-11.2777
step	-11.2778
SR	-11.2778
▁transformation	-11.2779
▁shooter	-11.2779
brand	-11.2782
zon	-11.2782
▁1964	-11.2783
Good	-11.2784
▁rice	-11.2788
▁Titan	-11.2788
▁sessions	-11.2789
学	-11.2793
▁unlock	-11.2796
▁Cost	-11.2796
aker	-11.2797
▁poem	-11.2799
▁indication	-11.28
ont	-11.2801
▁Fun	-11.2801
eux	-11.2802
FO	-11.2802
▁homo	-11.2803
▁Stu	-11.2803
▁Capitol	-11.2803
rav	-11.2804
▁smoking	-11.2804
▁mutual	-11.2804
▁earning	-11.2805
▁Comment	-11.2806
ý	-11.2806
ש	-11.2808
▁Gas	-11.2809
eld	-11.2809
▁insert	-11.2809
▁perceived	-11.2809
▁extraordinary	-11.2809
ř	-11.2811
▁provider	-11.2812
▁Region	-11.2814
▁sustainable	-11.2814
▁posting	-11.2814
▁explaining	-11.2814
gio	-11.2815
▁Peace	-11.2817
▁McCain	-11.2818
▁PT	-11.282
▁Um	-11.2822
did	-11.2822
imagin	-11.2824
ssen	-11.2827
▁defended	-11.2827
▁compensation	-11.283
ました	-11.2831
▁72	-11.2832
▁Race	-11.2833
▁tokens	-11.2834
▁capitalism	-11.2835
▁sake	-11.2839
gua	-11.2839
▁restore	-11.284
▁Fal	-11.2842
▁Pentagon	-11.2845
▁conversion	-11.2846
キ	-11.2848
▁sons	-11.2848
ril	-11.2849
▁Swiss	-11.2849
▁dan	-11.2849
▁prosecutor	-11.2853
▁Rem	-11.2854
▁implications	-11.2855
kla	-11.2856
▁wrapped	-11.2856
▁Classic	-11.2859
▁Campaign	-11.286
▁Mississippi	-11.2863
hara	-11.2863
▁measurement	-11.2863
▁encouraging	-11.2867
posed	-11.2868
EX	-11.2868
▁jurisdiction	-11.287
▁acted	-11.2874
▁Rid	-11.2874
each	-11.2876
▁Event	-11.2876
▁openly	-11.2877
wave	-11.2878
zia	-11.2881
▁GDP	-11.2882
▁Islands	-11.2883
▁marry	-11.2884
▁Dur	-11.2886
rai	-11.2887
▁removing	-11.2888
▁requiring	-11.2889
▁reads	-11.289
▁precisely	-11.2893
▁errors	-11.2897
▁EP	-11.2897
▁spotted	-11.2897
▁importantly	-11.2899
▁ме	-11.2901
HO	-11.2904
▁Row	-11.2906
▁populations	-11.2906
▁clue	-11.2906
▁dropping	-11.2906
▁kingdom	-11.2908
▁mysterious	-11.2908
▁medication	-11.2909
oj	-11.2909
▁describing	-11.2911
▁Т	-11.2914
手	-11.292
look	-11.2922
▁Switzerland	-11.2922
▁stroke	-11.2922
▁Douglas	-11.2922
Time	-11.2924
▁Adams	-11.2924
▁dominated	-11.2926
▁bail	-11.2927
▁patron	-11.2929
об	-11.2929
▁journalism	-11.293
▁так	-11.2933
cid	-11.2933
▁Besides	-11.2934
▁argues	-11.2935
言	-11.2936
▁Math	-11.2936
▁Deb	-11.2938
ど	-11.2939
▁Allah	-11.2939
iger	-11.294
▁Oil	-11.294
▁Oakland	-11.2943
▁10%	-11.2944
jun	-11.2945
▁unfair	-11.2947
▁OR	-11.2947
▁Med	-11.2951
子	-11.2952
▁spaces	-11.2953
▁thirty	-11.2956
▁Based	-11.2957
▁deemed	-11.2958
eli	-11.2959
▁closest	-11.296
▁Gabriel	-11.2961
▁partly	-11.2962
▁Carlos	-11.2962
▁interpret	-11.2966
▁Coin	-11.2966
▁Eve	-11.2967
▁tune	-11.2967
▁operates	-11.2967
wich	-11.2968
▁noch	-11.2968
▁habitat	-11.2968
recht	-11.297
chin	-11.2971
fix	-11.2971
▁weakness	-11.2971
▁TR	-11.2973
自	-11.2973
▁Ruby	-11.2975
▁Syn	-11.2978
▁anchor	-11.2978
▁volunteers	-11.2979
▁1965	-11.298
version	-11.2981
ρα	-11.2981
amo	-11.2981
▁oder	-11.2982
quin	-11.2982
tral	-11.2983
▁Louisiana	-11.2985
ế	-11.2986
SH	-11.2987
▁cargo	-11.2987
▁manufacturers	-11.2988
▁golden	-11.2988
▁owe	-11.2989
▁ф	-11.2989
▁bulk	-11.299
▁occasions	-11.299
▁rela	-11.2993
▁bis	-11.2995
ה	-11.2997
▁trials	-11.2997
▁Pac	-11.2998
▁Help	-11.2998
▁Medicine	-11.3
▁hiding	-11.3001
osta	-11.3001
▁nationwide	-11.3003
walk	-11.3004
▁$100	-11.3009
▁castle	-11.3011
κα	-11.3011
▁authentic	-11.3011
backs	-11.3012
▁Dad	-11.3016
▁seventh	-11.3017
▁servi	-11.3022
▁professionals	-11.3022
▁spare	-11.3023
Where	-11.3024
▁Against	-11.3024
▁Gray	-11.3026
organ	-11.3029
▁savings	-11.3033
▁под	-11.3035
SON	-11.3035
▁courage	-11.3036
VA	-11.304
CR	-11.3042
вер	-11.3042
▁Murphy	-11.3043
▁Jin	-11.3044
▁crystal	-11.3047
▁Slo	-11.3048
▁identifi	-11.3049
▁Put	-11.305
▁figured	-11.3051
▁Forces	-11.3052
▁EPA	-11.3054
▁99	-11.3054
▁expecting	-11.3056
kom	-11.3057
今	-11.3057
▁chaos	-11.3059
ota	-11.3059
▁spectrum	-11.3062
▁frustration	-11.3063
▁Stat	-11.3065
ض	-11.3066
▁skull	-11.3067
エ	-11.3068
OU	-11.3069
▁Eye	-11.3069
ois	-11.3069
wy	-11.3074
▁Jerry	-11.3075
▁gesture	-11.3076
▁affair	-11.3076
▁voi	-11.3076
▁Indonesia	-11.3079
vio	-11.3082
ło	-11.3083
▁Case	-11.3083
▁ger	-11.3084
enti	-11.3085
▁exclusively	-11.3088
lumin	-11.309
că	-11.3092
ono	-11.3094
▁sein	-11.3095
▁experiments	-11.3095
▁Looking	-11.3096
Image	-11.3097
▁facilitate	-11.3098
▁wings	-11.31
uan	-11.3101
▁Rand	-11.3101
▁Chan	-11.3102
user	-11.3102
▁bubble	-11.3104
▁counties	-11.3104
minating	-11.3105
▁divers	-11.3105
▁Ottawa	-11.3108
uting	-11.311
▁ا	-11.3111
▁editorial	-11.3112
▁certificate	-11.3112
motion	-11.3113
▁66	-11.3114
▁Alberta	-11.3114
▁Quebec	-11.3114
テ	-11.3115
▁pon	-11.3115
▁hopefully	-11.3116
map	-11.3116
▁plug	-11.3116
▁Poll	-11.3117
▁nowhere	-11.3117
rose	-11.3118
wed	-11.3119
ò	-11.312
cil	-11.3121
uru	-11.3121
▁withdraw	-11.3121
ismo	-11.3121
▁Larry	-11.3122
▁Kyle	-11.3123
▁companion	-11.3124
▁Memorial	-11.3125
▁tire	-11.3127
▁Cardinal	-11.3127
▁ramp	-11.3127
▁2.0	-11.3128
じ	-11.3128
block	-11.3129
▁aber	-11.3129
▁celebrated	-11.3131
▁Regional	-11.3131
▁disappointed	-11.3132
▁traveled	-11.3133
cos	-11.3139
▁Af	-11.314
▁flesh	-11.3142
▁Giants	-11.3143
ION	-11.3143
▁Million	-11.3144
▁revelation	-11.3144
▁File	-11.3146
▁theatre	-11.3147
▁ears	-11.3147
tier	-11.3147
uce	-11.315
▁breakfast	-11.3151
▁charging	-11.3152
▁contributor	-11.3155
▁1000	-11.3155
▁Chamber	-11.3156
▁keys	-11.3157
semble	-11.3158
azione	-11.3161
▁releases	-11.3162
▁winners	-11.3162
▁dam	-11.3162
▁camps	-11.3163
eurs	-11.3164
▁reforms	-11.3166
▁viol	-11.3167
▁missions	-11.3168
▁lesson	-11.317
▁hor	-11.3171
camp	-11.3171
▁Lor	-11.3179
до	-11.318
hil	-11.3181
▁feminist	-11.3181
ě	-11.3182
▁robot	-11.3184
mut	-11.3184
quant	-11.3187
▁Cole	-11.3188
▁Ward	-11.3188
iste	-11.3188
2018	-11.319
▁nel	-11.319
-11	-11.3191
▁Release	-11.3193
▁valley	-11.32
▁deploy	-11.3201
!!!	-11.3202
stat	-11.3203
▁Form	-11.3204
▁rebel	-11.3204
team	-11.3204
▁graphics	-11.3212
▁confront	-11.3215
ги	-11.3215
▁yeah	-11.3215
▁derived	-11.3215
dian	-11.322
▁modified	-11.322
▁bei	-11.3224
▁Arsenal	-11.3226
▁einen	-11.3228
▁const	-11.3229
▁Pad	-11.3229
▁Stanley	-11.3229
zone	-11.323
▁reply	-11.3231
▁Lang	-11.3233
▁Mini	-11.3233
▁intern	-11.3234
▁churches	-11.3234
▁DVD	-11.3234
esta	-11.3235
▁59	-11.3236
gia	-11.3237
ään	-11.3237
ità	-11.3237
▁Exchange	-11.3241
▁Mom	-11.3241
▁Rat	-11.3243
▁invite	-11.3243
▁immune	-11.3244
▁Chile	-11.3244
▁bas	-11.3251
▁Merc	-11.3253
▁Upon	-11.3254
8,000	-11.3255
stead	-11.3256
ные	-11.3258
▁pun	-11.3258
▁HA	-11.3259
NP	-11.326
▁boast	-11.3262
ulating	-11.3263
▁RT	-11.3263
▁mountains	-11.3264
say	-11.3265
west	-11.3265
▁Pick	-11.3266
▁tens	-11.3266
▁recipient	-11.3267
▁Crown	-11.3267
▁flowers	-11.3269
▁influential	-11.3269
▁agriculture	-11.3272
yes	-11.3274
▁exam	-11.3275
▁20-	-11.3275
▁Kil	-11.3276
▁Hope	-11.3277
▁participating	-11.3277
▁pink	-11.3279
▁Wei	-11.3283
▁Mail	-11.3284
▁replacing	-11.3286
ている	-11.3287
▁pioneer	-11.3288
▁tension	-11.3293
最	-11.3293
ifica	-11.3296
gam	-11.3296
oke	-11.3296
▁85	-11.3297
▁momentum	-11.3298
ック	-11.3298
▁trends	-11.3298
▁Kor	-11.3298
▁globe	-11.3298
▁releasing	-11.3298
qué	-11.3299
kke	-11.3299
▁Gla	-11.3299
good	-11.33
▁Lawrence	-11.3302
▁cam	-11.3305
▁oh	-11.3308
▁outrage	-11.3308
alo	-11.3308
▁traded	-11.3309
clude	-11.3313
▁choosing	-11.3313
▁rebound	-11.3315
school	-11.3315
million	-11.3316
▁shops	-11.3319
▁reception	-11.3319
▁Mitchell	-11.3321
▁NE	-11.3322
▁utilize	-11.3322
▁gem	-11.3323
▁porn	-11.3323
▁Drug	-11.3324
▁bien	-11.3324
▁nas	-11.3325
Wi	-11.3326
▁outfit	-11.3328
▁brands	-11.3333
―	-11.3337
▁CPU	-11.3337
VER	-11.3337
▁cul	-11.3338
▁characteristics	-11.3342
▁signals	-11.3343
間	-11.3345
▁presidente	-11.3348
▁Astro	-11.3349
▁Sav	-11.3349
▁Bomb	-11.3353
Sp	-11.3355
▁affirm	-11.3356
▁blade	-11.3359
▁shifted	-11.3359
▁completion	-11.3361
uka	-11.3361
▁subscription	-11.3361
▁Helen	-11.3362
▁fame	-11.3365
▁Benjamin	-11.3366
▁cab	-11.3367
▁Orange	-11.3372
▁Amy	-11.3374
▁egg	-11.3377
break	-11.3378
urg	-11.3378
rier	-11.338
▁те	-11.338
▁(6	-11.3385
▁Currently	-11.3385
▁Treasury	-11.3385
▁educated	-11.3386
▁glow	-11.3387
rine	-11.3388
▁faculty	-11.3391
▁Sciences	-11.3394
ого	-11.3394
▁Hil	-11.3398
▁violations	-11.3398
ERS	-11.3399
▁integrity	-11.3401
▁loyal	-11.3401
▁relate	-11.3401
▁enhance	-11.3402
▁Cru	-11.3403
▁kr	-11.3405
▁outstanding	-11.3406
By	-11.3406
▁conf	-11.3407
न	-11.3411
▁Citizen	-11.3412
▁Medi	-11.3413
▁surrender	-11.3414
▁cancel	-11.3414
▁Bou	-11.3418
▁ghost	-11.3423
▁math	-11.3424
▁ny	-11.3426
UD	-11.3429
イン	-11.3431
▁chill	-11.3432
▁Jar	-11.3433
▁WA	-11.3433
▁pie	-11.3433
▁dependent	-11.3435
agh	-11.3439
▁jam	-11.344
rice	-11.344
▁delayed	-11.3444
igan	-11.3447
▁branches	-11.345
corn	-11.3451
▁engineers	-11.3452
▁Ivan	-11.3458
▁pela	-11.3458
VI	-11.3459
▁Corp	-11.3459
ić	-11.346
▁suspects	-11.3461
▁produ	-11.3468
▁dragon	-11.3469
phon	-11.3471
▁Campbell	-11.3473
▁villages	-11.3475
▁caution	-11.3475
▁simultaneously	-11.3476
▁Vladimir	-11.3478
▁grey	-11.3479
▁packed	-11.3481
▁sole	-11.3481
▁circum	-11.3482
▁SD	-11.3483
▁£1	-11.3484
▁stopping	-11.3484
▁hay	-11.3485
▁printed	-11.3487
▁Sche	-11.349
▁robust	-11.3491
▁equipped	-11.3491
cious	-11.3491
▁operational	-11.3493
▁administrator	-11.3494
▁Orleans	-11.3495
dress	-11.3495
▁Czech	-11.3497
後	-11.3497
▁mud	-11.3498
▁62	-11.3499
elt	-11.3501
▁forgive	-11.3503
▁einem	-11.3506
▁Photos	-11.3507
▁Cape	-11.3507
▁gradually	-11.3508
▁Feature	-11.3509
yne	-11.351
ты	-11.351
▁pound	-11.351
▁Girl	-11.3513
▁Marshall	-11.3513
▁loaded	-11.3514
▁Stein	-11.3517
</	-11.3517
second	-11.3517
▁funeral	-11.3518
▁viral	-11.3518
▁humor	-11.3518
▁consultant	-11.3519
▁citizenship	-11.352
▁Michel	-11.3523
од	-11.3525
▁hydro	-11.3527
▁Andre	-11.3529
▁True	-11.353
▁sexually	-11.3531
▁esp	-11.3532
▁responses	-11.3537
tsu	-11.3538
▁Shaw	-11.3542
▁18,	-11.3542
▁Brazilian	-11.3544
his	-11.3544
▁RA	-11.3544
zan	-11.3544
berry	-11.3545
▁Fur	-11.3546
▁CR	-11.3547
▁notably	-11.3548
▁Dy	-11.355
▁backing	-11.3551
▁Cold	-11.3553
▁listing	-11.3554
▁Trudeau	-11.3554
▁heritage	-11.3556
▁metric	-11.3556
▁Colombia	-11.3556
chain	-11.3557
▁Question	-11.3558
mates	-11.356
▁horses	-11.3561
▁luxury	-11.3562
ml	-11.3565
▁echo	-11.3565
▁Wayne	-11.3565
iac	-11.3565
▁void	-11.3566
▁Whi	-11.3566
start	-11.3568
▁hung	-11.3568
mile	-11.3569
▁talented	-11.357
▁Money	-11.3571
.10	-11.3571
▁flaw	-11.3571
▁fluid	-11.3573
▁naked	-11.3574
liver	-11.3576
▁bon	-11.3577
▁relax	-11.3578
▁yard	-11.3578
▁adequate	-11.3579
▁earthquake	-11.3579
▁shortage	-11.3579
▁vendor	-11.3579
por	-11.3581
iding	-11.3582
▁admission	-11.3583
▁trauma	-11.3586
uter	-11.3586
▁shower	-11.3587
▁bla	-11.3588
高	-11.3588
▁murdered	-11.3589
▁char	-11.359
emi	-11.3592
▁Electric	-11.3592
piece	-11.3593
▁engaging	-11.3596
▁Crypto	-11.3598
▁(1)	-11.36
cision	-11.3601
ам	-11.3603
fur	-11.3606
▁modest	-11.3607
▁Blake	-11.3609
▁MLS	-11.3609
▁identical	-11.3609
▁gym	-11.3612
▁Nas	-11.3613
▁PO	-11.3616
▁grace	-11.3617
Gra	-11.3618
▁mehr	-11.3618
▁investigated	-11.3619
▁persons	-11.362
▁founding	-11.3626
join	-11.3627
toria	-11.3627
^	-11.3627
▁formerly	-11.3628
▁NSA	-11.363
▁servers	-11.363
▁pole	-11.3631
▁bal	-11.3634
czy	-11.3635
▁formally	-11.3636
▁Cuba	-11.3636
ी	-11.3637
▁neighbors	-11.3638
▁Morris	-11.3638
スト	-11.3638
▁bil	-11.3639
▁как	-11.364
▁Gru	-11.3642
▁Palestinians	-11.3643
▁backup	-11.3643
match	-11.3643
▁researcher	-11.3643
–0	-11.3644
▁IV	-11.3645
▁deployment	-11.3645
lton	-11.3647
cru	-11.3648
▁Dublin	-11.365
▁uncertainty	-11.3651
▁interviewed	-11.3652
area	-11.3654
▁Political	-11.3656
さん	-11.3657
▁Samuel	-11.3658
▁Representatives	-11.366
▁senators	-11.3661
▁Ok	-11.3661
▁challenged	-11.3664
▁Something	-11.3665
▁bands	-11.3665
▁Ice	-11.3669
▁belong	-11.3674
connect	-11.3674
▁aired	-11.3675
▁rushed	-11.3676
▁secured	-11.3677
▁checking	-11.3679
▁Ferr	-11.3679
▁commissioner	-11.3679
-16	-11.368
▁spreading	-11.368
▁correctly	-11.3681
▁premise	-11.3681
▁Walk	-11.3681
▁managers	-11.3682
▁Wy	-11.3683
▁1966	-11.3683
▁Brit	-11.3684
friendly	-11.3685
▁transcript	-11.3686
▁predecessor	-11.3687
▁DJ	-11.369
`	-11.369
▁「	-11.3692
▁abstract	-11.3694
▁Very	-11.3701
▁vertical	-11.3703
▁genuine	-11.3703
hibi	-11.3703
▁stall	-11.3704
▁metres	-11.3704
after	-11.3705
▁Neu	-11.371
▁Afghan	-11.3711
▁Kate	-11.3711
also	-11.3713
▁lyrics	-11.3715
▁overwhelming	-11.3715
▁radar	-11.3715
▁constitution	-11.3716
▁prompt	-11.3716
▁dose	-11.3717
▁realistic	-11.3717
▁concepts	-11.3719
▁dramatically	-11.372
bili	-11.372
▁speakers	-11.3724
▁Bangladesh	-11.3724
lash	-11.3725
▁float	-11.3728
▁Lisa	-11.3729
pose	-11.373
▁Village	-11.373
▁speculation	-11.3731
▁calendar	-11.3732
▁twelve	-11.3734
▁е	-11.3734
▁annually	-11.3737
▁boo	-11.3738
winning	-11.3742
社	-11.3743
market	-11.3744
،	-11.3745
▁SS	-11.3747
▁Author	-11.3748
場	-11.3748
▁impose	-11.3749
▁4:	-11.3749
▁bur	-11.3751
▁pitcher	-11.3752
tina	-11.3752
▁Text	-11.3753
ム	-11.3755
▁cartoon	-11.3756
▁friendship	-11.3757
▁portray	-11.3757
▁Ave	-11.3757
▁enabled	-11.3759
▁expense	-11.3759
feld	-11.3762
title	-11.3762
▁Product	-11.3762
igo	-11.3763
▁accusations	-11.3764
▁telephone	-11.3765
▁dirty	-11.3768
回	-11.3769
6)	-11.3769
ül	-11.3769
▁grain	-11.377
SM	-11.377
ées	-11.377
▁AN	-11.3772
prop	-11.3773
▁subscribe	-11.3774
system	-11.3775
▁keen	-11.3775
▁Commons	-11.3777
▁sounded	-11.3777
▁vent	-11.3778
▁cake	-11.378
▁impressed	-11.378
▁handled	-11.378
▁holes	-11.3781
▁distant	-11.3782
tivo	-11.3782
▁refugee	-11.3783
ţ	-11.3783
▁classroom	-11.3785
▁Fame	-11.3785
▁costume	-11.3786
▁Trail	-11.3786
grav	-11.3786
▁SEC	-11.3787
▁bags	-11.3787
▁PlayStation	-11.3787
üh	-11.3788
▁tons	-11.3789
▁Chu	-11.379
▁wisdom	-11.379
▁Meet	-11.3791
▁Portugal	-11.3793
▁font	-11.3793
▁READ	-11.3793
▁Around	-11.3797
▁legislature	-11.3797
▁propose	-11.3798
▁respective	-11.3799
-17	-11.38
▁genes	-11.3801
▁tru	-11.3803
▁physics	-11.3803
▁hosting	-11.3804
AG	-11.3805
▁Return	-11.3805
child	-11.3806
セ	-11.3806
▁Stop	-11.3807
ミ	-11.3808
▁Ltd	-11.3809
▁experimental	-11.3812
▁detained	-11.3812
▁Leon	-11.3812
▁innovative	-11.3814
respons	-11.3815
lves	-11.3816
LL	-11.3816
▁vari	-11.3817
▁fool	-11.3818
pie	-11.382
▁Evans	-11.3824
▁Hin	-11.3825
▁Mobile	-11.3827
fusion	-11.3827
体	-11.3828
vul	-11.3829
dh	-11.383
бе	-11.3835
▁1)	-11.3837
▁belonging	-11.3837
ター	-11.3837
▁blamed	-11.3838
▁entity	-11.3842
▁Person	-11.3843
▁photographer	-11.3843
▁briefing	-11.3844
▁breathing	-11.3845
nuncia	-11.3845
Ver	-11.3846
▁Junior	-11.3846
▁expenses	-11.3847
▁empower	-11.3847
▁affiliate	-11.3847
▁judicial	-11.3848
▁adaptation	-11.3854
tă	-11.3856
▁Pete	-11.3857
▁triple	-11.3857
avan	-11.3857
▁placing	-11.3858
▁nerve	-11.3859
Hi	-11.386
gur	-11.3865
▁2004,	-11.3865
▁USB	-11.3866
▁suspicion	-11.3868
data	-11.3869
▁Production	-11.387
nya	-11.387
▁util	-11.3872
▁Ale	-11.3872
▁cigarette	-11.3872
cred	-11.3874
▁lä	-11.3875
▁Cel	-11.3878
▁PL	-11.3878
▁analysts	-11.3879
ώ	-11.3879
ATION	-11.388
ров	-11.388
▁Common	-11.3881
▁Rico	-11.3883
▁endless	-11.3884
▁substitute	-11.3886
▁Bet	-11.3887
за	-11.3888
▁conservatives	-11.3888
▁conservation	-11.3888
▁focuses	-11.3889
▁Environmental	-11.3889
▁Doug	-11.3889
▁Audi	-11.389
▁Corn	-11.389
▁bath	-11.3891
『	-11.3892
』	-11.3895
▁Stanford	-11.3895
▁Sex	-11.3897
▁Av	-11.39
▁Ul	-11.3902
▁merit	-11.3902
iam	-11.3903
▁partially	-11.3906
▁""	-11.3906
lev	-11.3909
▁***	-11.391
▁hiring	-11.391
▁Travel	-11.3912
▁prohibit	-11.3914
western	-11.3915
▁conscious	-11.3919
ها	-11.392
▁61	-11.392
▁sir	-11.392
▁LI	-11.3921
▁Ronald	-11.3922
▁sustained	-11.3922
phy	-11.3923
部	-11.3923
▁Reform	-11.3923
▁longest	-11.3923
breaking	-11.3924
▁employers	-11.3924
▁starring	-11.3926
жи	-11.3926
▁HE	-11.3929
▁portrait	-11.3929
▁brave	-11.3931
.3%	-11.3931
bbing	-11.3933
▁evolved	-11.3936
rium	-11.3941
▁intelligent	-11.3941
▁Bird	-11.3944
track	-11.3944
▁CON	-11.3946
▁polar	-11.3947
▁drives	-11.3948
▁ritual	-11.3952
▁toilet	-11.3955
▁Marie	-11.3956
▁Lock	-11.3956
▁Attack	-11.396
hua	-11.396
▁serial	-11.3962
▁automatic	-11.3962
▁JavaScript	-11.3963
▁picks	-11.3965
.4%	-11.3966
▁safely	-11.3966
Ka	-11.3969
▁reflected	-11.397
dir	-11.3973
▁criteria	-11.3973
ssel	-11.3974
▁opposing	-11.3974
▁invested	-11.3975
cott	-11.3978
roy	-11.3979
▁Morning	-11.3984
being	-11.3984
ń	-11.3985
▁Finance	-11.3987
▁во	-11.3988
road	-11.3991
▁unto	-11.3992
▁cheaper	-11.3992
▁Perry	-11.3993
▁30-	-11.3993
▁transparency	-11.3993
▁Speed	-11.3994
▁Hurricane	-11.3994
▁Rah	-11.3996
▁parliamentary	-11.3996
▁renamed	-11.3997
After	-11.4001
▁nail	-11.4002
よ	-11.4003
▁urgent	-11.4007
▁diplomat	-11.4008
2019	-11.4008
▁Ian	-11.4009
▁Mega	-11.401
HE	-11.4012
ков	-11.4013
▁headline	-11.4013
▁chocolate	-11.4013
▁withdrawal	-11.4015
▁insect	-11.4019
▁Parker	-11.4019
▁lip	-11.4022
▁romantic	-11.4023
DB	-11.4026
▁Inside	-11.4026
▁Less	-11.4026
▁reviewed	-11.4028
▁sho	-11.4029
▁Corbyn	-11.403
▁beam	-11.4031
▁Nancy	-11.4031
ALL	-11.4032
▁ingredients	-11.4033
7,000	-11.4034
chy	-11.4035
▁Que	-11.4036
▁desktop	-11.4037
AI	-11.4038
sburg	-11.4039
bell	-11.4039
▁Crime	-11.4039
▁Queensland	-11.4044
▁Create	-11.4045
quel	-11.4045
▁heroes	-11.4046
▁Movie	-11.4048
▁corn	-11.4051
▁electrical	-11.4051
▁ensuring	-11.4051
have	-11.4053
▁2007.	-11.4054
▁nous	-11.4054
UM	-11.4055
▁Danny	-11.4056
▁ministers	-11.4062
apa	-11.4062
zzle	-11.4065
viv	-11.4065
▁من	-11.4066
▁infant	-11.4067
ffen	-11.407
▁Ny	-11.4072
▁fragment	-11.4072
▁Eagles	-11.4073
▁seeks	-11.4075
▁Overall	-11.4075
▁mortgage	-11.4076
▁stops	-11.4076
▁Past	-11.4076
▁20%	-11.408
▁lease	-11.408
vä	-11.4083
ió	-11.4083
▁63	-11.4084
CU	-11.4084
–2	-11.4085
▁Maine	-11.4088
alis	-11.4088
▁UC	-11.4088
▁Mod	-11.4088
▁instances	-11.409
▁grateful	-11.409
▁Nik	-11.4092
▁beaten	-11.4093
▁Rou	-11.4094
▁accepting	-11.4095
anne	-11.4099
rock	-11.4099
ural	-11.4099
lder	-11.41
▁accuracy	-11.4101
show	-11.4103
▁Cut	-11.4104
▁empresa	-11.4106
nier	-11.4109
▁approve	-11.4109
▁torn	-11.411
atta	-11.4112
▁Assistant	-11.4115
News	-11.4116
▁É	-11.4117
▁executives	-11.4117
▁ranging	-11.4118
.6%	-11.4118
▁qualify	-11.412
ず	-11.412
generation	-11.4122
▁analog	-11.4124
▁mice	-11.4124
▁Nathan	-11.413
ット	-11.413
▁ideology	-11.4133
▁nonprofit	-11.4135
lta	-11.4135
▁Studio	-11.4135
▁Lil	-11.4137
▁Salt	-11.4143
▁раз	-11.4143
▁YOU	-11.4144
▁mobil	-11.4144
ェ	-11.4144
▁instantly	-11.4144
▁Barb	-11.4146
▁launching	-11.4147
▁Todd	-11.4148
rik	-11.4148
▁blocking	-11.4149
▁suitable	-11.4151
enne	-11.4152
▁Face	-11.4152
▁Shadow	-11.4152
▁Track	-11.4153
▁Brasil	-11.4153
rü	-11.4153
▁faction	-11.4153
paid	-11.4153
▁Pie	-11.4154
▁Cas	-11.4155
▁awake	-11.4156
▁attraction	-11.4157
▁satisfy	-11.4158
▁weaken	-11.4161
▁justify	-11.4164
▁Blo	-11.4166
▁chant	-11.4168
▁fil	-11.417
ppe	-11.417
▁Laura	-11.4173
woman	-11.4175
Even	-11.4176
▁reaches	-11.4176
ис	-11.4176
▁manufacturer	-11.4176
▁cette	-11.4177
▁stir	-11.4178
▁arise	-11.4178
▁longtime	-11.418
1.1	-11.4183
▁node	-11.4185
▁100,000	-11.4187
SB	-11.4187
▁uncle	-11.4187
▁profound	-11.4187
▁И	-11.4188
while	-11.4188
▁få	-11.4188
▁screw	-11.4188
bridge	-11.419
rica	-11.4192
▁κ	-11.4192
▁resignation	-11.4193
▁slice	-11.4194
Ge	-11.4199
▁76	-11.42
▁bishop	-11.4202
▁sono	-11.4203
▁sorts	-11.4206
▁Norman	-11.4207
▁outcomes	-11.4209
це	-11.421
▁prototype	-11.4212
▁все	-11.4215
▁awful	-11.4217
▁cooking	-11.4218
▁Content	-11.4218
PE	-11.4219
quent	-11.422
▁interference	-11.4221
▁wy	-11.4221
▁treasure	-11.4221
.99	-11.4223
▁pero	-11.4223
assa	-11.4224
ча	-11.4224
▁manual	-11.4224
▁staring	-11.4224
▁shade	-11.4225
▁lane	-11.4227
▁hybrid	-11.4227
▁exchanges	-11.4228
▁registr	-11.4229
▁bay	-11.423
though	-11.4233
▁knocked	-11.4233
cou	-11.4234
▁piano	-11.4235
▁Barry	-11.4235
▁restricted	-11.4238
▁pou	-11.4238
▁Oliver	-11.4238
▁McConnell	-11.4239
https	-11.424
▁må	-11.4244
▁spray	-11.4245
▁Micro	-11.4245
▁leverage	-11.4245
▁guaranteed	-11.4246
▁1963	-11.4248
▁Cav	-11.4248
▁ambition	-11.4249
MM	-11.4249
▁credits	-11.4249
▁68	-11.4249
▁prospects	-11.4254
ши	-11.4255
▁hypo	-11.4256
iente	-11.4256
Te	-11.4258
ник	-11.4261
▁distinction	-11.4263
▁USD	-11.4263
▁hike	-11.4265
▁Hitler	-11.4267
▁cleaning	-11.4267
ieren	-11.4269
▁motivated	-11.4269
▁Athletic	-11.4271
▁crop	-11.4271
▁warrior	-11.4273
▁mechanical	-11.4274
size	-11.4275
▁successor	-11.4276
▁struggles	-11.4277
▁Dakota	-11.4277
ны	-11.428
fund	-11.4281
▁Cent	-11.4283
dev	-11.4285
cock	-11.4285
▁acceptable	-11.4287
▁boundaries	-11.4287
▁vary	-11.4289
LS	-11.4292
kal	-11.4292
IST	-11.4292
▁Seg	-11.4292
▁Connecticut	-11.4292
▁dirt	-11.4294
▁Bernard	-11.4298
▁portfolio	-11.4303
worthy	-11.4303
▁По	-11.4304
▁Eventually	-11.4306
▁Tag	-11.4312
__	-11.4312
▁harvest	-11.4314
▁2,000	-11.4314
εί	-11.4317
horn	-11.4317
▁lui	-11.4319
▁epic	-11.4324
▁marginal	-11.4326
▁2000,	-11.4329
▁lover	-11.4331
▁Ran	-11.4333
▁oxygen	-11.4333
▁HIV	-11.4333
▁defect	-11.4336
▁67	-11.4336
▁technological	-11.4336
▁earliest	-11.4337
tung	-11.4339
▁dear	-11.4339
▁Animal	-11.4339
operative	-11.4341
.7%	-11.4344
▁Billy	-11.4345
▁merchant	-11.4345
▁fortune	-11.4346
▁1948	-11.4346
▁orchestra	-11.4346
fold	-11.4348
ि	-11.4348
пе	-11.435
▁Break	-11.4351
▁grasp	-11.4353
▁Lucas	-11.4353
▁complained	-11.4354
▁advised	-11.4358
▁punish	-11.4358
▁footballer	-11.4359
ONE	-11.4361
▁beta	-11.4361
▁inequality	-11.4365
▁wurde	-11.4368
▁produces	-11.4368
▁Sessions	-11.4369
ры	-11.4369
isch	-11.437
▁tier	-11.437
▁ages	-11.4371
▁Beyond	-11.4373
▁diz	-11.4374
▁islands	-11.4375
▁Hun	-11.4376
内	-11.4376
▁solely	-11.4376
▁Amb	-11.4379
▁vessel	-11.4379
▁Latino	-11.4379
▁grande	-11.4379
▁touchdown	-11.4382
▁CP	-11.4383
▁angel	-11.4385
Mu	-11.4388
▁magical	-11.4389
utta	-11.4389
▁bust	-11.439
signed	-11.439
▁vä	-11.4391
▁Tyler	-11.4391
▁ska	-11.4392
▁operators	-11.4393
▁statistical	-11.4393
▁Single	-11.4394
▁spike	-11.4397
▁babies	-11.4397
▁porque	-11.4397
▁template	-11.4397
се	-11.4399
▁rotation	-11.44
circ	-11.4401
liche	-11.4402
▁Studios	-11.4402
▁Nord	-11.4403
▁Thailand	-11.4403
▁VA	-11.4404
▁Personal	-11.4404
▁nationalist	-11.4406
▁gran	-11.4407
▁leather	-11.4407
▁translate	-11.441
lige	-11.4411
▁interactions	-11.4416
ả	-11.4417
▁cookie	-11.4417
▁instruments	-11.4417
ث	-11.4418
Your	-11.4418
▁1944	-11.4419
▁Belgium	-11.4419
▁situ	-11.4419
▁Ring	-11.442
/4	-11.4421
▁arranged	-11.4421
▁charm	-11.4423
ダ	-11.4423
▁Contact	-11.4424
▁Mann	-11.4426
ood	-11.4427
▁Sup	-11.4429
7)	-11.4429
▁unter	-11.443
▁pest	-11.4431
グ	-11.4431
nish	-11.4431
▁Milan	-11.4431
▁suppose	-11.4431
▁depict	-11.4433
▁CL	-11.4434
▁classical	-11.4439
▁nun	-11.444
Look	-11.444
.2%	-11.4442
▁Rangers	-11.4442
lijk	-11.4443
▁shutdown	-11.4443
/3	-11.4444
▁Lie	-11.4444
▁excess	-11.4444
として	-11.4445
▁contrary	-11.4445
▁significance	-11.4445
.1%	-11.4445
▁translated	-11.4446
From	-11.4446
▁temporarily	-11.4447
▁Monte	-11.4449
uti	-11.4452
▁Palm	-11.4453
▁Chuck	-11.4453
▁suppress	-11.4457
fan	-11.4458
▁Hon	-11.4458
▁tenure	-11.4458
▁Safety	-11.4459
Inter	-11.4459
▁Harper	-11.4459
▁mall	-11.4459
four	-11.4459
call	-11.446
DO	-11.4461
speed	-11.4463
TF	-11.4464
▁streak	-11.4464
▁Fast	-11.4465
▁00	-11.4465
▁uncomfortable	-11.4465
▁Close	-11.4466
▁GA	-11.4466
▁screening	-11.4468
▁Lane	-11.447
metric	-11.4471
tino	-11.4472
▁Machine	-11.4473
▁polling	-11.4474
▁Charlotte	-11.4474
▁laughing	-11.4475
▁Room	-11.4475
▁expertise	-11.4476
▁Below	-11.4476
▁Jul	-11.4477
▁Magn	-11.4479
▁acquire	-11.4479
▁ED	-11.448
もの	-11.448
▁Franklin	-11.448
▁sneak	-11.4481
▁Rachel	-11.4482
▁declaration	-11.4482
▁witnessed	-11.4484
▁consum	-11.4484
rrell	-11.4484
▁Multi	-11.4484
▁obstacle	-11.4485
▁ram	-11.4487
▁chef	-11.4487
ees	-11.4487
▁Rec	-11.4488
UI	-11.4488
ạ	-11.4489
▁Effect	-11.449
▁scout	-11.4491
▁filling	-11.4491
anta	-11.4493
▁dei	-11.4498
▁Bab	-11.4499
ال	-11.4499
▁Engineering	-11.4501
▁Prof	-11.4502
▁Johnny	-11.4503
Par	-11.4504
▁Eight	-11.4505
▁references	-11.4505
▁Kavanaugh	-11.4505
idi	-11.4506
、「	-11.4507
steroid	-11.4509
▁donated	-11.451
▁Temp	-11.4511
wear	-11.4515
▁McDonald	-11.4515
KE	-11.4515
▁photographs	-11.4516
▁jacket	-11.4518
▁productive	-11.4522
▁Wir	-11.4524
▁intersection	-11.4524
▁Leonard	-11.4525
地	-11.4525
gé	-11.4526
▁pill	-11.4528
▁euros	-11.4528
▁Pence	-11.4529
▁Sala	-11.453
▁zum	-11.4531
oso	-11.4534
▁overnight	-11.454
▁Hispanic	-11.4541
tia	-11.4542
▁seal	-11.4543
scription	-11.4546
▁reminded	-11.4547
▁Neil	-11.4548
▁partisan	-11.4548
ESS	-11.455
Har	-11.4553
▁transparent	-11.4554
▁Players	-11.4554
ビ	-11.4555
.8%	-11.4556
▁addiction	-11.4556
▁inherent	-11.4556
▁subtle	-11.4557
▁Lions	-11.4559
agan	-11.456
▁functionality	-11.456
▁revolutionary	-11.456
▁BO	-11.4563
▁Students	-11.4563
peak	-11.4565
▁mosque	-11.4569
▁inhibit	-11.457
明	-11.4572
IVE	-11.4572
▁donors	-11.4573
▁grad	-11.4574
scope	-11.4575
▁comply	-11.4577
▁assignment	-11.4577
▁accuse	-11.4582
rze	-11.4583
▁palm	-11.4584
▁sup	-11.4584
▁audit	-11.4587
▁profession	-11.4587
▁CE	-11.4588
▁Kirk	-11.4589
▁drift	-11.459
ologie	-11.4592
▁entities	-11.4592
charge	-11.4593
▁Rap	-11.4593
▁Rank	-11.4594
ugu	-11.4594
▁competitors	-11.4595
plica	-11.4595
▁happiness	-11.4596
▁gan	-11.4597
▁Mine	-11.4597
▁iconic	-11.4597
tima	-11.4599
▁bite	-11.4599
▁Chrome	-11.4601
▁experiencing	-11.4602
▁reopen	-11.4604
▁highlighted	-11.4604
▁missiles	-11.4605
income	-11.4606
ні	-11.4606
当	-11.4607
あり	-11.4609
▁Custom	-11.461
пу	-11.4612
▁Nine	-11.4614
▁Give	-11.4615
▁Reagan	-11.4617
σε	-11.4619
▁Universal	-11.4624
oci	-11.4624
▁più	-11.4629
▁Patriots	-11.4629
▁offence	-11.463
▁commented	-11.4631
▁couples	-11.4633
frame	-11.4633
▁Poli	-11.4634
él	-11.4634
▁similarly	-11.4636
▁thrill	-11.4638
▁Method	-11.4638
▁quantum	-11.4639
Get	-11.4639
string	-11.4639
▁Kashmir	-11.464
▁GT	-11.464
▁Lauren	-11.4645
greg	-11.4645
▁Watson	-11.4646
nation	-11.4648
▁midfielder	-11.4649
▁rebuild	-11.4649
▁Palace	-11.465
▁rebels	-11.4652
FS	-11.4654
тер	-11.4654
▁complain	-11.4654
▁Lamb	-11.4655
lop	-11.4657
▁arena	-11.4658
▁steep	-11.4659
▁persist	-11.466
complete	-11.4661
▁examination	-11.4662
デ	-11.4663
▁Movement	-11.4663
▁Urban	-11.4664
RL	-11.4665
vok	-11.4668
▁Estado	-11.4671
FT	-11.4671
▁foster	-11.4671
profile	-11.4672
▁Robin	-11.4672
▁flower	-11.4673
▁convenient	-11.4675
▁disk	-11.4675
▁cock	-11.4675
▁periods	-11.4676
▁congress	-11.4676
▁assists	-11.4677
▁literary	-11.4678
pad	-11.4679
2016	-11.468
▁tam	-11.4682
▁reserved	-11.4683
▁upward	-11.4684
▁radiation	-11.4686
▁charter	-11.4687
Chi	-11.4687
▁champions	-11.469
▁Thor	-11.4691
▁Self	-11.4691
▁dock	-11.4691
сь	-11.4692
▁Hockey	-11.4693
▁reflection	-11.4693
▁Musk	-11.4694
▁vez	-11.4696
или	-11.4697
▁ir	-11.47
▁Coll	-11.47
現	-11.47
▁preventing	-11.4701
▁disabled	-11.4701
▁ich	-11.4702
▁packages	-11.4703
▁rivals	-11.4704
▁resemble	-11.4704
▁1962	-11.4704
▁documentation	-11.4705
TP	-11.4706
▁sym	-11.4709
.9%	-11.471
dol	-11.4712
hall	-11.4712
ート	-11.4717
▁tensions	-11.4717
▁pledge	-11.472
▁lend	-11.4721
▁delivering	-11.4721
0.0	-11.4721
▁scholar	-11.4722
▁teammates	-11.4724
▁pursuit	-11.4726
▁lighting	-11.4727
▁Range	-11.473
3,000	-11.473
▁preach	-11.473
best	-11.473
▁visits	-11.473
▁exploring	-11.4732
▁95	-11.4732
......	-11.4732
▁Arkansas	-11.4735
▁contributing	-11.4738
▁Spa	-11.4739
ucci	-11.4739
▁Bear	-11.474
▁awkward	-11.474
▁enjoying	-11.4742
▁Mit	-11.4742
▁drafted	-11.4743
▁gray	-11.4744
対	-11.475
▁Blog	-11.475
▁skip	-11.475
▁arc	-11.4754
▁HO	-11.4754
▁Orlando	-11.4755
lessness	-11.4755
▁Taliban	-11.4757
otic	-11.4757
▁commissioned	-11.476
dag	-11.4762
全	-11.4763
▁tempo	-11.4764
▁Julie	-11.4764
▁applies	-11.4766
▁logical	-11.4768
▁licensed	-11.4768
▁Alice	-11.4768
▁addressing	-11.477
▁Mode	-11.4771
▁dispar	-11.4771
kri	-11.4772
▁detective	-11.4774
▁Leg	-11.4774
▁seeds	-11.4774
▁leaked	-11.4774
ennial	-11.4775
▁Margaret	-11.4776
▁Austria	-11.4777
▁cancelled	-11.4778
hur	-11.4778
▁exceptional	-11.4781
ní	-11.4783
▁mouse	-11.4786
▁rocks	-11.4786
▁sequel	-11.4788
▁wireless	-11.4788
▁albums	-11.4789
▁2)	-11.479
first	-11.4791
gang	-11.4791
▁Sor	-11.4791
▁submission	-11.4791
▁ö	-11.4793
▁restored	-11.4797
▁spur	-11.4798
▁Refer	-11.4798
▁BY	-11.48
ră	-11.4801
▁observation	-11.4802
▁waters	-11.4803
▁socio	-11.4806
▁vegan	-11.4809
dium	-11.481
▁się	-11.4814
kle	-11.4818
▁Europa	-11.4818
▁Cass	-11.4819
▁excitement	-11.482
jä	-11.482
▁swim	-11.4821
▁Save	-11.4822
ologists	-11.4822
▁examined	-11.4823
▁swap	-11.4823
▁arriving	-11.4823
▁Friends	-11.4825
▁static	-11.4825
▁trips	-11.4826
▁Hur	-11.4826
ση	-11.4827
▁crying	-11.4827
▁Organ	-11.4829
▁του	-11.483
▁inbox	-11.4832
bian	-11.4832
dler	-11.4833
べ	-11.4834
▁Gallery	-11.4835
▁projected	-11.4835
ать	-11.4837
▁Planet	-11.4837
▁billionaire	-11.4837
hai	-11.484
▁slave	-11.4841
▁devastating	-11.4842
erne	-11.4843
▁pastor	-11.4844
▁9/11	-11.4844
▁thumb	-11.4846
▁eff	-11.4846
▁situated	-11.4848
▁Historic	-11.4849
▁gameplay	-11.4849
数	-11.485
▁uncertain	-11.4852
▁walks	-11.4854
▁ма	-11.4855
▁relatives	-11.4855
ール	-11.4856
osis	-11.4857
rl	-11.4858
uction	-11.4858
▁ambitious	-11.4858
▁shouted	-11.4859
気	-11.4861
▁elderly	-11.4861
▁threshold	-11.4863
ficial	-11.4863
▁mild	-11.4863
▁innings	-11.4863
▁Serbia	-11.4864
▁Horn	-11.4865
▁tragedy	-11.4865
▁attributed	-11.4865
▁että	-11.4866
▁sensation	-11.4867
▁UI	-11.4867
▁nä	-11.4867
▁Denmark	-11.4869
ulu	-11.4869
▁cad	-11.487
ού	-11.4873
chant	-11.4873
AND	-11.4873
▁2.5	-11.4873
▁premiere	-11.4873
▁collecting	-11.4876
▁Own	-11.4877
▁prima	-11.4878
▁tit	-11.4881
▁extremist	-11.4881
heit	-11.4881
▁disclosure	-11.4882
aron	-11.4883
num	-11.4883
▁Kur	-11.4883
▁Circuit	-11.4885
▁provisions	-11.4887
いた	-11.4887
▁dish	-11.4887
▁Medicare	-11.4888
▁bounce	-11.489
itarian	-11.489
▁pause	-11.4891
▁Netanyahu	-11.4893
▁layers	-11.4894
Dis	-11.4894
▁(10	-11.4894
anza	-11.4897
▁availability	-11.4897
▁distract	-11.4899
▁BR	-11.4899
▁creep	-11.4901
▁bones	-11.4903
▁supporter	-11.4903
▁documented	-11.4904
reich	-11.4904
▁Mala	-11.4906
▁leaned	-11.4906
▁resign	-11.4908
izz	-11.4908
oriented	-11.491
▁Training	-11.4914
ffin	-11.4916
five	-11.4916
▁revealing	-11.4917
▁desde	-11.4917
▁gall	-11.492
▁scholars	-11.4922
▁Б	-11.4922
.“	-11.4922
▁render	-11.4922
▁suggestion	-11.4922
▁escort	-11.4924
▁horrible	-11.4928
Photo	-11.4928
value	-11.4929
▁trapped	-11.4931
▁elaborate	-11.4931
▁whilst	-11.4935
ales	-11.4937
▁autor	-11.4939
▁sauce	-11.4939
▁absent	-11.494
開	-11.494
▁acres	-11.4941
▁exploration	-11.4942
Am	-11.4942
ный	-11.4942
▁$9	-11.4943
▁Mall	-11.4944
TOR	-11.4946
▁inevitable	-11.4946
▁permitted	-11.4947
▁equation	-11.4947
▁Commander	-11.495
▁Nan	-11.495
▁Search	-11.4953
▁tourists	-11.4954
▁questioning	-11.4954
▁fastest	-11.4954
asta	-11.4955
▁imagination	-11.4955
▁edited	-11.4956
runner	-11.4957
▁attendance	-11.4957
▁tiene	-11.4958
oka	-11.4958
▁forming	-11.4959
▁Fat	-11.4961
▁Batman	-11.4963
▁explicitly	-11.4964
▁composer	-11.4965
▁AB	-11.4967
rij	-11.4968
▁suspicious	-11.4969
ие	-11.4969
enter	-11.4971
▁absurd	-11.4971
▁laser	-11.4975
▁Keith	-11.4975
▁Asked	-11.4975
▁$20	-11.4976
Net	-11.4977
▁clash	-11.4981
▁empire	-11.4981
▁institute	-11.4982
▁vai	-11.4982
▁Flor	-11.4984
NET	-11.4984
▁rig	-11.4985
ggy	-11.4987
▁battles	-11.499
▁pending	-11.499
▁Gate	-11.4991
▁Est	-11.4991
▁Julian	-11.4992
▁assured	-11.4993
▁scrutiny	-11.4994
▁Pun	-11.4995
▁realm	-11.4996
▁honey	-11.4997
isen	-11.4997
▁trusted	-11.4998
▁Python	-11.4998
▁smash	-11.4999
jet	-11.4999
▁trash	-11.5
▁Almost	-11.5
ил	-11.5
eiro	-11.5002
▁Falcon	-11.5004
ledge	-11.5004
通	-11.5005
▁Roberts	-11.5005
▁cops	-11.5006
▁Kenya	-11.5007
▁pol	-11.5009
▁conceal	-11.501
▁convey	-11.501
理	-11.5011
Н	-11.5011
▁Domin	-11.5012
/20	-11.5015
▁earnings	-11.5016
že	-11.5017
▁accelerate	-11.5017
▁Ref	-11.5017
▁typ	-11.5019
▁ought	-11.5019
▁Nur	-11.502
ấ	-11.5021
▁Terry	-11.5022
▁trou	-11.5024
▁Blockchain	-11.5024
specific	-11.5025
▁iPad	-11.5025
enza	-11.5026
("	-11.5027
pla	-11.5027
going	-11.5028
mbi	-11.5028
lung	-11.503
▁wander	-11.503
▁Bee	-11.5031
▁swimming	-11.5033
▁expire	-11.5036
mitted	-11.5036
▁structural	-11.5037
▁arrangement	-11.5037
iment	-11.5038
▁advisor	-11.5038
▁employer	-11.5039
▁Episode	-11.504
▁cognitive	-11.504
keeper	-11.5042
▁auction	-11.5042
▁pressing	-11.5043
▁bout	-11.5044
目	-11.5046
▁Marcus	-11.5047
nick	-11.5047
▁Berkeley	-11.5051
▁McCo	-11.5051
▁buck	-11.5054
rado	-11.5055
▁iz	-11.5059
▁gest	-11.5063
▁proceedings	-11.5064
▁exhaust	-11.5066
▁hun	-11.5068
▁Scholar	-11.5071
▁folder	-11.5071
HC	-11.5072
▁pond	-11.5072
▁Bil	-11.5074
▁Brussels	-11.5077
▁ok	-11.5077
▁gaining	-11.5078
▁MD	-11.5079
▁workshop	-11.5081
▁scam	-11.5083
▁separation	-11.5084
日本	-11.5084
cycle	-11.5084
▁lean	-11.5086
▁Mitt	-11.5092
▁capitalist	-11.5092
▁raz	-11.5092
uke	-11.5093
▁possibilities	-11.5094
▁tick	-11.5095
▁devoted	-11.5096
▁Forum	-11.5096
▁libraries	-11.5098
▁fails	-11.51
bou	-11.5102
▁dispos	-11.5103
▁rack	-11.5105
▁1961	-11.5107
tour	-11.5107
ת	-11.5108
▁Beth	-11.5109
▁tariffs	-11.511
logy	-11.5111
力	-11.5112
▁beast	-11.5113
▁pregnancy	-11.5114
▁2003,	-11.5115
▁boyfriend	-11.5116
▁expose	-11.5118
▁Clean	-11.5118
▁stats	-11.5121
▁Py	-11.5123
▁Costa	-11.5127
‐	-11.5128
add	-11.5128
▁chips	-11.5128
▁Woman	-11.5128
▁rugby	-11.5129
▁Whatever	-11.513
▁Assad	-11.5131
▁illegally	-11.5131
▁demographic	-11.5133
▁01	-11.5134
etic	-11.5135
storm	-11.5136
би	-11.5137
▁duo	-11.5138
▁historically	-11.5138
service	-11.5139
▁Fact	-11.514
▁difficulties	-11.5142
▁parade	-11.5143
▁powered	-11.5146
abad	-11.5147
▁Living	-11.5148
length	-11.5148
▁survivors	-11.5149
▁immigrant	-11.5149
▁investing	-11.5149
ια	-11.515
▁EV	-11.5151
grant	-11.5156
▁Hills	-11.5156
bru	-11.5158
▁predator	-11.516
science	-11.5162
arily	-11.5162
Every	-11.5163
auto	-11.5166
know	-11.5166
▁Coalition	-11.5168
▁Oak	-11.5168
▁accomplish	-11.5168
▁Hack	-11.5168
▁organisations	-11.5172
▁Honor	-11.5173
▁Fisher	-11.5173
▁tumor	-11.5176
▁preview	-11.5178
chte	-11.5179
▁surprisingly	-11.518
▁Norwegian	-11.5181
▁vague	-11.5183
▁Obamacare	-11.5184
▁alternate	-11.5185
friend	-11.5185
▁raises	-11.5187
iana	-11.5187
▁(17	-11.5187
▁AMD	-11.5188
▁musicians	-11.5188
▁Rams	-11.5188
▁pleaded	-11.5188
igt	-11.5189
gado	-11.519
▁Harvey	-11.5191
kö	-11.5191
▁coastal	-11.5192
ξ	-11.5193
ggi	-11.5195
mur	-11.5195
▁Turner	-11.5195
▁Fel	-11.5196
▁Andrea	-11.5196
IV	-11.5196
▁reminder	-11.5197
half	-11.52
ulous	-11.5207
▁69	-11.521
▁garage	-11.5212
Book	-11.5214
▁desired	-11.5214
▁instinct	-11.5215
▁colonial	-11.5215
▁fierce	-11.5217
▁Learn	-11.5217
▁emotion	-11.5217
▁Glen	-11.5221
vari	-11.5221
▁Years	-11.5221
▁cum	-11.5222
▁Kent	-11.5222
▁Fellow	-11.5223
▁Nova	-11.5225
▁Brandon	-11.5226
▁Defence	-11.5227
▁glance	-11.5231
▁Vel	-11.5234
▁Tin	-11.5234
▁barrier	-11.5234
▁tak	-11.5234
▁newspapers	-11.5236
zioni	-11.5237
▁meets	-11.5237
▁violate	-11.5244
▁Flynn	-11.5246
John	-11.5246
▁ה	-11.5246
▁77	-11.5248
ffi	-11.5249
▁accommodate	-11.525
▁lets	-11.5251
▁corridor	-11.5251
ある	-11.5252
▁PRO	-11.5253
▁indigenous	-11.5253
▁workplace	-11.5255
▁courtesy	-11.5255
▁sustain	-11.526
▁approaching	-11.5262
▁wrist	-11.5262
▁deter	-11.5264
mour	-11.5266
▁humanitarian	-11.5266
▁Mason	-11.527
logical	-11.5272
chron	-11.5274
▁shocking	-11.5275
ход	-11.5277
▁connecting	-11.5278
▁passionate	-11.5279
▁loving	-11.528
▁δ	-11.5281
▁pepper	-11.5282
▁anticipated	-11.5284
▁sketch	-11.5284
Che	-11.5287
▁vacation	-11.5289
chet	-11.5292
▁reactions	-11.5292
Min	-11.5292
▁condo	-11.5292
▁år	-11.5293
liter	-11.5294
▁prevented	-11.5295
▁WE	-11.5296
▁scholarship	-11.5298
▁escaped	-11.5301
▁fires	-11.5302
▁kar	-11.5302
▁imperial	-11.5304
▁nickname	-11.5305
loom	-11.5309
▁rope	-11.531
▁Bart	-11.5312
ivi	-11.5312
▁Gay	-11.5314
▁balls	-11.5317
▁limitations	-11.5321
▁Shan	-11.5321
▁78	-11.5322
▁variables	-11.5323
▁Communications	-11.5324
▁rage	-11.5325
prim	-11.5326
▁Flu	-11.5327
▁MB	-11.5328
▁stunning	-11.5329
▁comics	-11.533
▁equity	-11.533
▁Congressional	-11.5331
▁nightmare	-11.5332
▁Sid	-11.5334
ppel	-11.5335
▁Snow	-11.5335
▁drinks	-11.5336
▁Late	-11.5336
化	-11.5338
▁collapsed	-11.5339
下	-11.5339
morph	-11.5341
▁rhythm	-11.5343
▁Flash	-11.5344
ñ	-11.5344
▁bases	-11.5346
▁Kara	-11.5348
▁Thunder	-11.535
▁scream	-11.5351
iller	-11.5352
▁tribute	-11.5352
pool	-11.5354
deal	-11.5354
SF	-11.5355
▁Luis	-11.5356
▁Pot	-11.5356
▁grants	-11.5357
▁animated	-11.5357
▁diff	-11.5357
colo	-11.5357
handed	-11.5357
▁Lei	-11.5359
control	-11.5361
▁Vermont	-11.5363
-13	-11.5364
▁panels	-11.5365
▁eliminated	-11.5366
▁EC	-11.5366
Any	-11.5366
氏	-11.5368
▁Reading	-11.5371
▁compliance	-11.5372
▁snake	-11.5373
▁daughters	-11.5373
▁Lead	-11.5373
omo	-11.5374
▁molecule	-11.5378
▁Print	-11.5378
stage	-11.5381
▁isolation	-11.5382
▁2006.	-11.5382
tale	-11.5384
▁Nevertheless	-11.5386
▁stressed	-11.5387
ên	-11.5387
▁satisfied	-11.5389
▁buzz	-11.5393
▁agreements	-11.5394
▁Software	-11.5394
▁pants	-11.5394
▁Pul	-11.5394
">	-11.5395
▁700	-11.5395
▁mandatory	-11.5396
▁Imperial	-11.5398
http	-11.5402
▁arrow	-11.5403
▁Members	-11.5406
▁frozen	-11.5412
▁coordinator	-11.5413
▁precise	-11.5414
▁capability	-11.5414
shaw	-11.5414
▁disgust	-11.5416
ilor	-11.5416
▁accomplished	-11.5418
▁winds	-11.5418
▁gallery	-11.5418
▁stairs	-11.542
▁violated	-11.5424
▁dealt	-11.5425
fest	-11.5425
▁invitation	-11.5425
dder	-11.5426
▁notification	-11.5426
mouth	-11.5435
▁instruction	-11.5436
▁Made	-11.5438
▁Ah	-11.5439
▁Rhode	-11.544
▁welcomed	-11.5441
▁mort	-11.5442
▁Buffalo	-11.5445
▁WH	-11.5446
integr	-11.5446
▁supplier	-11.5446
でも	-11.5447
lá	-11.5447
▁73	-11.5449
▁calculation	-11.5452
▁Birmingham	-11.5453
▁tanks	-11.5453
▁courses	-11.5453
▁parks	-11.5454
され	-11.5458
▁Bond	-11.546
▁troll	-11.5461
▁Century	-11.5463
▁Bah	-11.5466
▁mature	-11.547
▁blur	-11.547
▁queen	-11.547
▁με	-11.5471
▁1947	-11.5472
▁parameters	-11.5472
▁civilization	-11.5474
▁militants	-11.5475
▁indicating	-11.5477
▁1941	-11.5478
▁Raven	-11.5481
▁excessive	-11.5482
▁announcing	-11.5483
▁execute	-11.5485
pound	-11.5485
▁Earl	-11.549
▁rend	-11.5491
▁grandfather	-11.5492
▁Universe	-11.5493
▁Youth	-11.5493
▁1942	-11.5493
▁squeeze	-11.5493
▁Princess	-11.5493
▁impacts	-11.5493
▁Together	-11.5494
▁militia	-11.5494
biotic	-11.5495
▁buyers	-11.5496
▁organism	-11.5496
▁Bau	-11.5496
Bar	-11.5497
त	-11.5498
ية	-11.5498
▁opens	-11.5499
▁Connect	-11.5499
▁memorial	-11.5501
▁reflects	-11.5501
▁worn	-11.5502
▁Pakistani	-11.5504
▁knees	-11.5504
lique	-11.5505
▁shaking	-11.5506
▁Owen	-11.5507
▁também	-11.5507
igi	-11.5508
ят	-11.5509
▁Artist	-11.551
▁retire	-11.551
▁Soul	-11.5511
▁Switch	-11.5511
▁ng	-11.5512
dad	-11.5512
▁hostile	-11.5513
then	-11.5513
▁Madison	-11.5513
▁oli	-11.5513
labor	-11.5514
2.1	-11.5515
▁adjustment	-11.5515
▁eighth	-11.5515
▁amateur	-11.5515
▁viewing	-11.5515
使	-11.5516
▁Kom	-11.5516
▁pens	-11.5516
▁Jennifer	-11.5517
logue	-11.5521
change	-11.5523
ции	-11.5524
▁HP	-11.5524
ncia	-11.5526
▁Fer	-11.5528
▁rental	-11.5528
▁Voice	-11.5529
▁dancing	-11.5533
▁summary	-11.5533
ær	-11.5533
▁Current	-11.5536
▁Brun	-11.5538
▁continuous	-11.5539
▁meanwhile	-11.5539
▁poetry	-11.5542
▁electro	-11.5542
▁ces	-11.5542
▁whispered	-11.5543
▁COM	-11.5549
▁noting	-11.555
nett	-11.555
▁Holland	-11.5551
▁blanket	-11.5552
▁cheat	-11.5552
▁banner	-11.5553
▁whale	-11.5553
▁wishes	-11.5555
▁Ala	-11.5556
▁SM	-11.5561
▁Similarly	-11.5562
▁swallow	-11.5566
patri	-11.5567
▁villain	-11.5568
▁indicator	-11.5568
gard	-11.5572
▁Study	-11.5573
▁departments	-11.5573
construct	-11.5574
▁condemned	-11.5574
▁whip	-11.5575
▁diagnosed	-11.5575
▁crush	-11.5576
▁dated	-11.5576
▁persuade	-11.5576
▁Baseball	-11.5578
▁conducting	-11.5578
▁Vir	-11.5579
▁texture	-11.558
▁Trek	-11.558
▁Neither	-11.5582
щи	-11.5582
▁Muhammad	-11.5583
▁GR	-11.5585
▁Michelle	-11.5585
▁Carol	-11.5589
▁afterwards	-11.559
hoe	-11.5593
▁leaf	-11.5594
▁tropical	-11.5594
▁timeline	-11.5597
▁(7	-11.5598
▁Jamie	-11.5598
bad	-11.5599
▁000	-11.5605
Ru	-11.5605
pf	-11.5605
▁loves	-11.5606
▁Tampa	-11.5607
▁floating	-11.5607
長	-11.5608
せ	-11.5612
ком	-11.5614
▁Survey	-11.5615
haus	-11.5616
Did	-11.562
▁drops	-11.5621
▁initiatives	-11.5622
▁detected	-11.5624
▁wildlife	-11.5626
▁bronze	-11.563
His	-11.563
▁gently	-11.563
▁fraction	-11.5631
4,000	-11.5633
ба	-11.5633
▁Lebanon	-11.5635
▁showcase	-11.5637
▁Emperor	-11.5637
▁swift	-11.564
▁rob	-11.564
bird	-11.5641
ì	-11.5642
▁buses	-11.5643
▁180	-11.5644
mbro	-11.5644
Tra	-11.5649
▁EX	-11.5649
▁causa	-11.5649
法	-11.5649
▁corresponding	-11.5652
scape	-11.5654
";	-11.5655
▁Esp	-11.5655
▁incorporated	-11.5656
agged	-11.5656
▁incumbent	-11.5656
▁unfortunately	-11.5657
▁Account	-11.5658
▁kann	-11.5658
▁Christianity	-11.5659
▁summon	-11.5659
writer	-11.566
▁::	-11.566
▁advocacy	-11.5661
▁supposedly	-11.5661
▁#2	-11.5662
-14	-11.5664
▁dell	-11.5664
UE	-11.5665
▁layout	-11.5665
▁Alpha	-11.5665
▁Bha	-11.5666
▁Fish	-11.5666
hora	-11.5666
political	-11.5666
▁Census	-11.5667
▁complexity	-11.5669
али	-11.5669
▁Books	-11.5676
▁firearms	-11.5677
▁spoil	-11.5678
▁breed	-11.5679
これ	-11.5679
auf	-11.5679
▁1956	-11.568
▁trafficking	-11.5681
▁flows	-11.5682
▁unfold	-11.5682
Cor	-11.5684
▁Cash	-11.5684
▁theoretical	-11.5686
▁forests	-11.5689
government	-11.5691
ما	-11.5691
PT	-11.5692
▁но	-11.5693
▁shorter	-11.5695
▁countless	-11.5695
istas	-11.5697
eye	-11.5698
▁Bundes	-11.5698
▁bizarre	-11.5698
▁hop	-11.5702
▁intensity	-11.5704
dog	-11.5705
▁Reid	-11.5706
▁mega	-11.5706
▁commentary	-11.5706
▁Wait	-11.5708
▁bargain	-11.5708
▁suite	-11.5709
▁conflicts	-11.571
▁30%	-11.571
▁1939	-11.571
▁Shop	-11.5711
▁partial	-11.5711
▁tragic	-11.5716
まで	-11.5718
ją	-11.5718
8)	-11.572
ał	-11.5724
▁rabbi	-11.5725
▁Working	-11.5729
▁1946	-11.5731
ashi	-11.5732
▁compiled	-11.5733
▁regain	-11.5733
▁powder	-11.5734
2015	-11.5735
ため	-11.5735
▁Poly	-11.5737
▁Richmond	-11.5738
▁milli	-11.5738
▁Omar	-11.574
画	-11.574
▁screaming	-11.5742
▁tourism	-11.5742
▁sponsored	-11.5742
LP	-11.5743
▁Stay	-11.5743
不	-11.5744
▁horn	-11.5745
▁Grey	-11.5745
▁Privacy	-11.5747
▁calculated	-11.5753
ね	-11.5755
▁Grace	-11.5757
bag	-11.5757
▁Legal	-11.5758
▁Agent	-11.5759
▁Problem	-11.576
それ	-11.576
▁computing	-11.5764
central	-11.5767
around	-11.5768
▁>>	-11.577
▁invade	-11.5771
▁το	-11.5772
wash	-11.5772
▁responding	-11.5773
▁grows	-11.5774
EG	-11.5775
▁solicit	-11.5777
▁firmly	-11.5778
▁mixture	-11.5778
War	-11.5779
▁adjacent	-11.5783
▁notorious	-11.5784
▁UP	-11.5785
ї	-11.5785
▁refusing	-11.5785
▁pizza	-11.5787
▁evaluation	-11.579
▁poorly	-11.5791
▁crops	-11.5792
ư	-11.5795
▁años	-11.5795
▁taxi	-11.5797
▁makeup	-11.5798
▁generous	-11.5798
stal	-11.5799
izar	-11.5802
▁charts	-11.5802
▁trucks	-11.5803
Ga	-11.5803
▁MC	-11.5804
▁establishing	-11.5806
▁immense	-11.5806
▁hammer	-11.5806
▁Merkel	-11.5809
▁consisted	-11.5812
create	-11.5813
▁affects	-11.5814
▁Workers	-11.5815
ações	-11.5815
nza	-11.5819
tö	-11.582
▁displays	-11.5826
treat	-11.5827
▁hail	-11.5827
▁Kurdish	-11.5829
Will	-11.5829
president	-11.583
▁altogether	-11.583
▁Select	-11.5831
▁74	-11.5832
▁protective	-11.5833
▁attain	-11.5834
powered	-11.5835
▁honestly	-11.5835
▁recession	-11.5836
ffe	-11.5836
▁mechanisms	-11.5837
▁pier	-11.5838
plus	-11.5838
▁Gran	-11.5838
▁nano	-11.5838
▁Zone	-11.5839
▁compelling	-11.5839
▁(2)	-11.584
▁particles	-11.5841
▁ideological	-11.5842
▁secular	-11.5843
lica	-11.5843
▁nh	-11.5844
▁Rogers	-11.5846
▁Hub	-11.5846
State	-11.5848
▁Terror	-11.5849
vian	-11.5849
▁Launch	-11.5851
While	-11.5852
▁Kas	-11.5853
ritt	-11.5854
stock	-11.5856
▁Subscribe	-11.5858
▁(8	-11.5859
▁Dennis	-11.586
▁triggered	-11.586
▁Quick	-11.5861
▁applying	-11.5862
▁militar	-11.5862
▁inspection	-11.5862
▁mounted	-11.5865
хо	-11.5866
▁Hai	-11.5868
▁sisters	-11.5869
▁beef	-11.5869
▁planes	-11.587
▁`	-11.5872
▁printing	-11.5873
▁vest	-11.5874
▁treating	-11.5875
See	-11.5881
▁amend	-11.5881
▁Half	-11.5882
▁circles	-11.5884
▁tourist	-11.5884
▁donation	-11.5884
▁Devil	-11.5885
▁prze	-11.5885
▁$15	-11.5889
▁rag	-11.5891
MD	-11.5893
▁Warriors	-11.5894
Billboard	-11.5895
▁Solar	-11.5896
▁Rosa	-11.5897
uli	-11.5898
▁distress	-11.5898
dling	-11.5899
ツ	-11.5899
ズ	-11.5899
▁Leo	-11.5899
ード	-11.5902
êm	-11.5903
▁frustrated	-11.5905
▁epidemic	-11.5905
▁Tree	-11.5908
▁NC	-11.5909
▁occasional	-11.5911
▁grin	-11.5911
▁Mumbai	-11.5912
▁Kay	-11.5912
▁beloved	-11.5913
▁locally	-11.5913
▁neglect	-11.5914
▁niet	-11.5914
▁consequence	-11.5914
clar	-11.5916
Cu	-11.592
▁hopeful	-11.592
▁Bak	-11.5921
▁distinguish	-11.5921
pris	-11.5922
▁punt	-11.5922
▁motive	-11.5922
▁sheriff	-11.5925
▁investor	-11.5926
ение	-11.5927
plane	-11.5927
▁1958	-11.5927
▁addict	-11.593
▁wet	-11.5932
▁WWE	-11.5933
▁Qatar	-11.5933
▁zijn	-11.5935
lichen	-11.5935
aud	-11.5937
▁priv	-11.5939
▁Barbara	-11.594
▁unnecessary	-11.5941
▁reluctant	-11.5944
▁inclusion	-11.5947
▁Liberty	-11.5953
▁greenhouse	-11.5953
release	-11.5953
▁productivity	-11.5954
▁completing	-11.5955
Per	-11.5955
shaped	-11.5955
▁oversight	-11.5956
τε	-11.5956
▁adapted	-11.5957
▁gegen	-11.5958
▁Official	-11.5959
RNA	-11.5959
▁Color	-11.596
▁Cincinnati	-11.5961
▁Screen	-11.5962
▁resolved	-11.5962
ば	-11.5963
多	-11.5965
▁ethical	-11.5967
▁Cover	-11.5967
ется	-11.5969
▁flick	-11.5969
▁durch	-11.5969
▁Nicola	-11.5971
▁Angela	-11.5973
paper	-11.5973
▁1959	-11.5974
▁stain	-11.5976
▁mentor	-11.5978
▁Hero	-11.598
▁viable	-11.598
▁fifteen	-11.598
▁rewards	-11.598
▁WATCH	-11.5982
ние	-11.5983
▁diminish	-11.5985
▁ethics	-11.5987
▁fist	-11.5988
▁fost	-11.5988
▁bundle	-11.5989
▁Double	-11.599
▁wrestling	-11.5992
utter	-11.5993
▁freely	-11.5993
▁Paper	-11.5994
Name	-11.5997
▁Published	-11.5997
▁sen	-11.5999
ffy	-11.5999
▁Г	-11.6001
▁farming	-11.6002
▁governing	-11.6004
strict	-11.6006
▁orientation	-11.6007
▁youngest	-11.6008
Е	-11.6009
тов	-11.6013
aram	-11.6016
▁ward	-11.6018
▁autonomous	-11.6018
sided	-11.6019
Because	-11.6019
▁eleven	-11.602
▁healing	-11.6021
▁Marx	-11.6021
▁flexible	-11.6021
Black	-11.6021
risk	-11.6022
▁helmet	-11.6022
factor	-11.6023
vocation	-11.6024
▁smiling	-11.6024
▁Ple	-11.6024
▁sophisticated	-11.6026
▁temper	-11.6027
▁ihre	-11.603
corp	-11.6031
▁fiber	-11.6032
▁unsuccessful	-11.6034
▁cryptocurrencie	-11.6035
▁1943	-11.6036
▁recon	-11.6037
▁Better	-11.6038
wit	-11.6039
▁virtue	-11.6039
▁71	-11.6042
נ	-11.6044
▁colleague	-11.6046
FE	-11.6047
Then	-11.6049
▁aussi	-11.6049
▁Anton	-11.605
▁Finland	-11.605
written	-11.6051
機	-11.6051
▁Plant	-11.6052
▁Macron	-11.6053
▁bonds	-11.6056
▁qualifying	-11.6057
στ	-11.6057
kun	-11.6059
▁penalties	-11.606
minded	-11.6062
▁strongest	-11.6062
green	-11.6062
ى	-11.6063
▁Girls	-11.6066
▁ante	-11.6067
RR	-11.6067
▁legendary	-11.6069
▁motiv	-11.607
▁acceptance	-11.6072
▁ي	-11.6072
minister	-11.6074
▁rushing	-11.6075
▁controlling	-11.6075
▁hungry	-11.6079
▁casting	-11.6079
▁Truth	-11.608
лу	-11.608
▁jaw	-11.6081
▁elder	-11.6083
▁Site	-11.6084
▁Anyone	-11.6085
▁identification	-11.6086
▁rub	-11.6087
思	-11.6088
▁Computer	-11.609
brook	-11.6092
代	-11.6093
▁discharge	-11.61
rul	-11.61
heat	-11.6102
▁ruler	-11.6102
▁Rosen	-11.6106
bio	-11.6108
lage	-11.6108
▁wreck	-11.6112
▁Chang	-11.6114
▁já	-11.6116
ury	-11.6118
▁Lind	-11.6119
ذ	-11.6119
zh	-11.6119
▁feared	-11.612
ought	-11.6122
▁Brady	-11.6122
▁Colo	-11.6123
▁sighed	-11.6125
MENT	-11.6125
▁respected	-11.6125
▁suggestions	-11.6128
▁renewed	-11.6128
▁safer	-11.6129
▁robots	-11.6129
▁politic	-11.613
▁denial	-11.613
▁chunk	-11.613
▁musician	-11.6131
▁Chen	-11.6132
▁apple	-11.6133
▁anime	-11.6134
chel	-11.6136
▁hence	-11.6137
є	-11.6139
▁equi	-11.6141
▁Metropolitan	-11.6142
▁Enter	-11.6143
▁tender	-11.6143
▁transformed	-11.6144
▁glanced	-11.6151
▁Fantasy	-11.6153
▁Vas	-11.6155
lane	-11.6156
▁Industry	-11.6157
▁Rama	-11.6158
Uni	-11.6161
▁determination	-11.6162
▁Celtic	-11.6163
TU	-11.6164
▁limb	-11.6164
▁Rice	-11.6166
▁mob	-11.6168
▁0.1	-11.6169
▁TE	-11.6169
FR	-11.6171
▁sparked	-11.6171
ить	-11.6172
▁switched	-11.6174
▁inhabitants	-11.6175
▁Wie	-11.6176
▁prevail	-11.6178
▁tal	-11.6178
▁Culture	-11.6178
▁vessels	-11.6179
▁Kno	-11.6179
▁northwest	-11.6181
業	-11.6181
controlled	-11.6185
ppi	-11.6185
fun	-11.6185
▁quad	-11.6188
still	-11.6189
▁manipulate	-11.619
▁bears	-11.6191
▁artistic	-11.6192
rina	-11.6193
▁hatred	-11.6196
▁pathway	-11.6196
▁avoided	-11.6197
▁precious	-11.6197
▁Kai	-11.6201
Here	-11.6203
▁Boeing	-11.6203
▁ugly	-11.6205
▁behave	-11.6207
▁slipped	-11.621
4.5	-11.621
▁José	-11.6211
▁Pinterest	-11.6214
▁transmit	-11.6215
▁renew	-11.6215
▁nem	-11.6217
▁deciding	-11.6219
cam	-11.622
usa	-11.6221
▁NEW	-11.6222
▁neighborhoods	-11.6224
された	-11.6225
mill	-11.6226
▁curb	-11.6227
lack	-11.6227
kor	-11.6228
▁Ellis	-11.6229
▁complement	-11.623
να	-11.6231
▁Gandhi	-11.6232
center	-11.6233
adores	-11.6234
С	-11.6236
ogen	-11.6236
▁reside	-11.6238
III	-11.624
VP	-11.624
▁Lanka	-11.624
▁tobacco	-11.624
PH	-11.6241
▁Title	-11.6241
▁Pradesh	-11.6241
лов	-11.6242
▁Student	-11.6242
▁</	-11.6243
bear	-11.6243
▁Ship	-11.6246
▁pricing	-11.6248
▁gal	-11.6248
▁inappropriate	-11.6249
▁caucus	-11.625
▁Boris	-11.6253
rett	-11.6253
▁communist	-11.6253
+1	-11.6254
▁filmed	-11.6256
金	-11.6256
▁Zen	-11.6257
▁crude	-11.6257
girl	-11.626
zio	-11.626
▁fitness	-11.6261
▁fever	-11.6262
▁Fab	-11.6262
▁traditionally	-11.6265
▁juice	-11.6265
▁cabin	-11.6265
bone	-11.6266
▁Soccer	-11.6266
▁barriers	-11.6266
▁artwork	-11.6268
▁gifts	-11.6268
▁Wang	-11.6269
backed	-11.627
▁credited	-11.627
▁Rub	-11.6271
vig	-11.6271
▁neighbor	-11.6271
▁shark	-11.6271
公	-11.6274
▁butter	-11.6275
▁essence	-11.6275
big	-11.6276
▁Ski	-11.6283
▁mineral	-11.6283
▁GPU	-11.6284
▁Jefferson	-11.6285
▁της	-11.6286
▁Wonder	-11.6292
capac	-11.6292
▁même	-11.6292
▁PD	-11.6293
▁Wheel	-11.6294
▁Harrison	-11.6295
▁observations	-11.6297
▁massacre	-11.6298
▁verdict	-11.6298
▁Mak	-11.6299
kind	-11.63
hä	-11.63
οι	-11.6303
hoo	-11.6304
▁Copyright	-11.6304
▁Arctic	-11.6305
▁harmful	-11.6306
€	-11.6307
naut	-11.6308
▁slavery	-11.6308
なく	-11.6309
▁360	-11.631
Fe	-11.6311
ança	-11.6311
モ	-11.6312
Mr	-11.6312
▁DeviantArt	-11.6313
▁unveiled	-11.6313
▁Dai	-11.6315
building	-11.6315
spiration	-11.6316
▁Kun	-11.6318
▁$50	-11.6318
▁Twin	-11.6325
▁taxpayers	-11.6325
FP	-11.6328
▁flo	-11.6331
▁listened	-11.6332
MR	-11.6332
ease	-11.6338
▁24-	-11.6339
▁prescription	-11.634
▁treaty	-11.6341
cross	-11.6341
▁identifying	-11.6343
▁todos	-11.6344
▁Gy	-11.6344
oxy	-11.6345
teil	-11.6345
▁belongs	-11.6346
▁witch	-11.6346
Okay	-11.6347
▁woke	-11.6349
olu	-11.635
▁Zero	-11.6351
▁noble	-11.6351
▁contender	-11.6353
öl	-11.6353
▁slash	-11.6354
▁insane	-11.6357
finity	-11.6361
▁(9	-11.6361
dores	-11.6362
▁Peru	-11.6363
▁Tip	-11.6364
▁priorities	-11.637
▁1949	-11.6374
▁Lower	-11.6374
▁plugin	-11.6375
claim	-11.6376
▁holy	-11.6376
▁Getting	-11.6378
▁asleep	-11.6378
▁blank	-11.6378
▁crashed	-11.638
▁fem	-11.6381
▁climbing	-11.6382
▁triumph	-11.6382
lysis	-11.6383
成	-11.6383
▁distort	-11.6386
rite	-11.6386
▁Rain	-11.6389
▁bush	-11.6389
▁LO	-11.6394
ACK	-11.6395
▁FM	-11.6396
ポ	-11.6396
▁tennis	-11.6398
▁bearing	-11.6399
fly	-11.6401
▁editing	-11.6403
▁1957	-11.6404
▁embassy	-11.6405
▁territories	-11.6405
▁Making	-11.6407
▁Neg	-11.6408
ست	-11.6409
▁пере	-11.6411
rush	-11.6413
▁grim	-11.6419
legal	-11.6419
▁να	-11.642
▁Bobby	-11.6421
▁Mali	-11.6421
▁Letter	-11.6422
ệ	-11.6422
▁binding	-11.6422
▁landmark	-11.6422
▁deserves	-11.6425
▁admire	-11.6426
▁бы	-11.6429
▁cord	-11.643
▁doctrine	-11.643
May	-11.643
▁Comb	-11.6432
▁Tournament	-11.6432
▁offseason	-11.6435
▁consume	-11.6435
▁Metal	-11.6441
▁Turk	-11.6443
▁trim	-11.6445
radi	-11.6446
▁disturbing	-11.6447
▁Language	-11.6447
▁feeding	-11.6449
物	-11.6449
ام	-11.645
став	-11.645
psi	-11.6452
▁HERE	-11.6452
▁couch	-11.6453
▁Cab	-11.6455
onia	-11.646
jah	-11.6461
plat	-11.6462
▁reserves	-11.6462
dzi	-11.6463
▁pursuing	-11.6465
▁Saints	-11.6467
▁imported	-11.6467
▁PP	-11.6469
MT	-11.6469
▁counted	-11.6469
▁Ghost	-11.647
▁clever	-11.647
▁Heritage	-11.6472
▁Television	-11.6475
▁gel	-11.6475
▁Columbus	-11.6476
ων	-11.6478
idas	-11.6482
▁Kre	-11.6482
▁Tat	-11.6484
▁accent	-11.6486
▁Transport	-11.6487
▁passport	-11.6489
▁Month	-11.6489
▁imagined	-11.6491
▁contradict	-11.6493
9)	-11.6494
▁preliminary	-11.6497
smith	-11.6498
gression	-11.6499
AV	-11.65
▁Medicaid	-11.6501
▁relating	-11.6505
▁bloody	-11.6506
▁Manning	-11.6508
▁curse	-11.6509
▁prince	-11.651
▁Original	-11.6511
▁constituency	-11.6512
▁Emily	-11.6512
▁kh	-11.6514
▁Sym	-11.6515
▁Build	-11.6515
▁Phone	-11.6518
▁uno	-11.6518
▁Vote	-11.6521
▁boats	-11.6522
®	-11.6522
▁Sat	-11.6523
	-11.6523
▁suspend	-11.6524
▁authorized	-11.6527
RG	-11.6528
▁dense	-11.6528
合	-11.6529
▁Tory	-11.6531
▁Agreement	-11.6531
▁striker	-11.6535
▁dispatch	-11.6536
▁systematic	-11.6536
▁drought	-11.6536
▁dice	-11.6537
▁88	-11.6538
▁Paulo	-11.6538
▁intimate	-11.6539
▁Large	-11.6539
▁ка	-11.6541
▁Foto	-11.6543
▁societies	-11.6543
▁deliberately	-11.6544
Ed	-11.6544
▁SU	-11.6544
▁Cul	-11.6545
▁Strange	-11.6547
▁Hamas	-11.6548
found	-11.6549
▁publications	-11.6552
▁thereby	-11.6554
▁governance	-11.6555
ע	-11.6558
▁Commerce	-11.656
▁lang	-11.6562
2020	-11.6564
▁се	-11.6565
аль	-11.6567
social	-11.6568
▁meantime	-11.6568
▁Mix	-11.6573
▁Erik	-11.6574
▁batteries	-11.6575
[...]
